the 429636
, 381594
of 270787
. 240061
and 181625
( 159645
) 159395
in 143514
to 136084
a 125401
was 110360
' 72012
is 66846
as 61739
" 60274
that 45482
by 43306
no 39175
for 38561
The 36880
on 36461
he 34792
with 34422
from 31887
his 29855
's 28761
it 27874
were 27412
at 25233
which 25208
In 24312
who 22816
an 22668
are 20724
or 19857
: 18531
period 17945
He 17607
be 17355
family 16293
Emperor 15860
Kyoto 15581
had 15519
this 15192
also 15160
but 15124
It 14764
not 14406
clan 13934
Temple 13249
Japan 13201
Japanese 13014
called 12630
Province 12334
Imperial 12146
became 11866
one 11723
after 11426
City 11224
name 11220
such 10475
; 10338
been 10230
used 10077
have 9776
there 9568
Prefecture 9505
when 9455
- 9358
time 8971
they 8594
their 8420
into 8114
other 8035
son 7921
during 7872
made 7836
government 7597
has 7499
first 7460
Station 7458
Edo 7251
His 7246
people 7115
its 7067
so 7028
said 7003
However 6979
year 6753
because 6350
Prince 6109
between 6059
This 5851
later 5801
On 5731
only 5708
same 5637
under 5589
head 5468
system 5415
Shrine 5281
about 5269
many 5258
two 5221
some 5151
years 5097
her 5094
After 5053
died 4981
FUJIWARA 4932
A 4918
court 4878
school 4871
up 4846
out 4762
old 4686
them 4654
Castle 4632
established 4611
over 4574
temple 4568
where 4467
written 4447
him 4422
Buddhist 4398
known 4342
father 4336
Rank 4305
age 4243
all 4239
three 4188
position 4178
bakufu 4163
part 4129
including 4119
death 4111
than 4080
area 4077
then 4066
order 4035
well 4021
held 3990
There 3981
As 3967
can 3951
rank 3936
second 3895
being 3888
those 3880
army 3864
around 3845
appointed 3836
rice 3832
daughter 3825
style 3793
she 3789
line 3777
Kamakura 3731
Line 3720
while 3660
-@@ 3655
military 3620
served 3610
Court 3602
came 3574
1 3569
since 3563
side 3559
Domain 3514
through 3491
given 3447
located 3444
lord 3442
new 3439
end 3434
however 3427
War 3390
more 3351
official 3327
Meiji 3319
took 3307
[ 3301
/ 3296
] 3295
When 3279
each 3273
Nara 3265
following 3263
priest 3221
MINAMOTO 3220
like 3219
Junior 3200
Osaka 3194
based 3191
place 3191
these 3174
local 3148
various 3118
Chinese 3113
down 3110
due 3109
day 3090
wife 3085
before 3067
main 3065
early 3058
considered 3055
power 3041
O@@ 3010
Palace 3004
imperial 2996
left 2976
theory 2944
region 2940
shogun 2940
Tokyo 2905
brother 2893
person 2885
post 2884
Ward 2873
chief 2860
un@@ 2829
would 2819
even 2816
Heian 2794
sect 2786
April 2782
station 2782
shrine 2774
built 2759
March 2754
did 2748
against 2747
both 2737
Although 2727
started 2726
feudal 2723
era 2723
title 2722
samurai 2718
mother 2706
I 2703
himself 2703
in@@ 2657
back 2647
At 2636
January 2622
use 2617
born 2608
land 2591
ancient 2569
k@@ 2541
emperor 2540
School 2536
could 2529
kami 2527
Buddhism 2524
way 2517
former 2515
went 2498
often 2495
S@@ 2485
among 2482
China 2468
July 2468
number 2451
adopted 2446
times 2441
book 2439
ceremony 2439
present 2430
addition 2423
October 2422
Mt 2412
tea 2404
become 2401
o 2395
en 2395
August 2381
group 2372
third 2360
long 2359
According 2336
February 2325
most 2315
December 2310
2 2306
May 2288
days 2278
do 2243
until 2238
battle 2237
led 2237
work 2231
without 2229
Hideyoshi 2226
domain 2220
others 2213
Minister 2210
state 2206
war 2206
changed 2205
September 2203
g@@ 2201
century 2197
different 2188
Nobunaga 2175
Period 2170
if 2167
sake 2159
I@@ 2155
koku 2151
using 2149
November 2137
history 2135
sho 2130
National 2126
literally 2125
another 2114
section 2114
means 2100
Shinto 2099
3 2098
University 2091
office 2090
temples 2086
above 2085
ai 2065
fact 2064
A@@ 2062
June 2059
great 2053
t@@ 2045
yo 2042
ing 2042
Grade 2036
E@@ 2035
hand 2032
birth 2028
child 2024
along 2020
should 2016
Buddha 2013
high 2011
trains 2007
began 2000
Muromachi 1998
castle 1992
four 1991
Battle 1990
an@@ 1986
will 1977
lived 1975
go 1973
large 1971
families 1968
members 1966
TOKUGAWA 1961
general 1961
important 1957
capital 1952
unknown 1944
water 1942
together 1941
G@@ 1940
younger 1938
River 1925
right 1925
Railway 1923
own 1922
Kan@@ 1921
o-@@ 1914
form 1911
service 1911
life 1908
statue 1906
make 1904
For 1904
K@@ 1897
Genji 1890
Empress 1889
according 1888
away 1876
original 1875
set 1871
re@@ 1870
believed 1866
en@@ 1863
having 1857
s@@ 1852
M@@ 1846
a-@@ 1844
member 1843
term 1827
promoted 1820
n@@ 1817
residence 1812
San@@ 1811
B@@ 1807
late 1807
i 1800
daimyo 1795
received 1794
D@@ 1793
i@@ 1792
ASHIKAGA 1791
described 1784
world 1782
5 1780
jo 1775
Since 1774
put 1772
es 1770
4 1769
Shin@@ 1768
public 1763
T@@ 1763
still 1761
hall 1760
children 1754
political 1750
small 1741
Senior 1741
national 1739
m@@ 1736
house 1734
She 1728
Street 1725
traditional 1725
within 1723
building 1717
control 1716
five 1714
N@@ 1711
shrines 1710
thought 1706
10 1706
moved 1706
u 1700
Ieyasu 1696
governor 1695
succeeded 1693
type 1688
calendar 1688
e 1687
R@@ 1684
They 1677
killed 1675
named 1671
found 1667
front 1665
names 1664
't 1664
historical 1663
branch 1663
b@@ 1658
H@@ 1652
you 1648
country 1646
shu 1643
Shi@@ 1642
ed 1631
included 1631
example 1624
Tokugawa 1623
ch@@ 1622
performed 1620
Yoritomo 1616
on@@ 1610
result 1602
placed 1596
sh@@ 1593
Shogun 1592
gave 1591
god 1587
common 1586
very 1584
y@@ 1584
During 1578
designated 1578
ak@@ 1577
now 1575
making 1575
Therefore 1572
sent 1568
any 1564
story 1564
good 1560
returned 1552
o@@ 1548
e-@@ 1541
Yamato 1540
U@@ 1538
Also 1535
books 1534
areas 1533
works 1529
middle 1528
passed 1528
produced 1524
am@@ 1523
6 1517
case 1516
issued 1509
charge 1507
ar@@ 1504
word 1503
TAIRA 1495
7 1495
mainly 1494
p@@ 1493
s 1491
Lower 1490
seen 1490
Southern 1489
Princess 1484
popular 1482
Dynasty 1482
referred 1479
train 1477
Taira 1474
originally 1471
Ministry 1469
Northern 1469
Korea 1469
headed 1468
aku 1468
next 1463
ei 1463
mountain 1462
ers 1460
take 1459
County 1456
territory 1455
developed 1452
today 1451
created 1448
at@@ 1444
lost 1431
refers 1427
therefore 1427
Later 1426
J@@ 1425
entered 1422
poems 1422
d@@ 1420
famous 1417
20 1417
paper 1415
er 1414
young 1413
shogunate 1413
art 1412
role 1410
ki 1410
In@@ 1410
j@@ 1408
man 1402
15 1399
sometimes 1396
music 1395
Hall 1393
z@@ 1392
master 1389
i-@@ 1383
ko 1380
forces 1379
again 1379
C@@ 1377
city 1372
modern 1359
suke 1358
sword 1357
provincial 1355
oku 1354
u@@ 1351
shi 1349
once 1347
Dai@@ 1345
F@@ 1341
Gon 1341
construction 1340
site 1335
off 1326
law 1326
h@@ 1324
ag@@ 1318
nobles 1317
8 1317
last 1306
whose 1305
although 1304
e@@ 1304
published 1303
ab@@ 1302
reason 1300
close 1300
it@@ 1300
officials 1300
half 1298
Y@@ 1298
New 1294
characters 1292
9 1291
noble 1290
continued 1287
Noh 1285
cho 1281
troops 1280
W@@ 1277
introduced 1276
town 1275
just 1273
played 1273
soldiers 1268
assumed 1267
enshrined 1267
ODA 1266
From 1266
retainer 1265
private 1261
a@@ 1261
Family 1261
class 1260
L@@ 1258
able 1256
P@@ 1254
several 1254
Omi 1252
Sect 1251
business 1249
may 1245
stone 1242
JR 1233
Cultural 1233
Kanto 1231
real 1231
ordered 1231
fire 1230
Division 1229
Fifth 1225
special 1225
east 1224
current 1223
ate 1221
10@@ 1219
Museum 1218
major 1218
om@@ 1217
relationship 1216
w@@ 1216
allowed 1215
Governor 1213
throne 1211
cultural 1211
character 1210
Kin@@ 1209
History 1205
top 1205
or@@ 1202
12 1200
Keihan 1199
House 1199
ok@@ 1199
beginning 1196
6@@ 1193
west 1193
retired 1191
force 1189
instead 1189
retainers 1185
status 1185
aki 1185
origin 1183
One 1182
Kyushu 1178
9@@ 1178
regarded 1177
related 1177
meaning 1175
direct 1173
Some 1172
meters 1171
brought 1168
as@@ 1167
study 1166
appeared 1165
cases 1163
transferred 1162
30 1162
founded 1160
Great 1156
Because 1156
er@@ 1154
fourth 1154
palace 1148
places 1148
Sengoku 1147
ation 1147
center 1144
mentioned 1144
food 1143
Tang 1142
men 1139
Incident 1139
body 1136
gate 1135
Ch@@ 1133
etc 1132
vassal 1130
every 1128
schools 1128
poetry 1127
sha 1125
kan 1125
Z@@ 1122
West 1121
joined 1120
Minamoto 1118
completed 1114
11 1108
ad@@ 1108
Fujiwara 1107
wrote 1107
Guards 1105
ichi 1103
8@@ 1103
remains 1102
religious 1099
Bus 1098
countries 1095
south 1095
culture 1090
taken 1089
l@@ 1087
words 1086
situation 1085
stage 1084
view 1082
founder 1082
Office 1081
TOYOTOMI 1081
13 1079
village 1078
north 1078
generation 1078
opened 1078
shi@@ 1074
image 1073
home 1071
Ise 1069
ji 1067
ho 1066
ur@@ 1064
yu 1064
method 1059
affairs 1056
um@@ 1056
festival 1054
Sh@@ 1054
deity 1054
25 1053
commander 1053
incident 1052
Festival 1051
y 1050
decided 1049
Western 1047
Third 1046
influence 1046
room 1046
defeated 1042
record 1041
al@@ 1040
fought 1037
tried 1037
painting 1037
married 1037
six 1036
materials 1036
what 1035
7@@ 1035
constructed 1032
operation 1032
similar 1030
collection 1029
ik@@ 1029
point 1028
women 1027
Second 1027
company 1023
documents 1023
provinces 1023
21 1022
En@@ 1019
kind 1018
stop 1015
is@@ 1014
attack 1012
These 1012
ai@@ 1012
18 1011
Satsuma 1008
follows 1008
tax 1006
14 1001
taking 999
c@@ 999
Road 998
vassals 997
older 995
Korean 995
formed 994
waka 992
visited 991
minister 989
strong 988
poem 988
play 986
priests 985
Left 983
ari 982
f@@ 982
Tale 982
lords 980
dis@@ 979
fifth 979
highest 977
3@@ 975
see 973
Dainagon 972
rule 972
17 970
14@@ 970
carried 970
Main 969
16 969
bus 967
western 967
central 965
HOSOKAWA 964
prince 964
conducted 964
volume 961
establishment 961
ten 960
Route 960
wooden 959
2@@ 959
First 958
caused 956
Then 956
shape 955
ya 955
occurred 955
Sutra 954
shin@@ 954
Zen 952
upon 952
councilor 952
white 952
latter 951
already 950
worked 950
party 950
Yoshitsune 947
lines 946
23 946
say 945
monk 943
zo 941
Right 939
Fourth 937
officer 936
granted 936
Ko@@ 935
Nihonshoki 934
Ritsuryo 934
r@@ 934
raised 932
24 931
letter 930
ryo 930
4@@ 929
records 929
oki 928
assigned 927
ro@@ 924
generally 921
saying 919
generations 919
especially 917
production 915
13@@ 913
seven 911
province 908
While 908
policy 908
date 907
divided 907
22 906
gods 906
m 905
abolished 905
authority 904
spread 904
su@@ 904
amount 902
description 902
im@@ 900
leading 899
Gen@@ 898
ot@@ 898
certain 898
27 897
attacked 897
ha 897
include 897
gradually 894
few 893
added 890
compiled 890
performance 890
night 889
Tak@@ 888
regions 887
HOJO 887
28 886
ori 886
Kannon 886
ated 885
serving 885
Ok@@ 885
Ten@@ 885
operated 884
existed 884
Its 883
much 883
studied 883
Shogunate 882
Jodo 881
got 880
near 880
less 880
foreign 876
Sei@@ 876
dance 875
administration 873
lower 873
money 873
woman 872
female 871
thus 871
Sen@@ 870
district 870
us@@ 869
sea 868
Nihon 867
aka 867
Ak@@ 866
inside 864
ig@@ 862
ka 859
Crown 859
gold 858
usually 858
Electric 857
hi@@ 853
says 852
12@@ 852
support 851
powerful 850
limited 850
eight 849
Han@@ 849
fish 848
practice 848
Uji 848
Grand 847
uk@@ 847
change 847
Maizuru 847
literature 846
living 844
selected 844
refer 844
Co 843
5@@ 843
kept 843
how 842
return 841
st@@ 841
ut@@ 837
With 837
Takeda 836
ashi 835
red 834
Monogatari 834
Restoration 832
19 830
jin 830
cars 829
approximately 829
visit 828
hereditary 828
base 826
seems 823
though 822
clans 821
supported 821
almost 820
kai 820
property 819
express 819
kuni 818
development 818
Bosatsu 818
If 816
29 815
og@@ 813
plan 812
atsu 812
Bureau 811
Furthermore 810
students 809
os@@ 808
commonly 807
26 807
positions 806
Tam@@ 806
es@@ 806
short 805
present-day 805
ami 804
Company 804
ations 804
total 803
too 802
eldest 802
Important 801
fell 800
posts 799
involved 799
handed 797
descendants 797
followed 797
movement 795
sauce 795
spring 795
does 794
Captain 794
route 793
outside 793
kyo 792
MATSUDAIRA 789
Chi@@ 788
An@@ 788
standing 788
? 787
Fushimi 787
unit 787
themselves 786
oldest 786
t 785
come 784
directly 784
ating 783
State 782
Tok@@ 781
To 781
mon 781
itself 781
higher 779
paintings 778
u-@@ 777
asked 777
sister 777
belonged 777
ground 775
persons 775
buildings 774
heir 773
Hongan-ji 772
level 771
sixth 770
road 770
remained 769
except 769
Land 769
owned 769
forced 768
provided 767
event 767
Goshirakawa 767
Tan@@ 765
And 765
Chunagon 764
field 764
Department 764
Ken@@ 763
Retired 763
statues 761
zu 761
dynasty 760
below 760
Kam@@ 759
World 758
article 757
Su@@ 757
Kabuki 757
big 757
further 756
ai-@@ 754
en-@@ 753
succession 751
Hon@@ 751
al 751
ake 750
Her 749
run 749
organization 748
color 747
States 747
writing 746
length 746
Kai@@ 746
Even 744
Kojiki 744
Tai@@ 743
finally 743
reign 743
ly 740
Mino 739
ada 739
whole 739
series 738
month 738
silver 738
originated 736
Tango 736
Mutsu 736
Town 736
et@@ 734
director 734
volumes 733
hime 733
resigned 731
Kami 731
us 730
appears 728
ranked 728
accepted 726
throughout 726
process 725
pieces 725
my 725
brothers 724
street 722
ata 722
ran 721
get 721
services 721
eastern 721
exist 719
lineage 718
chi 718
Ltd 717
Association 716
Village 716
social 716
Nan@@ 716
training 715
Collection 715
100 714
priesthood 713
Affairs 713
tree 712
becoming 712
kan@@ 711
successor 711
enemy 711
ic@@ 710
Army 709
details 708
principal 708
> 708
garden 707
el@@ 706
parts 706
mikoto 706
Household 706
sense 705
serve 704
railway 704
whether 703
northern 701
increased 701
omi 701
stations 701
yo@@ 700
conflict 699
events 699
via 698
we 698
spirit 697
Inner 696
never 696
East 695
Year 695
inherited 694
states 694
fields 693
Ancient 692
Kansai 692
Saga 690
id@@ 689
structure 689
houses 689
course 688
Law 685
widely 684
arts 684
Nyorai 684
Prefectural 683
ju 683
active 683
On@@ 682
coins 681
film 680
possible 680
eki 680
Nag@@ 679
Takauji 679
seventh 679
Kun@@ 679
Nichiren 679
II 678
Tendai 678
sold 678
Kiyomori 677
code 677
cut 677
society 677
Middle 676
ek@@ 676
ranks 676
Tanba 675
em@@ 675
An 674
ts 674
groups 673
composed 672
going 671
nation 671
lunar 669
yen 669
Sai@@ 668
etsu 667
scene 664
hot 663
High 662
No. 662
senior 662
activities 662
things 662
actually 660
den 660
required 660
education 659
ri@@ 659
read 659
treated 658
Owari 658
provisional 657
fight 657
NAKAMURA 656
v@@ 656
Mon@@ 656
command 655
Shingon 654
Among 653
Hojo 653
deities 653
ended 652
estate 652
Moreover 652
conferred 651
se@@ 651
aya 651
Sak@@ 650
Many 650
theories 649
administrative 649
purpose 648
an-@@ 648
legitimate 647
a-cho 647
Shiga 646
oshi 645
Musashi 645
bu@@ 645
disciple 645
research 644
noodles 644
might 644
Property 644
Choshu 644
warriors 643
sacred 643
le 642
Jugoinoge 642
terms 642
Oda 641
particular 641
ac@@ 641
low 640
posthumous 639
ura 638
domains 638
mon@@ 637
towns 637
Ashikaga 637
difficult 636
poet 635
running 635
ship 634
rather 634
ting 633
show 633
products 633
ao 633
little 633
ruling 632
give 632
Todai-ji 632
fu 631
th@@ 631
Three 631
Sangi 631
But 629
document 628
information 627
memorial 627
ted 626
highly 626
trade 626
chi@@ 626
Ichi@@ 623
recorded 622
awarded 621
Education 621
toward 621
foot 620
ap@@ 620
umi 620
gained 620
light 619
learned 618
ae 617
ane 617
destroyed 617
Shugo 616
opinion 615
za 615
wood 615
monks 614
actor 614
trees 613
envoy 613
reached 612
text 611
act 611
Showa 611
ama 609
ent 609
clear 609
currently 609
male 609
medieval 608
lawful 608
manor 606
Upper 605
legend 604
17@@ 604
uri 604
guard 604
actual 603
horse 603
technique 602
fall 602
ritsuryo 602
idea 601
Yamashiro 601
Amida 601
ken 600
properties 600
presented 600
aw@@ 600
Mikoto 600
officers 599
Cloistered 598
square 598
bamboo 597
past 597
31 597
types 596
includes 595
az@@ 595
Bun@@ 594
Chronicles 594
size 594
Article 593
san@@ 592
legal 592
respectively 592
Bank 592
ay@@ 591
Fukuchiyama 591
stories 591
regent 590
diary 590
open 590
Kor@@ 589
oro 588
silk 588
assistant 587
ones 587
existence 586
in-@@ 584
Shinsengumi 584
descendant 583
Shinshu 583
dishes 582
leader 582
sp@@ 581
sons 581
territories 580
worship 580
distinguished 580
Art 579
Kon@@ 578
natural 578
available 578
wear 578
Miya 577
why 576
here 576
immediately 576
Courts 576
board 576
Sanjo 576
custom 576
yo-@@ 576
always 575
told 575
Hokkaido 575
true 575
Act 575
un 574
enter 574
Island 574
childhood 574
km 574
dish 574
Major 573
Kawachi 573
tsu@@ 573
let 573
keep 573
Pure 572
equivalent 571
recent 571
human 571
politics 571
financial 570
husband 570
king 570
Tosa 569
Mitsuhide 569
Heike 569
General 568
Government 568
shoen 568
elder 567
Otsu 566
material 566
ug@@ 565
– 565
shin 565
zan 565
Center 564
busho 564
Zen@@ 564
ine 564
subject 564
ku 564
upper 563
ant 562
Kanpaku 562
kimono 562
gun 562
must 562
broke 561
minutes 561
lot 561
achi 561
roof 561
Chief 560
stayed 560
sides 560
ei@@ 560
across 559
ritual 559
periods 559
Fuk@@ 558
ed@@ 558
Jin@@ 558
Godaigo 558
Kak@@ 558
offices 557
direction 557
Council 556
shugo 556
picture 556
hard 556
escaped 556
V@@ 555
MORI 555
recognized 555
far 555
cl@@ 554
ordinary 553
soon 553
Is@@ 553
ke 552
Man@@ 552
completely 552
Additionally 552
formal 551
Yu@@ 551
Higashiyama 551
ishi 551
attached 551
Party 550
deputy 549
worn 548
face 548
green 547
existing 547
sen@@ 546
coming 546
Kai 546
Min@@ 545
ages 545
full 544
independent 544
Ar@@ 543
sen 543
Shim@@ 542
newly 542
Kintetsu 542
dead 542
O 541
Tsun@@ 541
Jusanmi 541
Assistant 541
Tumulus 540
Om@@ 539
leaves 539
police 539
Echizen 539
Ry@@ 539
eighth 538
Ot@@ 538
ic 538
southern 538
clothes 538
Go@@ 538
suicide 537
Tom@@ 537
Sho@@ 537
bo 537
yaku 536
either 536
black 536
co@@ 536
Kok@@ 536
1868 536
entrance 536
cm 536
Nijo 535
personal 535
shows 535
g 534
won 534
on-@@ 534
ban 534
calligraphy 534
pass 532
warrior 532
To@@ 532
holding 531
Yoshimitsu 530
buried 530
issue 530
cannot 530
% 529
ten@@ 529
Kur@@ 528
Iw@@ 528
Asuka 528
Michinaga 527
live 527
sei 526
meat 526
managed 526
= 526
ceremonies 526
soup 525
collected 525
By 524
song 524
op@@ 524
Hyogo 524
appearance 523
request 523
lands 523
organized 522
dispatched 522
wide 522
depending 522
figure 522
Izumo 522
treasure 521
Un@@ 520
facilities 520
participated 520
soba 520
management 520
representative 520
river 520
grave 519
Kag@@ 519
Ming 519
dai@@ 518
opposed 518
uro 518
regular 518
unique 517
ir@@ 517
50 516
no@@ 516
iko 516
actors 516
Kobe 515
swords 515
Settsu 514
Express 514
ashi@@ 514
Toyotomi 513
value 513
foundation 513
Taisho 512
o-ji 512
Nak@@ 512
techniques 511
me 511
rebellion 511
Shotoku 511
quality 511
platform 510
Municipal 509
a-jo 509
District 509
renamed 509
Harima 509
peace 509
Kyo@@ 509
turned 509
Suk@@ 508
empress 508
od@@ 508
hold 508
KI 507
ji-@@ 507
behind 507
regarding 506
kinds 506
Hiro@@ 506
your 505
cloth 505
2006 505
ob@@ 505
comes 505
mountains 504
done 504
concerning 504
sub@@ 504
Shinkansen 504
de@@ 502
Provisional 501
Order 501
track 500
UESUGI 500
engaged 500
Nagasaki 499
hon@@ 499
.@@ 499
examples 499
letters 499
2007 498
establish 498
Hok@@ 497
KA@@ 497
location 497
advanced 496
companies 496
previous 496
single 495
necessary 495
itsu 494
ho@@ 494
Bridge 494
Kit@@ 494
no-@@ 494
pagoda 494
duties 493
best 493
emon 493
disciples 493
tumulus 493
longer 492
United 492
surrounding 492
ud@@ 491
officially 491
pl@@ 491
Records 491
Ho@@ 491
Qing 490
YA 490
oji 490
morning 490
Gate 490
lead 489
bu 489
eg@@ 488
oto 488
emperors 488
teachings 488
awa 486
ates 485
Shinano 485
piece 485
end@@ 485
ou@@ 485
sai 484
Mor@@ 484
fighting 484
ago 483
ara 483
shaku 483
bow 482
love 481
reasons 481
Ku@@ 481
grandfather 481
dedicated 480
ex@@ 480
han 480
opening 480
kill 480
Mori 479
wall 478
illness 478
nature 478
describes 477
lady 477
eventually 477
committed 476
paid 476
pro@@ 476
scale 475
hi 475
future 474
remain 474
Shun@@ 474
Yoshinobu 473
Kugyo 472
ITO 472
Tsu@@ 472
something 471
ol@@ 471
ame 471
standard 470
Yoshimasa 469
Shu@@ 469
basis 469
accompanied 468
offered 468
belonging 468
ako 467
han@@ 467
Higashi 466
Jun@@ 466
Kar@@ 466
gon 465
Kom@@ 465
derived 465
Shig@@ 465
followers 465
president 464
stated 464
car 464
hito 463
contains 463
grandson 463
iz@@ 463
enthronement 462
hair 462
covered 461
showed 461
uji 461
Other 461
ushi 461
Wak@@ 461
jinja 461
-ji 461
join 460
summer 460
shops 460
Matsu@@ 460
iron 459
Under 459
am 459
Nar@@ 459
Ky@@ 459
Udaijin 459
Summary 458
sun 458
ul@@ 457
learning 457
starting 457
taste 456
particularly 456
start 456
mis@@ 456
meant 456
meeting 455
DA 454
restored 454
kai@@ 454
oku-@@ 454
call 453
working 453
scholar 453
arrived 453
TAKEDA 452
Yoshiaki 452
beautiful 452
classified 452
ana 451
inner 451
farmers 451
festivals 451
hands 451
entire 451
Hir@@ 450
Hik@@ 450
King 449
appear 449
bon 449
Ik@@ 449
Tor@@ 448
Park 448
villages 448
Wakashu 448
whom 448
maternal 447
version 447
uki 447
Yoshinaka 447
temporary 447
help 446
chapter 446
Ni@@ 446
floor 446
Echigo 446
oka 445
guardian 445
Hiei 445
Tenmu 445
reported 444
ment 444
eating 444
barbarians 444
frequently 443
tradition 443
con@@ 443
Around 442
tomb 442
Yo@@ 441
Kita 441
ninth 441
captured 441
connected 441
transfer 441
design 441
Sadaijin 441
ib@@ 440
shiki 440
als 440
Mun@@ 440
merchants 440
influenced 439
Kofuku-ji 439
mind 439
15@@ 439
thousand 439
Mikawa 438
brewing 438
As@@ 437
ar 437
Bakufu 437
sound 437
listed 437
controlled 437
installed 437
p 437
reading 437
Europe 436
machi 436
rei 436
dried 435
drawn 435
go@@ 435
mound 435
bushi 434
effect 434
Kei@@ 434
Taiwan 434
ryu 433
occasion 433
NO 433
sho@@ 433
wearing 433
restoration 432
sushi 431
pattern 431
marriage 431
Mas@@ 431
Shirakawa 430
author 430
applied 430
eaten 430
butsu 430
specific 430
Kog@@ 430
ingredients 430
ism 430
ships 429
difference 429
Mi@@ 429
quite 429
becomes 428
All 428
uchi 428
drama 427
principle 427
Ki@@ 427
Sekigahara 427
grade 427
reform 427
classical 426
submitted 425
ub@@ 425
battles 424
ings 424
di@@ 424
defeat 423
increase 423
fl@@ 423
ors 423
Kat@@ 423
sweet 422
OTOMO 422
didn 422
bound 422
Otomo 422
met 421
painted 421
Mitsu@@ 421
studies 421
ranking 421
Yoshino 421
miya 420
Thus 420
appointment 420
Cabinet 420
Ju@@ 420
closed 420
yoshi 419
influential 419
ered 419
a-jinja 419
Enryaku-ji 419
condition 419
ruled 419
flowers 419
surname 418
Due 418
ical 418
orders 418
mostly 417
tale 417
MI@@ 417
hundred 417
chu 417
Doshisha 417
People 416
uses 416
abe 416
ABE 416
Kum@@ 416
ticket 416
excellent 415
aku-@@ 415
o-in 415
deep 415
action 414
Chik@@ 414
move 414
Kurodo 414
flower 414
articles 413
ko@@ 413
jiro 413
rules 413
ma 413
over@@ 412
iki 412
additional 412
ue 412
planned 412
Mik@@ 412
currency 412
bugyo 412
items 411
Research 411
walk 411
exchange 411
soy 410
les 410
be@@ 410
supposed 409
Shingen 409
Institute 409
yet 409
giving 409
Myo@@ 409
qu@@ 408
invited 408
ering 408
songs 408
Kagami 408
space 408
pronounced 408
respect 408
nine 408
yama 408
oshi@@ 407
sects 407
responsible 407
Tokaido 407
territorial 407
ato 407
declined 406
Kagoshima 406
prepared 406
exists 406
Kik@@ 406
KONOE 405
cooking 405
religion 405
variety 404
troop 404
restaurants 404
compared 404
language 404
grand 404
secret 403
surface 403
Corporation 403
atsu@@ 403
Peninsula 403
bad 403
kabuki 403
changes 402
know 402
runs 402
hiko 402
hide 402
ent@@ 401
uncle 401
so-called 401
separated 401
ist 400
student 400
KUJO 400
ence 400
Master 400
industry 400
ow@@ 399
kei 399
Fukuoka 399
san 399
consisting 399
plays 399
Meanwhile 399
height 399
achievements 399
faction 399
aj@@ 398
oya 398
ability 397
consists 397
oy@@ 397
shown 397
That 396
Sakyo 396
Most 396
man@@ 396
Agency 396
cooked 396
goods 396
indicates 396
aru 395
funeral 395
2005 394
Yam@@ 394
belief 394
jo@@ 394
Treasure 394
circumstances 394
concept 393
Kukai 393
blood 393
sutra 393
hei 393
burial 393
someone 393
har@@ 392
makes 392
ei-@@ 392
cabinet 392
o-cho 392
regional 392
Daigo 392
Kaga 392
household 392
Faculty 391
bun 391
ano 391
associated 391
air 391
Azuma 391
subsequently 391
castles 391
rights 390
martial 390
to@@ 390
aro 389
regulations 389
par@@ 389
bridge 389
spirits 389
Hankyu 389
distance 389
Constitution 389
Hid@@ 388
exiled 388
min@@ 388
he@@ 388
winter 388
round 388
sumo 388
el 388
association 387
actively 387
titles 387
Empire 387
TACHIBANA 387
ice 386
bowl 386
Yuk@@ 386
laws 386
ge 386
mochi 386
Rikyu 386
facility 385
oko 385
2008 385
ichi@@ 385
Hiroshima 385
yu@@ 385
remaining 385
matter 385
gathered 385
Today 385
crop 385
So@@ 385
Iyo 384
eb@@ 384
Code 384
descriptions 384
million 384
ri 384
Uesugi 384
le@@ 384
vice-councilor 383
wa 383
island 383
princess 383
ink 382
magistrate 382
ah@@ 382
l 382
Nagoya 382
passengers 382
mura 381
takes 381
connection 381
Yamashina 381
imi 381
ti@@ 381
Toba 381
Aizu 380
ter 380
governors 380
attention 380
Yoshitomo 380
determined 380
prevent 380
Har@@ 380
Sad@@ 380
basic 379
Hitachi 379
taxes 379
kokushi 379
se 378
ity 378
English 378
n 378
ion 378
Ji@@ 377
ance 377
Hosokawa 377
scholars 377
kata 377
permission 377
care 377
taught 376
ni 376
Kumano 376
stones 376
nobility 376
manuscript 376
decision 376
kin@@ 376
Se@@ 376
removed 375
Nor@@ 375
literary 375
Re@@ 375
leaving 375
simply 375
problem 374
oz@@ 374
jo-@@ 374
Katsu@@ 374
N 374
gen@@ 374
Fu@@ 374
hiro 373
temporarily 373
peasants 373
punishment 372
uma 372
ono 372
onin 372
game 372
sug@@ 372
X@@ 372
fixed 372
80 372
ayama 372
architecture 371
crest 371
measures 371
ie 371
headquarters 370
dori 370
suddenly 370
contributed 370
Ryo@@ 370
Old 370
Son@@ 370
seal 369
mae 369
forms 369
Na@@ 369
free 369
audience 369
osuke 369
succeed 368
transportation 368
Sea 368
department 368
failed 368
boiled 368
Kinki 367
dono 367
Den@@ 367
est 367
cherry 367
ancestor 367
division 366
efforts 366
So 366
knowledge 366
extended 366
complete 366
mid 366
ru@@ 366
leave 366
iya 366
staff 366
Mito 366
sui 366
South 366
kanji 366
folk 366
coin 366
Yoshitaka 365
patterns 365
arrow 365
Mar@@ 365
heads 365
Gon@@ 365
accordance 365
incorporated 365
colored 364
background 364
discovered 364
conditions 363
li@@ 363
Hor@@ 363
gokenin 363
ing@@ 363
stopped 363
Record 363
Diary 363
Sakai 363
Mot@@ 363
strongly 362
d 362
saw 362
Five 362
arms 362
rapid 362
season 362
enough 362
k 362
Okayama 362
greatly 361
Ukyo 361
concurrently 361
Con@@ 361
evil 361
adviser 361
rituals 361
stand 360
box 360
ure 360
shogunal 360
Jushiinoge 360
Fuj@@ 360
Shik@@ 360
playing 360
pe@@ 360
ino 360
stipend 360
Volume 360
arranged 360
th 359
il@@ 359
kaku 359
list 359
prefecture 359
buses 359
per 359
happened 358
Naidaijin 358
report 358
shop 358
maintained 358
Nishi@@ 358
ba 358
ang@@ 357
crown 357
Head 357
ome 357
HARA 356
1@@ 356
ong 356
Miyazu 356
heard 356
extremely 356
sugar 356
academic 356
zen 356
relatively 355
autumn 355
cities 355
annual 355
refused 355
eat 355
Ban@@ 355
oku@@ 355
shaped 355
towards 355
our 354
prohibited 354
Day 354
walls 354
pictures 354
Warring 354
Kii 354
ized 353
store 353
Daishi 353
permitted 353
Miy@@ 353
bei 353
ushi@@ 353
moon 352
codes 352
relocated 352
lives 351
project 351
1871 351
cha 351
200 351
theater 351
protection 351
wind 350
avoid 350
performing 350
40 350
ado 350
koto 350
60 349
pre@@ 349
executed 349
Before 349
carry 349
tor@@ 348
Clan 348
jin@@ 348
Kinai 348
sl@@ 348
Mat@@ 348
contents 348
大@@ 348
announced 348
YAMA 348
Kumamoto 348
university 348
HA@@ 347
wanted 347
teaching 347
teacher 347
cause 347
approved 347
Kot@@ 347
Science 347
agi 347
simple 347
hakase 347
ies 347
manner 347
grounds 347
economic 346
udo 346
ha@@ 346
salt 346
Kamo 346
Han 346
expressed 346
ga 346
defined 346
Shinran 346
Hi@@ 346
Arts 346
Yoshi@@ 346
non-@@ 345
raw 345
equal 345
Kuro@@ 345
prefectural 344
Sum@@ 344
and@@ 344
et 344
resulted 344
receive 344
shall 344
one-@@ 344
1869 344
Ichijo 343
chujo 343
merged 343
300 343
Tei@@ 343
usa 343
Shonii 343
Saigo 342
Shin 342
SA@@ 342
matters 342
ch 342
requested 342
roku 342
Mit@@ 342
months 342
secretary 342
ian 341
clothing 341
ec@@ 341
films 341
expression 341
model 341
decline 341
Jik@@ 341
easily 340
operations 340
ically 340
entry 340
Kokushi 340
ish 340
Dewa 340
Book 340
up@@ 339
h 339
KU@@ 339
Poetry 339
bun@@ 339
copper 339
descended 339
bo@@ 338
ter@@ 338
mean 338
Izumi 338
Sakone 338
att@@ 338
tower 338
kok@@ 338
tions 337
urban 337
treasures 337
betto 337
thin 337
Asia 336
Chamberlain 336
supporting 336
ite 336
Masamune 336
ep@@ 336
Mountain 336
St@@ 336
Udon 336
car@@ 335
range 335
build 335
Modern 335
Konoe 335
look 335
roads 334
ness 334
bring 334
object 334
prefectures 334
bean 334
Suruga 334
tai@@ 333
achieved 333
Sanuki 333
weight 333
characteristics 333
recommended 333
Am@@ 333
Jizo 333
rare 333
performances 333
stores 333
ICHIKAWA 333
pointed 333
Shrines 333
numbers 333
TA@@ 332
dec@@ 332
powers 332
ia 332
SOGA 332
beauty 332
mar@@ 332
Miyoshi 332
entering 331
proposed 331
hatamoto 331
card 331
ase 331
treatment 331
SAIONJI 331
rate 331
Michi@@ 331
individual 331
KO@@ 331
Masakado 331
sites 331
Lake 330
sei@@ 330
tr@@ 330
him@@ 330
enlightenment 330
prayer 330
ks 330
Originally 329
designed 329
corresponding 329
peerage 329
acted 329
nor 329
His@@ 329
MIYOSHI 329
Subway 329
mausoleum 329
Izu 328
imp@@ 328
dai 328
awa-@@ 328
points 328
mixed 328
anniversary 328
stands 328
goes 328
platforms 328
Okimi 328
av@@ 327
fled 327
Hit@@ 327
translated 327
source 327
Mitsunari 327
ken@@ 327
* 327
Military 327
Sendai 327
nothing 327
500 326
price 326
attempted 326
Oe 326
edict 326
opinions 326
ally 325
identified 325
earlier 325
junior 325
Og@@ 325
duty 325
sections 325
suffered 324
final 324
criticized 324
Chiba 324
consisted 324
ery 324
oh@@ 324
professional 324
ong@@ 324
door 324
introduction 324
uta 324
Two 323
pay 323
retained 323
community 323
grew 323
koji 323
Tadayoshi 323
Nai@@ 323
daughters 323
shoku 322
rose 322
kar@@ 322
shooting 322
disappeared 322
sun@@ 322
Sung 322
SHI@@ 321
relative 321
paste 321
Tsuk@@ 321
registered 321
sur@@ 321
heaven 321
Onin 320
er-@@ 320
disease 320
successive 320
Sho 320
dispute 320
ill 320
settled 320
gu@@ 320
taishogun 320
ky@@ 320
medical 320
Eastern 320
Nishi 320
Yak@@ 319
Shizuoka 319
trans@@ 319
Sek@@ 319
port 319
depicted 319
yak@@ 318
districts 318
Mirror 318
international 318
Confucianism 318
earth 318
Another 318
market 317
KI@@ 317
pray 317
po 317
Esoteric 317
Date 317
asu 317
uko 317
TV 316
JNR 316
practiced 316
revision 316
0@@ 316
Diet 316
relatives 316
i-cho 316
tracks 316
Navy 316
iri 315
replaced 315
seemed 315
Kas@@ 315
Provinces 315
hisa 315
Shikibu 315
inter@@ 315
dates 315
drum 314
out@@ 314
Tohoku 314
sune 314
Chu@@ 314
aku@@ 314
poets 314
shamisen 314
roles 314
Sug@@ 314
favor 313
produce 313
contained 313
Im@@ 313
surrendered 313
daibu 313
rich 313
Those 312
Iga 312
consort 312
poor 312
geisha 311
Foreign 311
Shok@@ 311
stay 311
showing 311
Library 311
sum@@ 311
nephew 311
styles 310
da 310
tak@@ 310
rest 310
Properties 310
sho-@@ 310
ant@@ 310
don 310
10th 309
ways 309
directed 309
confirmed 309
Mei@@ 309
Wakasa 309
scroll 309
attended 309
Yok@@ 309
serious 309
treaty 309
armed 309
burned 308
Taisha 308
Wooden 308
obtained 308
for@@ 308
outer 308
Kozuke 308
ishi@@ 308
narrow 308
Michizane 308
TO@@ 308
INOUE 307
monument 307
revised 307
slightly 307
warring 307
Ke@@ 307
war@@ 307
so@@ 307
Mis@@ 306
biological 306
rise 306
getting 306
Os@@ 306
Based 306
surrounded 306
Wa 305
rites 305
God 305
Dowager 304
India 304
omo 304
Fuji 304
Kaw@@ 304
excavated 304
typical 303
North 303
tion 303
den@@ 303
ative 303
drawing 303
ui 303
Kyo 303
program 303
zaemon 302
oc@@ 302
internal 302
36 302
System 302
Yor@@ 302
kyo@@ 302
Karasuma 302
Nin@@ 301
precincts 301
kin 301
promotion 301
painter 301
medicine 301
Sagami 301
Yoshiie 301
Wakayama 301
ling 301
portrait 300
Such 300
Nakamaro 300
ceremonial 300
yam@@ 300
released 300
advantage 300
subdues 300
Yamaguchi 299
To-ji 299
response 299
ev@@ 299
Manyoshu 299
possessed 299
Matters 299
Soga 299
Uda 299
merchant 299
YOSHIDA 299
Gok@@ 299
12th 299
fu@@ 299
tai 299
defense 298
protect 298
explained 298
ass@@ 298
kon@@ 298
movie 298
relation 298
Theater 298
under@@ 298
ita 298
seated 298
Hak@@ 298
mono 298
Shor@@ 298
parties 298
occupied 298
mai 298
NO@@ 297
eru 297
Gion 297
Mak@@ 297
MA@@ 297
likely 297
Treaty 297
perform 297
daily 297
historic 297
novel 297
anthology 297
SHIMAZU 297
Central 296
cold 296
concubine 296
Kim@@ 296
Spring 296
fan 296
2004 296
residents 296
Hidetada 295
alcohol 295
70 295
well-known 295
problems 295
Dutch 295
instruments 295
domestic 294
intention 294
believe 294
escape 294
bell 294
Miko 294
Shijo 294
NA@@ 294
horses 294
ONO 294
figures 294
metal 293
Junii 293
imposed 293
ju@@ 293
Ito 293
musical 293
Gifu 293
Daijokan 293
ji@@ 293
ey@@ 293
Ko 293
heavy 293
intended 292
alive 292
int@@ 292
Masako 292
Ouchi 292
professor 292
ology 292
ement 292
y-@@ 292
Limited 292
kaido 292
carrying 291
putting 291
Ako 291
hira 291
Rebellion 291
colors 291
shosho 291
Shimotsuke 291
Tad@@ 291
acting 291
Ten 290
Yodo 290
Yoshimune 290
screen 290
foreigners 290
Rokuhara 290
Oshu 290
divine 290
receiving 289
bashi 289
ends 289
Awa 289
deeply 289
Series 289
Rin@@ 289
guards 289
envoys 289
distributed 289
Hin@@ 289
Jinshin 289
jutsu 289
reduced 288
implemented 288
oi 288
ons 288
de 288
civil 288
table 287
ban@@ 287
changing 287
bar@@ 287
Ari@@ 287
per@@ 287
alliance 287
rin@@ 287
stock 287
eng@@ 287
adding 286
successively 286
population 286
Amaterasu 286
practical 286
Hei@@ 286
key 286
Shichi@@ 286
11th 285
Local 285
uprising 285
Bizen 285
split 285
portion 285
width 285
interest 285
Oama 285
offer 285
largest 285
establishing 285
ain 285
thereafter 284
employed 284
relations 284
thick 284
think 284
Seii 284
dismissed 284
traffic 284
contrast 283
evidence 283
Katsura 283
do@@ 283
est@@ 282
Though 282
practices 282
maintain 282
Kira 282
Ki 282
me@@ 282
cover 282
en-ji 282
1872 282
Kanmu 282
Kofun 282
Arashiyama 282
content 282
policies 282
anti-@@ 281
TSU@@ 281
Juichii 281
ator 281
chosen 281
Headquarters 281
job 281
AKECHI 281
probably 281
Ka@@ 281
dry 281
Kingdom 281
Gun@@ 281
Kameyama 281
grandchild 281
evening 281
chamber 281
Nagamasa 281
rebuilt 281
Councilor 280
Toshi@@ 280
ments 280
Thereafter 280
features 280
views 280
Gotoba 280
okan 280
ality 280
provide 280
bank 279
Silla 279
studying 279
Chronicle 279
returning 279
function 279
diplomatic 279
3rd 279
bottom 279
etsu@@ 279
seki 279
aga 279
methods 278
iy@@ 278
forest 278
Shoku 278
ayu 278
33 278
Aichi 278
customs 278
Engishiki 278
parents 278
donated 278
Kis@@ 278
founding 278
10,000 278
dancing 278
Director 277
2000 277
16@@ 277
herself 277
oe 277
finished 277
Shimazu 276
honor 276
akira 276
id 276
College 276
ukai 276
haiku 276
reality 275
stood 275
increasing 275
residential 275
need 275
Yoshinori 275
Song 275
Outer 275
ta 275
Honen 275
Ise-jingu 274
ade 274
miko 274
haru 274
product 274
SHIBA 274
ogi 274
obi 274
basically 273
invasion 273
captain 273
Hogen 273
felt 273
scriptures 273
rain 273
entertainment 273
edition 273
1-@@ 273
folding 273
turn 273
drinking 273
navy 273
Yuan 273
reference 272
ume 272
ending 272
suggests 272
Following 271
x@@ 271
Ma@@ 271
manager 271
Nihongi 271
restaurant 271
huge 271
praised 271
Al@@ 270
routes 270
Lady 270
archery 270
1867 270
characteristic 270
sak@@ 270
Azuchi-Momoyama 270
tenth 270
ants 270
pot 269
council 269
Yoshisada 269
Four 269
Murasaki 269
tools 269
jun@@ 269
victory 269
popularity 269
integrated 269
Secretary 269
No 269
concerned 269
possibility 268
Branch 268
resulting 268
Ukone 268
doctor 268
flour 268
dated 268
insisted 268
ous 268
reorganized 268
Daimyo 268
separate 268
passing 268
Mie 268
formerly 268
advance 268
Siege 268
SUGAWARA 267
Iemitsu 267
Shir@@ 267
chamberlain 267
servant 267
Mag@@ 267
instrument 267
OUCHI 267
etc. 267
Okinawa 267
Kos@@ 266
Kanrei 266
Tenchi 266
understood 266
2nd 266
ne@@ 266
HATAKEYAMA 266
SAIGO 266
concluded 266
despite 266
Nagano 266
Special 266
Fukui 266
Kamigyo 266
advocated 266
BE 266
better 266
damage 265
organizations 265
Minami 265
target 265
strength 265
TA 265
Christian 265
ary 265
KYOGOKU 265
Kameoka 265
4th 265
Hokke 265
ki@@ 265
ann@@ 265
enjoyed 264
Reizei 264
visiting 264
Biwa 264
Ter@@ 264
offering 264
Russia 264
Shosanmi 264
x 264
economy 264
--@@ 264
Rok@@ 264
13th 264
player 264
Sessho 264
follow 263
ku@@ 263
Kaoru 263
Prime 263
images 263
wish 263
all@@ 263
containing 263
Rapid 263
doctrine 263
15th 263
owner 263
leaf 263
ire 263
une 263
aged 262
ad 262
Matsudaira 262
ware 262
2003 262
Tsushima 262
Nippon 261
translation 261
plants 261
secular 261
acts 261
institution 261
ry@@ 260
rakugo 260
regard 260
write 260
faith 260
forth 260
Kazusa 260
39 260
ko-@@ 260
35 260
ascended 260
ochi 260
Ton@@ 260
create 260
decree 260
abandoned 260
und@@ 259
Taiho 259
inc@@ 259
gawa 259
fine 259
Hos@@ 259
Lord 259
Ex@@ 259
1st 258
Japanese-style 258
KAWA 258
Fut@@ 258
high-ranking 258
Society 258
flavor 258
ke@@ 258
miso 258
Shiki 258
75 258
plot 258
oshin 258
Nichi@@ 258
daisho 258
Yoshihisa 257
find 257
Shaka 257
Kokin 257
Platform 257
Fun@@ 257
shot 257
vegetables 257
crossing 257
curry 257
allied 256
Yamagata 256
edge 256
bronze 256
Koya 256
Garden 256
Haku@@ 256
displayed 256
camp 256
Shin-@@ 256
Jo@@ 256
aki-@@ 256
eri@@ 256
meet 256
measure 255
governed 255
loved 255
setting 255
border 255
aimed 255
Subsequently 255
azu 255
odo 255
boat 255
blue 255
fully 254
Jito 254
Imagawa 254
Kamigata 254
achievement 254
Tenno 254
Higashi@@ 254
tan@@ 254
cousin 254
princes 254
ded 254
caught 253
opposition 253
Myoo 253
iw@@ 253
America 253
deceased 253
accept 253
elements 253
comic 253
centered 253
Matsuri 253
Besides 253
Lotus 253
needed 253
punished 253
phrase 253
representing 253
account 253
ICHIJO 253
dress 252
ast@@ 252
costume 252
Niigata 252
Both 252
match 252
Chok@@ 252
income 252
Each 251
thing 251
copy 251
indicated 251
protected 251
park 251
ans 251
fief 251
Bodhisattva 251
clearly 251
Fudo 250
Christianity 250
combined 250
vice 250
egg 250
devoted 250
Ishikawa 250
0.@@ 250
claimed 250
Jingu 250
looks 249
tsuk@@ 249
a-no-@@ 249
Sixth 249
Ren@@ 249
facing 249
Kondo 249
sovereignty 249
sai@@ 249
KO 248
connecting 248
arrangement 248
preserved 248
hit 248
E 248
fundoshi 248
governmental 248
af@@ 248
shoin 248
educational 248
pine 247
TAKA@@ 247
an-ji 247
health 247
path 247
centralized 247
Railways 247
7th 247
Kenshin 247
taisha 247
cutting 247
Yoshihiro 247
ward 247
Mur@@ 247
Nagayoshi 247
Shu 247
-shaped 247
prefixed 247
agricultural 246
Takakura 246
branches 246
allow 246
superior 246
ics 246
str@@ 246
oil 246
a-gun 246
Fus@@ 246
to-@@ 246
Rinzai 246
fishing 246
rock 246
i-no-@@ 246
mass 246
belong 245
monogatari 245
science 245
if@@ 245
wak@@ 245
te 245
suitable 245
ito 245
Of 245
selling 245
Ryoma 245
ido 245
expanded 245
ge@@ 245
8th 244
Omiya 244
ization 244
edited 244
represented 244
constable 244
um 244
string 244
obu 244
Ezo 244
thanks 244
effort 244
tei 244
Sok@@ 243
tales 243
ata-@@ 243
survey 243
1863 243
ty 243
personnel 243
worshipped 243
-g@@ 243
formation 243
omon 243
Toy@@ 243
hours 243
ran@@ 243
OKUBO 243
o-jo 243
initially 242
Historical 242
Literature 242
nam@@ 242
1873 242
1864 242
suk@@ 242
Kyogen 242
Tottori 242
ze 242
imported 241
Aki 241
It@@ 241
Ur@@ 241
arrested 241
thereby 241
producing 241
iyama 241
sho-ji 241
completion 241
air@@ 241
alone 241
MAEDA 241
conduct 241
dan 241
Akita 241
! 241
zen@@ 241
celebrated 240
expected 240
kun@@ 240
You 240
Board 240
icho 240
attempt 240
Studies 240
category 240
o-jinja 240
International 239
Shikoku 239
DATE 239
genealogy 239
Kurama 239
Do@@ 239
eyes 239
unclear 239
b 239
jik@@ 239
pen 239
killing 239
surrender 239
stored 239
See 239
ami-@@ 239
inscription 239
cooperation 238
printed 238
ets 238
Oaza 238
rapidly 238
Yokohama 238
kam@@ 238
Civil 237
Refer 237
Shak@@ 237
ever 237
uchi@@ 237
actions 237
neighboring 237
Port 237
agreement 237
Expressway 237
gates 237
ry 237
sutras 237
Hokuriku 237
messenger 237
travel 237
filled 237
previously 237
compilation 236
her@@ 236
ened 236
distribution 236
ike 236
tom@@ 236
mirror 236
easy 236
consideration 236
zukuri 236
38 236
shin-@@ 236
SAITO 236
C 235
retirement 235
bed 235
c 235
TANI 235
Kishu 235
Incidentally 235
judicial 235
pond 235
i.e. 235
Jomon 235
Tog@@ 235
Heiji 235
Gojo 235
Abe 235
Roku@@ 235
gi 234
kak@@ 234
double 234
noted 234
ters 234
Chugu 234
register 234
Yoshimoto 234
laid 234
yoku 234
trading 234
14th 234
cake 234
te@@ 234
ions 234
Baekje 234
Horyu-ji 234
Capital 234
ro 234
Okubo 233
ascetic 233
MURA 233
Tsunayoshi 233
visitors 233
secretly 233
royal 233
hanging 233
ents 233
Keicho 233
yok@@ 233
namely 233
rejected 233
Me@@ 233
prosperity 233
ruler 233
valued 233
soul 233
flute 233
KATO 232
IKEDA 232
-no-@@ 232
Especially 232
rooms 232
comp@@ 232
opposite 232
ties 232
sales 232
Makino 232
doing 231
episode 231
NIJO 231
Edo-jo 231
els 231
helped 231
ren@@ 231
YAMANA 231
Disturbance 231
asa 231
1.@@ 231
Poems 231
overseas 231
ide 230
hara 230
commercial 230
results 230
foods 230
Nikko 230
Ishi@@ 230
ins 230
stick 230
corresponds 230
Mu@@ 230
Shink@@ 230
skin 229
Temples 229
yaki 229
temperature 229
interpretation 229
aff@@ 229
Shonin 229
pilgrimage 229
core 229
specified 229
oin 229
France 229
mor@@ 229
Emishi 229
Hidetsugu 229
Yayoi 229
demand 229
1582 229
skills 228
keeping 228
assassinated 228
oke 228
sue 228
locations 228
chin@@ 228
revived 228
Yoshida 228
Naka 228
security 228
ashi-@@ 228
believers 228
animals 227
players 227
& 227
departed 227
matsuri 227
looked 227
Yas@@ 227
ding 227
occasions 227
twenty 227
operating 227
ay 227
opportunity 227
Kaku@@ 227
Otani 227
Their 227
mo@@ 227
writer 226
io 226
ely 226
conflicts 226
least 226
prior 226
fried 226
Masanori 226
He@@ 226
-in 226
two-@@ 225
ses 225
proposal 225
Minor 225
Shomu 225
flourished 225
nickname 225
maru 225
impossible 225
ani 225
centimeters 225
success 225
bl@@ 225
hor@@ 225
ess 225
seats 225
'@@ 225
Masamoto 224
send 224
Saicho 224
TANAKA 224
11@@ 224
Ryu@@ 224
Samurai 224
Boshin 224
55 224
Kyu@@ 224
Throne 224
yu-@@ 224
reconstructed 224
Sang@@ 224
reputation 224
guest 224
Mandala 224
ens 223
manuscripts 223
1889 223
Sun 223
supply 223
contain 223
elementary 223
prayers 223
Kyogoku 223
pr@@ 223
recently 223
masters 223
Confucian 223
effective 223
Academy 223
Tozai 223
Yoshitoki 223
re-@@ 223
titled 223
subjects 222
understand 222
ONOE 222
tsu 222
shoji 222
hom@@ 222
1,@@ 222
Gor@@ 222
Suo 222
spent 222
・ 222
learn 222
De@@ 222
Nik@@ 222
Generally 221
Died 221
whereby 221
Fukushima 221
heart 221
trying 221
decorated 221
Group 221
MI 221
attitude 221
ise 221
estimated 221
eko 221
Kang@@ 221
Rokkaku 221
yield 221
holds 221
fuk@@ 221
arrows 221
Sanetomo 221
shim@@ 221
fare 220
exhibition 220
broken 220
Yodo-gawa 220
guchi 220
su 220
uso 220
nationwide 220
differences 220
roughly 220
ain@@ 220
anecdote 220
Consequently 220
Yoriie 220
criticism 220
Dan@@ 219
die 219
consequently 219
cards 219
survived 219
referring 219
1870 219
Nam@@ 219
Only 219
forming 219
lo@@ 219
notes 219
ess@@ 219
bi@@ 219
customers 219
Hideyori 219
Studio 219
Kotsu 218
sugu 218
abolition 218
Culture 218
Rei@@ 218
jaku 218
os 218
Sanin 218
gives 218
continue 218
villa 218
34 218
covering 218
Tsur@@ 218
ach@@ 218
kat@@ 218
indicating 218
rec@@ 217
faced 217
verse 217
self-@@ 217
oshi-@@ 217
buckwheat 217
approval 217
Ltd. 217
waiting 217
ds 217
i-jo 217
boy 217
partly 217
smaller 217
Further 217
ancestors 217
Biography 216
sw@@ 216
moving 216
tofu 216
pressure 216
behavior 216
Emperors 216
plate 216
baby 216
campaign 216
mouth 216
cr@@ 216
Yorinaga 216
aba 216
situated 216
ichiro 216
Chin@@ 216
KURODA 216
growing 215
mission 215
Tatsu@@ 215
servants 215
Fuku@@ 215
Sag@@ 215
kugyo 215
cuisine 215
1931 215
Shimogyo 215
Iwakura 215
tok@@ 215
Police 215
drink 215
Ya@@ 215
large-scale 215
Republic 215
girls 214
Shoshi 214
rep@@ 214
looking 214
Pro@@ 214
resided 214
Pass 214
Sukune 214
non@@ 214
staying 214
units 214
Fur@@ 214
78 214
iden 214
shik@@ 214
Kanezane 214
18@@ 214
3.@@ 214
chapters 214
declared 214
sitting 214
systems 214
Bungo 214
friend 214
37 214
Women 213
consider 213
plant 213
electric 213
whereas 213
considering 213
Hakodate 213
library 213
ited 213
favored 213
Shigemori 213
-cho 213
po@@ 212
repeatedly 212
FU@@ 212
collectively 212
speed 212
discontinued 212
ojo 212
unified 212
philosophy 212
Jinmu 212
movements 212
taifu 212
supporters 212
cloistered 212
tanka 212
Nobu@@ 212
commit 211
1600 211
ats 211
32 211
regents 211
invaded 211
Um@@ 211
predecessor 211
note 211
ICOCA 211
Inaba 211
SEN 211
twelve 211
Kasuga 211
hakama 211
KONDO 211
petition 211
sell 211
Jokyu 211
Go 211
landscape 210
burnt 210
Asakura 210
hen 210
Asian 210
ron 210
1997 210
ill@@ 210
reach 210
Kaz@@ 210
reconstruction 210
OKA 210
vicinity 210
significant 210
6th 210
achi@@ 210
realized 210
Ad@@ 210
Waka 210
symbol 210
moat 210
plain 210
European 209
ich@@ 209
resistance 209
objects 209
oso 209
ard 209
collapsed 209
Sanyo 209
ruins 209
streets 209
Tajima 209
YAMAMOTO 209
mat@@ 209
61 209
calling 209
Kiy@@ 209
residences 208
tri@@ 208
ful 208
Yoshiteru 208
NAKA@@ 208
Kiyo@@ 208
subsequent 208
alized 208
hunting 208
issues 208
Yoshitada 208
Heian-kyo 208
ste@@ 208
Gu@@ 208
gu 208
ladies 208
Zu@@ 208
Basho 208
decreased 208
hon 208
kuge 208
texts 208
kom@@ 207
abi 207
Oshi@@ 207
Kaneie 207
tive 207
citizens 207
oo@@ 207
Togoku 207
creation 207
stops 207
Kengyo 207
kimi 207
Mausoleum 207
cultivation 207
feature 207
Cho@@ 207
Chuo 207
kyu 207
54 206
agawa 206
revolt 206
immediate 206
labor 206
nearly 206
Jin 206
deal 206
accompaniment 206
quickly 206
OE 206
sor@@ 206
HI@@ 206
oj@@ 206
wine 206
2002 206
Kawachi-Genji 205
goddess 205
exile 205
Interchange 205
i-jinja 205
2-@@ 205
dr@@ 205
trip 205
supreme 205
detailed 205
categorized 205
French 205
Take@@ 205
question 205
Sado 205
dissolved 205
Sat@@ 205
の@@ 205
aji 204
quarters 204
doesn 204
42 204
advisor 204
.. 204
railways 204
choja 204
51 204
True 204
90 204
normal 204
Yasu@@ 204
percent 204
suggested 204
closely 204
ear@@ 204
erected 204
wealthy 204
Uchi@@ 204
Shiba 204
kana 204
Priest 204
Saemon 204
Ikko 204
preparation 203
ed-@@ 203
confined 203
blossoms 203
armor 203
unable 203
demoted 203
circle 203
manufacturing 203
talent 202
writings 202
Gyo@@ 202
ki-@@ 202
Dis@@ 202
9th 202
sm@@ 202
posthumously 202
Misasagi 202
American 202
raise 202
ose 202
indicate 202
incense 202
hik@@ 202
zushi 202
tool 202
Engi 202
scenes 201
minute 201
5th 201
Takakuni 201
gr@@ 201
reg@@ 201
Momoyama 201
oyo 201
47 201
zuka 201
4-@@ 201
feeling 201
corner 201
e-cho 201
launched 201
trusted 201
Cho 201
settlement 201
00 201
Tar@@ 201
hir@@ 201
Koku@@ 201
Ueno 201
45 201
1928 201
formally 201
larger 200
lay 200
investigation 200
discussed 200
plum 200
numerous 200
Hachi@@ 200
sought 200
sing 200
twice 200
governing 200
Uj@@ 200
mid-@@ 200
Until 200
1945 200
technology 200
ver@@ 200
iku 200
53 200
Asano 200
Kong@@ 200
jin-@@ 200
of@@ 199
entitled 199
Sun@@ 199
dem@@ 199
48 199
agreed 199
utensils 199
t-@@ 199
classics 199
shu@@ 199
beyond 199
1890 199
inscribed 199
Saionji 199
ghost 199
enjoy 199
underground 199
importance 199
kofun 199
Tat@@ 198
counted 198
88 198
Toyo@@ 198
expedition 198
nenbutsu 198
ked 198
20@@ 198
Kujo 198
Murakami 198
Ryukyu 198
akura 198
na 198
combination 198
Thousand 198
SANJO 198
viewing 198
wore 198
lacquer 198
degree 197
Ob@@ 197
decorative 197
Commerce 197
Preservation 197
tied 197
okami 197
Sa@@ 197
Campus 197
mythology 197
severe 197
sign 197
fresh 197
losing 196
1898 196
ask 196
Seiwa-Genji 196
62 196
develop 196
Kuni 196
collect 196
manors 196
revealed 196
roju 196
Tales 196
Now 196
ikki 196
ez@@ 196
Saitama 196
calligraphic 196
Th@@ 196
administrator 196
ip@@ 196
Tandai 196
pair 196
ring 196
opponent 196
otsu@@ 195
lecture 195
Genroku 195
successful 195
60@@ 195
printing 195
manners 195
Ibaraki 195
procedures 195
Normal 195
commenced 195
providing 195
KATAOKA 195
Kanagawa 195
pronunciation 195
blade 195
Koga 195
describe 195
、 195
KANZE 194
HINO 194
8-@@ 194
Masashige 194
M 194
Shoshiinoge 194
weapons 194
display 194
neither 194
Taishogun 194
Sagano 194
Sar@@ 194
Kawaramachi 194
knew 194
classes 194
Akashi 194
pseudonym 194
Elementary 194
sed 194
SAKANOUE 194
banished 194
Kenmu 194
Having 193
Ishiyama 193
Kyoto-@@ 193
1907 193
46 193
emerged 193
Dazaifu 193
dispatch 193
ura-@@ 193
competition 193
Toshiie 193
fierce 193
mark 193
ying 193
Yamazaki 193
additionally 193
guns 193
magazine 193
forward 193
juku 193
restore 193
usage 193
successfully 193
represents 193
girl 193
valuable 193
enacted 193
WA@@ 192
Togu 192
acc@@ 192
Nikki 192
16th 192
ern@@ 192
ownership 192
entrusted 192
Yamada 192
enthroned 192
guarded 192
broad 192
possession 192
KANO 192
hat@@ 192
ra 192
aburo 192
taxi 192
career 192
passage 192
bodies 192
Go-@@ 192
doors 191
steamed 191
responsibility 191
About 191
sec@@ 191
precinct 191
powder 191
Sam@@ 191
claim 191
Kochi 191
dan@@ 191
Munemori 191
improved 191
oyama 191
linked 191
1881 191
shok@@ 191
expansion 191
MIZUNO 191
presumed 191
100@@ 191
der 190
CHI@@ 190
Continued 190
and-@@ 190
Ayabe 190
1884 190
Yakushi 190
Gak@@ 190
1862 190
relationships 190
chance 189
kosa 189
cur@@ 189
raising 189
jito 189
cost 189
Dazai 189
criminal 189
approx 189
59 189
aku-ji 189
eries 189
gain 189
Osaka-jo 189
truth 189
improvement 189
presence 189
ens@@ 189
Ag@@ 189
beans 189
atmosphere 189
Railroad 189
IWAKURA 189
hai 189
artist 188
experience 188
Kizu 188
scrolls 188
Russian 188
Shog@@ 188
Yoshiharu 188
setsu 188
conf@@ 188
abroad 188
judge 188
rear 188
JI 188
Zeami 188
osa 188
delivered 188
enemies 188
coast 187
shog@@ 187
traveled 187
weak 187
Jugoinojo 187
Ogasawara 187
def@@ 187
grown 187
,@@ 187
Kamo-gawa 187
wakashu 187
Amitabha 187
characterized 187
1918 187
omiya 187
Pacific 187
Service 187
shoryo 187
examination 187
appropriate 187
onto 187
suspended 187
obtain 187
yor@@ 186
KUSUNOKI 186
payment 186
oma 186
No@@ 186
covers 186
yeast 186
RI 186
nin@@ 186
Bu@@ 186
carved 186
farming 186
three-@@ 186
Gosho 186
don@@ 186
break 186
spot 186
iv@@ 186
app@@ 185
confusion 185
Hakata 185
Hachiman 185
Nishi-@@ 185
Mim@@ 185
ori-@@ 185
halls 185
52 185
Rai@@ 185
recognition 185
riding 185
correct 185
Shoki 185
S 185
nearby 185
Ogura 185
ball 185
NOMURA 185
2.@@ 185
license 185
zu@@ 185
esoteric 185
leaders 185
invented 185
starts 185
provisions 184
dramas 184
expelled 184
Awaji 184
Yorimichi 184
iso 184
Higashi-@@ 184
trend 184
ISHIKAWA 184
49 184
ious 184
dolls 184
yellow 184
harvest 184
pan 184
deprived 184
Daijo 184
spots 184
negotiations 184
respected 184
bu-@@ 184
biwa 184
1,000 184
extent 184
eye 184
utsu 184
Daitoku-ji 184
65 184
Co@@ 183
atory 183
lack 183
Mo@@ 183
Iz@@ 183
converted 183
England 183
draft 183
OISHI 183
ously 183
Hanazono 183
Bicchu 183
form@@ 183
Taro 183
owing 183
kokuga 183
ize 183
confrontation 183
Mandokoro 183
interpreted 183
Has@@ 182
rok@@ 182
regime 182
michi 182
NITTA 182
Hundred 182
Ono 182
Gan@@ 182
Color 182
altar 182
Dajokan 182
seii 182
eleventh 182
monme 182
2001 182
au@@ 182
regardless 182
Hyo@@ 182
1180 181
damaged 181
SASAKI 181
gak@@ 181
Award 181
twelfth 181
Sas@@ 181
graduated 181
feel 181
Kimi 181
jurisdiction 181
finance 181
tone 181
Development 181
Kitano 181
affected 181
uchi-@@ 181
enforced 181
reforms 181
Asahi 181
bur@@ 181
meal 181
uc@@ 181
above-mentioned 181
meter 181
73 180
Nobutada 180
MU@@ 180
county 180
Rokujo 180
ZAWA 180
prime 180
Germany 180
Representatives 180
Gyokuyo 180
high-@@ 180
ari-@@ 180
Ume@@ 180
overthrow 180
guests 180
Kazan 180
ugi 180
drew 180
Shing@@ 180
3,000 180
seat 180
museum 180
functions 180
suna 180
necessarily 179
newspaper 179
400 179
Miyake 179
tan 179
Sumitomo 179
sleeves 179
precepts 179
unlike 179
conference 179
1910 179
Daigo-ji 179
observed 179
separately 179
Suke 179
Miz@@ 179
container 179
equipped 179
jima 179
aim 179
Naomasa 179
retreated 179
mit@@ 179
Seven 179
Toyama 179
Region 179
Home 179
yokai 179
Fushiminomiya 178
cotton 178
burning 178
eration 178
message 178
reward 178
movies 178
Ason 178
ratio 178
Seimei 178
brigade 178
ified 178
Unlike 178
HAYASHI 178
agency 178
Sane@@ 178
team 178
shu-@@ 178
sided 178
golden 178
Chugoku 178
amoto 178
situations 178
osai 178
At@@ 177
snow 177
stating 177
Nagaoka 177
straight 177
TE@@ 177
76 177
aspect 177
le-@@ 177
Bay 177
sumi 177
Res@@ 177
Life 177
Nenbutsu 177
hok@@ 177
gor@@ 177
separation 177
We 177
sal@@ 177
oshiki 177
wrapped 177
President 177
Higo 177
Naishi 177
1877 177
marry 177
iyo 177
Hikaru 176
1987 176
NHK 176
aries 176
uni 176
Hachiman-gu 176
Public 176
kubo 176
creating 176
ists 176
iwa 176
faces 176
strictly 176
celebrate 176
Ham@@ 176
sk@@ 176
ched 176
gaku 176
step 176
f 176
d-@@ 176
gl@@ 176
Kus@@ 175
chicken 175
myo@@ 175
jingu 175
salary 175
ive 175
Peers 175
seeing 175
Chujo 175
3-@@ 175
br@@ 175
1946 175
springs 175
assassination 175
ama-@@ 175
Naniwa 175
participate 175
strategy 175
dominant 175
flat 175
alism 175
MIURA 175
Hino 175
ition 175
effects 175
Katsumoto 175
attendant 175
OTA 174
Ikoma 174
bas@@ 174
ning 174
Dazai-fu 174
... 174
recommendation 174
kei@@ 174
critical 174
daytime 174
ju-@@ 174
Uk@@ 174
Muraji 174
sura 174
favorite 174
abu 174
umo 174
SU@@ 174
Regent 174
adult 174
Rennyo 174
ih@@ 174
41 174
sango 174
5-@@ 174
Takakage 173
obo 173
mi 173
hill 173
Hai@@ 173
Totomi 173
dark 173
attacks 173
Kagekatsu 173
Amago 173
Him@@ 173
viewpoint 173
purposes 173
sliding 173
Kanze 173
performers 173
Hay@@ 173
Taiheiki 173
governance 173
bills 173
ni@@ 173
MO@@ 173
crime 173
stationed 173
broth 173
ushin 173
transport 172
activity 172
ate-@@ 172
Tachibana 172
researchers 172
Hisahide 172
sending 172
ISHIDA 172
karate 172
GOTO 172
yo-ji 172
inspector 172
Afterwards 172
1929 172
trial 172
belongs 172
facts 172
hour 172
Sanskrit 172
foster 172
birthplace 172
arm 172
beings 172
purple 172
ma@@ 172
early-modern 172
kur@@ 171
generated 171
explanation 171
wet 171
imono 171
Tsune@@ 171
proclamation 171
block 171
kabane 171
Jo 171
strings 171
rit@@ 171
Eizan 171
si@@ 171
decoration 171
election 171
wo 171
soldier 171
tickets 171
Accordingly 171
copied 171
convenience 171
Being 171
wives 170
Yoshitsugu 170
ZAKI 170
iting 170
distinguish 170
1882 170
al-@@ 170
signed 170
aoka 170
ashira 170
endo 170
ines 170
71 170
lies 170
suppressed 170
soy-sauce 170
Horikawa 170
pres@@ 170
really 170
rarely 170
son@@ 170
ff@@ 170
What 170
1876 170
kyoku 170
half-brother 170
umon 170
MOTO 170
costumes 170
appearing 170
63 170
commanders 170
Onna 169
repeated 169
withdrew 169
causing 169
growth 169
tw@@ 169
conventional 169
ned 169
Six 169
omaru 169
bringing 169
SA 169
Ecchu 169
SO@@ 169
atsu-@@ 169
Yamat@@ 169
Gunma 169
classification 169
KATSURA 169
pork 169
steam 169
Shoen 169
structures 169
five-@@ 169
ish@@ 169
Soseki 169
Oy@@ 169
confiscated 169
FUJI@@ 169
1949 169
Odawara 169
Sakurai 169
Lieutenant 168
attend 168
amp@@ 168
itsu@@ 168
amachi 168
ajo 168
hung 168
zai 168
peak 168
detail 168
freight 168
ka@@ 168
Kaj@@ 168
shifted 168
Sacred 168
complex 168
Te@@ 168
hei@@ 168
aisho 168
ve 168
1950 168
familiar 168
Kan 168
celebration 168
nag@@ 168
Keifuku 168
lotus 168
72 168
Currently 168
ASANO 168
Ohara 168
gathering 167
speaking 167
112@@ 167
abdicated 167
falls 167
YAMADA 167
osei 167
Bingo 167
hand@@ 167
Shogoinoge 167
68 167
Kitakinki 167
MAKINO 167
handle 167
Tos@@ 167
uka 167
1895 167
gyo 167
Shos@@ 167
dera 167
Yoriyuki 167
Regarding 167
preservation 167
seasonal 167
ard@@ 167
Shojo 167
Chikuzen 167
earthenware 167
ryo@@ 167
pure 167
Danjuro 167
Era 167
race 166
architectural 166
aristocrats 166
Eight 166
osen 166
masterless 166
zaburo 166
banned 166
parallel 166
promote 166
Jing@@ 166
Jog@@ 166
majority 166
YAMA@@ 166
ches 166
tar@@ 166
pro-@@ 166
grain 166
SUZUKI 166
holy 166
Ay@@ 166
emp@@ 166
Koto 166
attendants 166
squad 166
joint 166
sion 166
seized 166
ities 166
1185 165
rumor 165
RA@@ 165
1926 165
ahime 165
arose 165
sightseeing 165
yuki 165
Sui 165
Yorimasa 165
Miyagi 165
angry 165
Jok@@ 165
honorific 165
advice 165
43 165
yosho 165
osho 165
tall 165
Train 165
strict 165
Okura 165
renga 165
mounds 165
awar@@ 165
unin 165
soil 165
prominent 165
Kagetoki 165
wheat 165
WADA 165
izu 164
farm 164
collapse 164
oden 164
denied 164
Coup 164
kawa 164
Yasutoki 164
workers 164
Engineering 164
Graduate 164
Koy@@ 164
Hig@@ 164
ron@@ 164
600 164
Once 164
1911 164
ang 164
row 164
ored 164
1996 164
res@@ 164
ute 164
2,@@ 164
ing-@@ 163
elevated 163
otsu 163
Kann@@ 163
acquired 163
inf@@ 163
well-@@ 163
ps 163
sources 163
hai@@ 163
exception 163
understanding 163
holidays 163
root 163
arrival 163
false 163
honzon 163
Izum@@ 163
Treasures 163
RI@@ 163
hometown 163
Shimane 163
cont@@ 163
paternal 163
seem 163
regulation 163
Teika 163
YA@@ 163
nen@@ 163
progress 163
thinking 162
specifically 162
Motonari 162
wrong 162
hy@@ 162
shell 162
premises 162
prepare 162
Shuk@@ 162
spiritual 162
Ro@@ 162
Umako 162
accompanying 162
item 162
liters 162
minor 162
Nobutaka 162
Controller 162
GA@@ 162
Tokuso 162
frame 162
Com@@ 162
ore 162
ind@@ 162
assume 162
ures 161
iri@@ 161
Kab@@ 161
1989 161
wild 161
gun@@ 161
ight 161
Yorimori 161
sc@@ 161
fin@@ 161
kot@@ 161
Interior 161
-do 161
placing 161
0 161
ening 161
mansion 161
thirty 161
toji 161
izing 161
18th 161
statement 161
Tenshu 161
Dai 161
son-in-law 161
back@@ 161
wars 161
awara 161
ble 161
Inoue 160
1000 160
Sojo 160
designs 160
Memorial 160
Gos@@ 160
Yang 160
coup 160
Russo-Japanese 160
legs 160
tourist 160
counter@@ 160
Ta@@ 160
Agriculture 160
jim@@ 160
sentence 160
institutions 160
WATANABE 160
Tea 160
missionary 160
Statue 160
Ienari 160
Bai@@ 160
housing 160
jig@@ 160
Sukeroku 160
89@@ 160
circular 160
experienced 159
seppuku 159
-like 159
fiscal 159
Shakyamuni 159
want 159
IMAGAWA 159
adjacent 159
seasoning 159
Dokyo 159
Chapter 159
tatami 159
79 159
Wei 159
Honnoji 159
Suiko 159
everyday 159
basin 159
Norinaga 159
ret@@ 159
soft 159
zumi 159
contemporary 159
artists 159
Set@@ 158
Transportation 158
Treasury 158
reki 158
fortune 158
1875 158
usen 158
tic 158
encouraged 158
serves 158
usei 158
games 158
mp@@ 158
capture 158
Onjo-ji 158
1885 158
oni 158
00@@ 158
HONDA 158
1947 158
Koho 158
Shochiku 158
tells 158
leadership 158
69 158
pillars 158
Justice 158
oun@@ 158
fabric 158
akko 157
triggered 157
U 157
90@@ 157
achieve 157
kanrei 157
passenger 157
Site 157
afterwards 157
cultivated 157
ashin@@ 157
Sino-Japanese 157
Saiin 157
disputes 157
describing 157
obe 157
igo 157
spec@@ 157
o-gawa 157
1874 157
independence 157
66 157
tsukasa 157
yields 157
heat 157
comm@@ 157
44 157
SATO 157
keyhole-shaped 157
Kiyomasa 156
a-gawa 156
Tadaoki 156
Rik@@ 156
ently 156
loss 156
informed 156
mental 156
merely 156
butsu@@ 156
add 156
zuke 156
For@@ 156
bro@@ 156
Nagahama 156
Mahayana 156
half-@@ 156
tendency 156
biography 156
Masayoshi 156
Ninna-ji 156
flow 156
ja 156
failure 155
uku 155
1993 155
Not 155
Nyo@@ 155
Mibu 155
manage 155
scattered 155
Kichi@@ 155
ahara 155
we@@ 155
SE@@ 155
Hot 155
Poets 155
yokan 155
Taishi 155
outstanding 155
Komyo 155
sentenced 155
58 155
rin 155
Eng@@ 155
search 155
mer@@ 155
Sutoku 155
eel 155
British 155
Sake 155
asaki 155
Shom@@ 155
kagura 155
D 155
virtually 155
Tengu 154
Koken 154
continues 154
Heijo-kyo 154
puppet 154
specialized 154
Omikami 154
Ben@@ 154
scenery 154
YOSHI@@ 154
oshu 154
ph@@ 154
tribute 154
represent 154
672 154
Ichin@@ 154
Betto 154
enshrines 154
Takayoshi 154
Gi@@ 154
Shug@@ 154
1897 154
feelings 154
Nen@@ 154
Kanazawa 154
robe 154
Daijo-daijin 154
Ceremony 154
luck 154
ROKKAKU 154
friends 154
Counselor 154
planning 154
koku@@ 154
NI@@ 154
conquest 153
SAKAI 153
Tanabe 153
news 153
physical 153
Monjo 153
ave 153
cap@@ 153
breweries 153
unusual 153
suffering 153
suppress 153
Okuninushi 153
Area 153
Yoshiakira 153
resignation 153
Noriyori 153
Par@@ 153
sick 153
Ordinance 153
20,000 153
67 153
isho 153
ching 153
Sur@@ 153
aut@@ 153
Early 153
Izanagi 153
Deputy 153
alization 153
AKAMATSU 153
Sumiyoshi 153
Sot@@ 153
admitted 153
Hoki 153
engraved 153
Hirobumi 153
Liberal 153
fur@@ 153
mo 153
Takarazuka 153
1998 153
1990 152
1995 152
Tokitada 152
Kiritsubo 152
ination 152
negotiation 152
pupil 152
Tadamasa 152
dough 152
makeup 152
manufactured 152
Takamori 152
Yawata 152
But@@ 152
odori 152
Islands 152
holder 152
Oji 152
horseback 152
minted 152
Fum@@ 152
Jig@@ 152
praying 152
biggest 152
Ut@@ 152
sky 152
save 152
collections 152
exit 152
sugi 152
shed 152
ref@@ 152
ans@@ 152
grow 152
grass 152
Seventh 152
performer 152
Ge@@ 152
amura 151
spite 151
det@@ 151
multiple 151
1912 151
deemed 151
shima 151
meals 151
improve 151
tell 151
Recently 151
Years 151
1184 151
Sarugaku 151
fudai 151
greatest 151
Tomo@@ 151
Keihanshin 151
83 151
timetable 151
1887 151
1900 151
ministers 151
Nagat@@ 151
imina 151
aze 151
Koshi@@ 151
bi 151
detached 151
arrest 151
aspects 151
lit 151
layout 151
6-@@ 151
hig@@ 151
walking 151
exclusively 151
Higher 151
NAGA@@ 151
85 151
alist 151
Oki 151
Kongo 151
cross 151
R 151
Kano 151
Nagato 151
Sor@@ 151
MATSU@@ 151
Nitta 151
YAMAGATA 150
Mochi@@ 150
loyal 150
aristocracy 150
falling 150
blind 150
jiki 150
Bo@@ 150
Ei@@ 150
injured 150
lots 150
onsen 150
miscellaneous 150
conquered 150
draw 150
Kebiishi 150
Kashi@@ 150
Nobushige 150
gan@@ 150
bureaucrats 150
Exhibition 150
ina 150
ashu 150
seriously 150
ta@@ 150
commentary 150
wisdom 150
syllables 150
syllabary 150
isen 150
complicated 149
Saburo 149
a-mura 149
17th 149
myo 149
ial 149
hin@@ 149
gift 149
surviving 149
sand 149
composition 149
一@@ 149
TAKATSUKASA 149
1994 149
pillar 149
74 149
Ab@@ 149
Sog@@ 149
Ritsumeikan 149
ist@@ 149
beef 149
Mune@@ 149
gami 149
Doji 149
backed 149
exc@@ 149
Hatakeyama 149
Hizen 149
owa 149
SHIMA 149
mention 149
Administration 148
tly 148
ath@@ 148
secure 148
gen 148
… 148
Kuni@@ 148
ving 148
four-@@ 148
instruction 148
appreciated 148
Shot@@ 148
oba 148
contact 148
fi@@ 148
uno 148
Brief 148
moreover 148
chairman 148
expert 148
usai 148
machine 148
三@@ 148
suppression 148
e-jinja 148
Ceremonial 148
mid-Heian 148
Movement 148
categories 148
theme 148
Saigoku 148
industrial 148
Yori@@ 148
NE@@ 147
Comp@@ 147
shaved 147
ogo 147
mine 147
1888 147
B.C. 147
NE 147
Genpei 147
dream 147
NAITO 147
ances 147
hole 147
remnants 147
CHI 147
lunch 147
su-@@ 147
jok@@ 147
Tsub@@ 147
please 147
permanent 147
oo 147
ashim@@ 147
Katsuyori 147
trouble 146
naturally 146
MA 146
Take 146
exp@@ 146
Gakko 146
Tsug@@ 146
manju 146
supposedly 146
Susanoo 146
housed 146
zoku 146
land@@ 146
TO 146
113@@ 146
Inari 146
visits 146
Sub@@ 146
Pl@@ 146
kor@@ 146
1999 146
evaluated 146
Construction 146
origins 146
promoting 146
aiming 146
controlling 146
Gy@@ 146
Toei 146
Koyo 146
publication 146
attacking 146
Toku@@ 146
bre@@ 146
No.@@ 146
shochu 146
ov@@ 146
telling 146
Nijo-jo 146
pottery 145
Aw@@ 145
69@@ 145
77 145
Toyo 145
ora 145
ual 145
nengu 145
page 145
Yoro 145
Popular 145
Koj@@ 145
birthday 145
designation 145
Toki 145
Demachiyanagi 145
Tensho 145
Various 145
ox@@ 145
instructor 145
Komei 145
procession 145
diameter 145
rush 145
Kosei 145
天@@ 145
ell@@ 145
nak@@ 145
4.@@ 145
Roju 145
Moronao 145
legends 145
uden 145
capacity 145
eo 145
YO@@ 145
itions 145
lasted 145
Yoshichika 144
Seiwa 144
ure@@ 144
Fud@@ 144
individuals 144
elling 144
ait@@ 144
steward 144
featuring 144
Saigu 144
debate 144
varies 144
everything 144
Foundation 144
Benkei 144
57 144
equipment 144
gets 144
totally 144
enforcement 144
noh 144
skill 144
Yuki 144
San 144
sounds 144
82 144
satsu 144
expensive 144
speech 144
Age 144
Joi 144
terminal 144
Former 144
species 144
izo 144
extension 144
copies 143
safety 143
executive 143
Nanto 143
Dance 143
Film 143
automatic 143
Yos@@ 143
Upon 143
birds 143
bird 143
average 143
1891 143
ace 143
estates 143
a-dera 143
Taika 143
authorities 143
acho 143
armies 143
prints 143
commanded 143
abbot 143
Books 143
expulsion 143
ramen 143
handling 143
War@@ 143
exchanged 143
64 143
Ac@@ 143
Eighth 143
strengthened 143
expenses 143
miyatsuko 143
rel@@ 143
agriculture 143
brush 143
ow 143
administered 143
saved 143
emb@@ 142
handled 142
aemon 142
leather 142
Personal 142
lose 142
Harumoto 142
cast 142
Guard 142
acid 142
utai 142
marked 142
modeled 142
1930 142
missing 142
stable 142
sudden 142
Yoshin@@ 142
子 142
charcoal 142
gardens 142
club 142
Pond 142
ideas 142
Peace 142
virtue 142
Naval 142
goku 142
difficulty 142
preached 142
Qu@@ 142
lined 142
oku-ji 142
try 142
purchased 142
exclusive 142
zan-@@ 142
struggle 142
Tokimasa 142
departure 141
mot@@ 141
fourteenth 141
fee 141
honorary 141
repair 141
kings 141
19@@ 141
Commander 141
Water 141
occasionally 141
KITABATAKE 141
transformed 141
Goj@@ 141
Indian 141
taro 141
il 141
battlefield 141
specialty 141
Kuranosuke 141
Tob@@ 141
tiles 141
managing 141
Tadazane 141
KAWA@@ 141
Daig@@ 141
zan@@ 141
Shinbun 141
Princes 141
monjo 141
Bi@@ 141
traveling 141
ushi-@@ 141
U.S. 141
Shib@@ 141
Reigen 140
Soto 140
1960 140
ochi@@ 140
Honno-ji 140
1886 140
i-gun 140
Yoshinari 140
TAKAHASHI 140
commissioner 140
inomiya 140
Sanesuke 140
contrary 140
shiro 140
subordinate 140
Keishin 140
incidents 140
remove 140
Tadamichi 140
essential 140
clay 140
1970 140
Mochihito 140
1919 140
bet@@ 140
7-@@ 140
o-no-@@ 140
Yukichi 140
MATSUMOTO 140
ida 140
wan@@ 139
Nishin@@ 139
participants 139
accordingly 139
1904 139
Seishi 139
79@@ 139
selection 139
SHI 139
王 139
Dynasties 139
moment 139
Appointed 139
refined 139
eggs 139
eling 139
Hyak@@ 139
1879 139
Prize 139
Goddess 139
wing 139
traditions 139
portable 139
concrete 139
bestowed 139
1943 139
amaro 139
Hot@@ 139
boys 139
islands 139
Ne@@ 139
roll 139
My@@ 139
novels 138
initial 138
ceased 138
Eiga 138
NAKAYAMA 138
execution 138
usual 138
gagaku 138
Mimasaka 138
illustrated 138
SAKAMOTO 138
Kubo 138
ap 138
Nihon@@ 138
Masayuki 138
but@@ 138
Gai@@ 138
RO@@ 138
Shimousa 138
normally 138
German 138
1905 138
brewed 138
1896 138
pat@@ 138
ification 138
railroad 138
Leaves 138
marks 138
meditation 138
MATSUNAGA 138
uo 138
ators 138
Yugiri 138
acy 138
address 138
1615 138
excavation 138
dealing 138
Study 138
construct 138
Gek@@ 138
r 137
ew@@ 137
liked 137
KIRA 137
script 137
Masahiro 137
Like 137
Sekkan-ke 137
drive 137
shoulder 137
Toshizo 137
Highway 137
tactics 137
tip 137
prison 137
Hyakunin 137
whale 137
bath 137
Yanag@@ 137
approach 137
ading 137
anecdotes 137
Rec@@ 137
loyalty 137
emphasized 137
Onmyodo 137
Golden 137
Fuhito 137
crisis 137
19th 137
desire 137
fe@@ 137
Ran@@ 137
okimi 137
constructing 137
shun 137
Koyasan 137
ashiro 137
Konin 137
1901 137
straw 137
1865 137
1920 136
Genko 136
Oita 136
kokujin 136
equ@@ 136
80@@ 136
besides 136
siege 136
Shigetada 136
nosuke 136
jiju 136
originates 136
relief 136
post@@ 136
fermentation 136
Got@@ 136
demanded 136
lifetime 136
kingdom 136
Takam@@ 136
spear 136
wished 136
seasons 136
SE 136
kokyu 136
gin 136
Shoin 136
weapon 136
vis@@ 136
worth 136
ingredient 135
Hondo 135
1991 135
aguchi 135
Yoshiyasu 135
o-do 135
ears 135
dragon 135
Letters 135
share 135
argument 135
1976 135
reports 135
ms 135
1878 135
Senju 135
excluding 135
planted 135
primary 135
Hyuga 135
anything 135
storage 135
hairstyle 135
delivery 135
stipulated 135
akuin 135
sat@@ 135
ryori 135
1899 135
pulled 135
Dait@@ 135
divination 135
GAWA 135
long-@@ 135
revenge 135
offerings 135
on-ji 134
Per@@ 134
Tochigi 134
varieties 134
fashion 134
山@@ 134
SAWA 134
couldn 134
Yamanashi 134
daijin 134
circles 134
KU 134
Suzaku 134
s-@@ 134
kanjo 134
hiding 134
discussion 134
traditionally 134
contest 134
gin@@ 134
holiday 134
kilometers 134
Iwate 134
fifty 134
cap 134
Bankoku 134
OKUMA 134
Mom@@ 134
Kyotanabe 134
Kinema 134
2009 134
contribution 134
inspection 134
Tsuchimikado 134
businesses 134
au 134
ser@@ 134
Shoten 134
Katsuie 134
Hime 134
comparable 134
collecting 134
apart 134
painters 134
Tek@@ 134
ots 134
fun@@ 134
stream 134
Commentary 134
ika 134
constitution 134
aig@@ 134
head@@ 134
adopt 133
1972 133
zuk@@ 133
chain 133
rivers 133
warm 133
struck 133
increasingly 133
widespread 133
Royal 133
conc@@ 133
Music 133
journey 133
gather 133
leads 133
YU@@ 133
Sakur@@ 133
1925 133
on-in 133
fear 133
ASAKURA 133
boards 133
scheduled 133
yom@@ 133
INABA 133
1183 133
Wakoku 133
Nobuyori 133
mixture 133
Promoted 133
elegant 133
funds 133
ef@@ 133
simplified 133
shuk@@ 133
Shimabara 133
parent 133
udon 133
ams 133
programs 133
Tenpo 133
hachi 133
ori@@ 133
Noto 133
factors 133
studio 133
Style 132
tsubone 132
Chiten 132
Kansei 132
Nobuyoshi 132
Himiko 132
Shiro 132
itation 132
Bon@@ 132
Masanobu 132
tile 132
inheritance 132
ains 132
ichi-@@ 132
boshi 132
environment 132
succeeding 132
Nikkatsu 132
ately 132
realm 132
fans 132
Bound 132
fundamental 132
1988 132
Note 132
reaching 132
retreat 132
Yoshiko 132
sa 132
Hoz@@ 132
1951 132
interests 132
wards 132
earned 132
Uzumasa 132
perfect 132
dressed 132
Azuchi 132
kelp 132
budget 132
difficulties 132
ren 132
merger 132
Utsunomiya 132
gone 131
appeal 131
ear 131
Kyokai 131
Toji 131
Initially 131
des@@ 131
Examples 131
unearthed 131
affiliated 131
concentrated 131
Nis@@ 131
clean 131
promulgated 131
operate 131
headship 131
Yusai 131
Nobukatsu 131
ection 131
enshrine 131
aware 131
justice 131
naval 131
extending 131
win 131
1985 131
notice 131
reigns 131
unification 131
revival 131
Toshimichi 131
kyo-@@ 131
Tomomi 131
ingo 131
raid 131
count 131
amb@@ 131
por@@ 131
HO@@ 131
suggest 131
depicting 131
odai@@ 130
fiction 130
Provincial 130
1927 130
Gomizunoo 130
pickled 130
quoted 130
dictionary 130
Tametomo 130
nyogo 130
sign@@ 130
Hat@@ 130
animal 130
intersection 130
emoto 130
Hida 130
Nakagyo 130
kag@@ 130
cho@@ 130
coffee 130
elected 130
KOGA 130
Imadegawa 130
Taka@@ 130
Be@@ 130
tumuli 130
Jiro 130
achi-@@ 130
ka-@@ 130
Som@@ 130
assuming 130
Autumn 130
low-@@ 130
kit@@ 130
downfall 129
uke 129
ars 129
Michitaka 129
1980 129
isn 129
1880 129
JI@@ 129
HIJIKATA 129
rad@@ 129
Please 129
committee 129
chanting 129
Yasut@@ 129
liquor 129
trust 129
Oni 129
vinegar 129
Tokai 129
thoughts 129
directions 129
Yoshio 129
III 129
destroy 129
Red 129
ashes 129
relating 129
Sakamoto 129
accused 129
instructions 129
pos@@ 129
profit 129
Soon 129
Governor-General 129
Pri@@ 129
Enshu 129
transmitted 129
Hoj@@ 129
150 129
sale 129
Ashi@@ 129
Iemochi 129
mainstream 129
oral 129
Konoefu 129
ruined 129
Kod@@ 129
Kuroda 129
grilled 129
Katsuragi 129
attained 129
Hag@@ 129
Hotel 129
seasoned 129
originator 129
sets 129
jitsu 128
climate 128
Akiko 128
Nob@@ 128
voice 128
ishi-@@ 128
causes 128
Yoshimura 128
Kikugoro 128
Hatamoto 128
uring 128
Es@@ 128
the@@ 128
Tokiyori 128
Matsuyama 128
Yaman@@ 128
fer@@ 128
procedure 128
1948 128
Technology 128
wait 128
z 128
KAMO 128
resources 128
brown 128
privately 128
steps 128
Committee 128
guarding 128
jiuta 128
affair 128
shared 128
coat 128
significantly 128
respective 128
atsuk@@ 128
independently 128
hak@@ 128
okuni 128
Soun 128
lectures 128
weather 128
Section 128
Historic 128
ash 128
eng 128
oban 128
Le@@ 128
haku 128
Shimbun 127
KA 127
eness 127
Teishi 127
deaths 127
ion@@ 127
friendship 127
roots 127
spreading 127
Kita-@@ 127
singing 127
rap@@ 127
O-oku 127
nations 127
kitchen 127
mak@@ 127
flag 127
1965 127
Career 127
pardoned 127
1955 127
mu 127
universities 127
T 127
chu@@ 127
personality 127
statesman 127
garment 127
1944 127
processed 127
closer 127
ture 127
enshrining 127
TAKE@@ 127
maintenance 127
udai 127
dances 127
shore 127
Mr. 127
Po@@ 127
Mok@@ 127
Ama 127
application 127
distinction 127
storey 127
plans 127
recovered 127
Tokushima 127
lake 127
1915 127
uro@@ 127
Yi 127
nun 127
townspeople 126
Goro 126
threw 126
NISHI@@ 126
DO 126
eras 126
Shige@@ 126
KATSU 126
beside 126
div@@ 126
souls 126
TOKI 126
Ed@@ 126
1940 126
add@@ 126
Horses 126
intangible 126
SHIBATA 126
ton@@ 126
Vol 126
tail 126
Tenjin 126
Shigenobu 126
tourists 126
onom@@ 126
shor@@ 126
forests 126
20th 126
Buzen 126
1333 126
mat 126
-jo 126
imoto 126
exposed 126
Des@@ 126
natto 126
paying 126
amori 126
之@@ 126
Toka 126
Reforms 126
Through 126
Sometimes 125
owners 125
differ 125
Afterward 125
Karo 125
seeking 125
Okami 125
Wat@@ 125
Haru@@ 125
bon@@ 125
mal@@ 125
Kay@@ 125
Medieval 125
doubt 125
eyasu 125
Anthology 125
81 125
sisters 125
set@@ 125
Seinan 125
Don@@ 125
ental 125
gaining 125
sticks 125
istic 125
ishing 125
councillor 125
farmer 125
Koshi 125
mounted 125
Koji 125
Miroku 125
twenty-@@ 125
1902 125
argued 125
Story 125
Tsuruga 125
Kagawa 125
prayed 125
sechie 125
Bunko 125
enormous 125
float 125
Komachi 125
viewed 125
Korechika 125
日@@ 125
Muk@@ 125
mik@@ 125
poured 124
sure 124
Shigehira 124
starch 124
Joruri 124
Yoshitane 124
households 124
kik@@ 124
Kint@@ 124
ths 124
ail@@ 124
coll@@ 124
Akamatsu 124
Hospital 124
seek 124
56 124
afraid 124
Onmyo 124
Others 124
mod@@ 124
folded 124
ak 124
deeds 124
rem@@ 124
Jiju 124
graveyard 124
loc@@ 124
sleeve 124
definition 124
X 124
Hom@@ 124
registration 124
Aoi 124
cubic 124
tat@@ 124
zaka 124
Training 124
Sonno 124
oji-@@ 124
GO@@ 124
positioned 124
passes 124
attracted 124
Dogen 124
Ikki 124
developing 123
substitute 123
Yukinaga 123
Sumimoto 123
joining 123
Defense 123
bear 123
collective 123
fallen 123
gifts 123
Hashi@@ 123
nur@@ 123
ancestral 123
shakuhachi 123
Takatsuki 123
star 123
kyogen 123
ote 123
Jushiinojo 123
PiTaPa 123
30,000 123
worshiped 123
charged 123
1986 123
hand-@@ 123
medium 123
aging 123
can@@ 123
bureau 123
Or@@ 123
rural 123
fruit 123
Honcho 123
absorbed 123
ports 123
continuously 123
gro@@ 123
Yum@@ 123
Yoshinaga 123
mediation 123
Chinese-style 123
mei 123
eda 123
tears 123
sek@@ 123
commerce 123
Yoshimori 123
mandala 123
media 123
apprentice 122
attributed 122
CHIBA 122
Gyok@@ 122
nurse 122
Ichim@@ 122
akum@@ 122
eshi 122
ari@@ 122
tur@@ 122
differs 122
Enyu 122
riot 122
youth 122
amatsu 122
bus@@ 122
Medicine 122
sama 122
char@@ 122
tunnel 122
warehouse 122
govern 122
suspected 122
sob@@ 122
6.@@ 122
Daigaku 122
ugyo 122
circulated 122
tour 122
Mori@@ 122
anomiya 122
rocks 122
Finance 122
1968 122
homyo 122
Aomori 122
classic 122
Goto 122
Cl@@ 122
Takamatsu 122
Hy@@ 121
Gin@@ 121
shak@@ 121
purification 121
governments 121
cycle 121
1906 121
powdered 121
municipal 121
Shintoism 121
assisted 121
Manchuria 121
decide 121
fifteenth 121
Fukei 121
Established 121
cho-@@ 121
maintaining 121
scenic 121
matches 121
Shugodai 121
Theory 121
Yamato-@@ 121
judgment 121
craftsmen 121
mutual 121
expressions 121
Ame 121
heated 121
lacquered 121
iemoto 121
turns 121
eled 121
train-cars 121
a-ji 121
Hikone 121
eri 121
avoided 121
Tot@@ 121
thousands 121
enin 121
focused 121
e.g. 121
Consort 121
allowing 121
cloister 120
oto-@@ 120
1954 120
ige 120
map 120
hidden 120
layer 120
extra 120
Kib@@ 120
Shima 120
Himemiko 120
Yoshioki 120
Seto 120
Mochiuji 120
impression 120
ards 120
Medical 120
1941 120
provision 120
2,000 120
heavenly 120
Dok@@ 120
etiquette 120
ory 120
Obama 120
coffin 120
gar@@ 120
ano@@ 120
1894 120
jobs 120
hashi 120
viscount 120
mm 120
V 120
pirates 120
Yoritsuna 120
merit 120
topped 120
gan 120
prize 120
largely 120
turning 119
uncertain 119
access 119
diplomacy 119
1908 119
ashima 119
crossed 119
Metropolitan 119
Miura 119
B 119
boiling 119
1573 119
Church 119
Minami-@@ 119
neighborhood 119
beat 119
Tameyoshi 119
Yamana 119
pei 119
talented 119
teachers 119
UTSUNOMIYA 119
1892 119
Supreme 119
Gongen 119
pu 119
dominated 119
110@@ 119
sanctuary 119
Atago-yama 119
ira 119
narrative 119
Atsutane 119
Mongol 119
investiture 119
kas@@ 119
Morosuke 119
Productions 119
ben@@ 119
comprised 119
vol@@ 119
Chrysanthemum 119
Fire 119
religions 119
couple 119
opposing 119
signs 119
ruin 119
Yag@@ 119
Himeji 119
dog 119
effectively 119
answered 118
en-in 118
guide 118
invocation 118
JO 118
ronin 118
Mus@@ 118
slope 118
Along 118
Rak@@ 118
OGASAWARA 118
uniform 118
chi-@@ 118
Industrial 118
Shozo 118
Isshu 118
allegedly 118
communities 118
circulation 118
Pilgrimage 118
prices 118
Building 118
prefix 118
BA 118
bore 118
politician 118
follower 118
mu@@ 118
conclusion 118
800 118
Amagasaki 118
ministry 118
industries 118
Myoshin-ji 118
akur@@ 118
Jinja 118
Heizei 118
rectangular 118
hum@@ 118
1585 118
host 118
Toho 118
Concerning 118
coming-of-age 118
Shinzei 118
disturbance 118
unless 118
GUCHI 118
rai@@ 118
Mototsune 118
1953 118
cakes 118
in-ji 118
cor@@ 117
-style 117
wise 117
dealt 117
behalf 117
Kamon 117
ISHI@@ 117
tot@@ 117
authorized 117
e-no-@@ 117
ences 117
furthermore 117
1909 117
Shoko 117
arrive 117
thirteenth 117
projects 117
Azai 117
gosho 117
700 117
1934 117
Mononobe 117
Gofukakusa 117
ekiyo 117
1903 117
Shinsho 117
nowadays 117
cer@@ 117
Fine 117
cul@@ 117
reflected 117
1923 117
communication 117
Yorimitsu 117
Camp 117
Shoshu 117
constitutional 117
1974 117
eno 117
Number 117
tic@@ 117
happiness 117
boundary 117
conspiracy 117
father-in-law 117
do-@@ 117
whi@@ 117
mourning 117
Fukakusa 117
easier 116
Ryo 116
uryo 116
Nit@@ 116
oshima 116
ished 116
L 116
eshi@@ 116
Fushimi-jo 116
screens 116
1979 116
counting 116
Kob@@ 116
magistrates 116
principles 116
Oh@@ 116
strengthen 116
1932 116
cited 116
somen 116
pleasure 116
Kaido 116
limit 116
ishu 116
Shonagon 116
Izanami 116
severely 116
Kir@@ 116
My 116
命 116
Naosuke 116
Tax 116
1981 116
exactly 116
Works 116
Kyudo 116
pan@@ 116
attain 116
sand@@ 116
Ojin 116
ogre 116
Miyako 116
performs 116
supervised 116
Yoshikage 116
Dainichi 115
Mikkyo 115
Koki 115
compound 115
adoption 115
ai-ji 115
considerable 115
publishing 115
Katamachi 115
1969 115
keeper 115
stalls 115
inv@@ 115
contract 115
Bus@@ 115
data 115
GA 115
zai@@ 115
ile 115
reinforcements 115
begun 115
Mine 115
daikon 115
aishi 115
depicts 115
Koan 115
sufficient 115
Shimonoseki 115
Miyazaki 115
demise 115
Bon 115
-- 115
mausoleums 115
Monju 115
seaweed 115
ama-cho 115
ordinance 115
30@@ 115
ikan 115
throwing 115
ho-@@ 115
sume 115
Shiro@@ 115
ceiling 115
lowest 115
conquer 115
Wafuku 115
Uemon 115
legendary 115
chose 115
Toyooka 115
dwelling 115
semi-@@ 115
maki 115
sight 115
Basin 115
mere 115
anger 115
1942 115
fil@@ 115
Sonobe 115
ped 115
pupils 115
announcement 115
excelled 115
youngest 115
Saigyo 114
1858 114
Ii 114
nori 114
advisers 114
Her@@ 114
stages 114
1866 114
wasn 114
meetings 114
dormitory 114
ayam@@ 114
met@@ 114
Amanohashidate 114
Hana 114
shing@@ 114
99@@ 114
Official 114
peaceful 114
horizontal 114
answer 114
GO 114
K 114
5,000 114
chin 114
poverty 114
hunt 114
Kudara 114
1592 114
teahouse 114
fuku 114
Federation 114
Vice 114
efusa 114
Takashima 114
hierarchy 114
shapes 114
1967 114
toshi 114
Yakushi-ji 114
Mid@@ 114
Isami 114
Yon@@ 114
inherit 114
hong@@ 114
FUKU@@ 114
eyuki 114
Moto@@ 114
Cha@@ 114
du@@ 114
hay@@ 113
earthen 113
Buk@@ 113
Kyok@@ 113
comparison 113
HORI 113
kum@@ 113
aunt 113
Tri@@ 113
possibly 113
asho 113
Tadatsune 113
ko-ji 113
Jit@@ 113
Tathagata 113
inaugurated 113
none 113
ables 113
Ansei 113
Yoshishige 113
ishin 113
1914 113
Sugawara 113
Yoshifusa 113
illegitimate 113
ahama 113
Jingi 113
Rei 113
nin 113
gok@@ 113
109@@ 113
belt 113
Ehime 113
mentions 113
1992 113
Tenri 113
Nanzen-ji 112
sweets 112
Shoz@@ 112
Dain@@ 112
nyo 112
Kishi 112
wealth 112
del@@ 112
picked 112
Antoku 112
rever@@ 112
ger 112
banquet 112
seals 112
Heiankyo 112
enters 112
ou 112
IWA@@ 112
yama-jo 112
tombs 112
appoint 112
relocation 112
inferior 112
aza 112
bara 112
ouchi 112
How 112
Nantan 112
flying 112
dist@@ 112
col@@ 112
afu 112
mid@@ 112
cypress 112
aichi 112
men@@ 112
ultimately 112
donation 112
ahead 112
Keitai 112
Kiyomizu-dera 112
Suwa 112
chronicle 112
MONONOBE 112
ano-@@ 112
Christians 112
attempts 112
yu-ji 112
driven 112
claims 112
ign@@ 112
sung 112
consumption 112
ging 112
Yoshikane 112
Junna 112
ideal 112
aid 112
anari 112
emergency 112
extraordinary 112
Myojin 112
reads 112
hitsu 112
roofs 112
towers 112
Villa 112
Sou@@ 112
ahito 112
国@@ 112
70@@ 111
Sports 111
Tag@@ 111
Yin 111
gon@@ 111
ajiro 111
eshige 111
Tomot@@ 111
ride 111
obliged 111
Saku@@ 111
east-west 111
calm 111
Yoshimi 111
Yamag@@ 111
usu@@ 111
forty-@@ 111
privileged 111
tangible 111
1922 111
Iesada 111
yori 111
ritsu 111
chant 111
treaties 111
grant 111
heading 111
e-jo 111
1933 111
dojo 111
wat@@ 111
Shichijo 111
a-machi 111
NAGAI 111
esada 111
accomplished 111
blossom 111
doll 111
azuki 111
ulation 111
greater 111
practically 111
akari 111
Kofu 111
Yoshimochi 111
ignored 111
HASHIBA 111
casting 111
centering 111
Dom@@ 111
1921 111
owed 111
140@@ 110
signature 110
pepper 110
boom 110
resident 110
fires 110
tog@@ 110
Takat@@ 110
1959 110
exhibited 110
sovereign 110
Hiromoto 110
Yomei 110
Sadaie 110
ingly 110
reserved 110
Takeru 110
1966 110
proclaimed 110
cup 110
talk 110
Ushi@@ 110
Shosho 110
ima 110
hearing 110
driving 110
confused 110
bor@@ 110
princesses 110
depth 110
Hosho 110
aud@@ 110
Sp@@ 110
hot@@ 110
ly-@@ 110
da@@ 110
Tokimune 110
1935 110
shom@@ 110
peninsula 110
Origin 110
Shi 110
Original 110
JIMA 110
Sasaki 110
Biwako 110
chu-@@ 110
rite 110
osan 110
chopsticks 110
Inter@@ 109
approached 109
Nohgaku 109
milk 109
courtesy 109
toge 109
Miyak@@ 109
watch 109
odai 109
nor@@ 109
heavily 109
cave 109
st 109
KITA@@ 109
assembly 109
confidence 109
Tadataka 109
involvement 109
provides 109
eful 109
Minam@@ 109
thirty-@@ 109
Akira 109
kyu@@ 109
courses 109
mag@@ 109
Depot 109
Kings 109
prohibition 109
Kinmochi 109
winning 109
御@@ 109
mysterious 109
ress 109
parade 109
proper 109
switched 109
Type 109
decrease 109
penalty 109
KOBORI 109
kim@@ 109
Naganori 109
holes 109
Haihan-chiken 109
perspective 109
flavored 109
Administrative 109
emichi 109
Tsukushi 109
ISE 109
locomotives 109
bag 109
pen@@ 109
confronted 109
rising 109
Shui 109
storytelling 109
pose 109
KIKKAWA 108
Paris 108
Ukon 108
Daruma 108
cavalry 108
Otsu@@ 108
Kokufu 108
print 108
thrown 108
Eki 108
Past 108
rated 108
closing 108
cord 108
1952 108
Osumi 108
oshim@@ 108
dar@@ 108
1973 108
Protection 108
Rice 108
NAKAGAWA 108
advocating 108
5.@@ 108
SAWAMURA 108
ut 108
shichi@@ 108
Dai-@@ 108
Sec@@ 108
Born 108
Summer 108
ugo 108
cooperated 108
thirteen 108
doctors 108
underwent 108
ays 108
Ukifune 108
rebel 108
UMEWAKA 108
Tetsu@@ 108
val@@ 108
ee 108
aide 108
Dec@@ 108
ively 108
introducing 108
portraits 108
Moriya 108
arai 108
sy@@ 108
GI 108
Heaven 108
1963 108
lin@@ 108
dri@@ 108
Cor@@ 108
Yug@@ 108
okyo 108
bowls 108
Jomei 108
sid@@ 108
factory 108
Britain 108
accession 108
Daiei 108
Ken 108
fair 107
ISSHIKI 107
questions 107
Chiku@@ 107
torii 107
NAKAHARA 107
Hen@@ 107
burden 107
seeds 107
Sanetaka 107
k-@@ 107
Honzon 107
subjugation 107
vice-@@ 107
Fushimi-@@ 107
Children 107
Ri@@ 107
Retained 107
shite 107
theatrical 107
Daigaku-ryo 107
impact 107
suspicion 107
manufacturers 107
ast 107
Buses 107
1883 107
Taifu 107
experts 107
dropped 107
Do 107
gener@@ 107
preserve 107
preface 107
Daikaku-ji 107
50,000 107
interested 107
ozu 107
teeth 107
zen-@@ 107
technical 107
ably 107
mig@@ 107
subordinates 107
alternative 107
bri@@ 107
shing 107
Inland 107
oll@@ 106
touch 106
ple 106
grains 106
trained 106
asking 106
wa@@ 106
yos@@ 106
enc@@ 106
ahi@@ 106
ect 106
Shit@@ 106
abbreviated 106
shokan 106
Post 106
Inc 106
outbound 106
84 106
faculty 106
Sakura 106
1893 106
iru 106
occupation 106
ime 106
tie 106
Higashi-Maizuru 106
expand 106
honjo 106
Ichinomiya 106
Asakusa 106
omitted 106
vehicles 106
reliable 106
Muro@@ 106
costs 106
Kashihara 106
Kanemichi 106
deployed 106
shi-@@ 106
Hashimoto 106
versions 106
proceeded 106
sochi 106
successors 106
ibe 106
1221 106
pushed 106
thatched 106
Picture 106
decisive 106
kanpaku 106
List 106
Yoritsune 106
Kud@@ 105
Retainers 105
1978 105
cedar 105
ce 105
fusa 105
paddy 105
phenomenon 105
sized 105
Dist@@ 105
Documents 105
129@@ 105
transition 105
alternate 105
Hong@@ 105
Konjaku 105
che@@ 105
knife 105
bought 105
anthologies 105
deb@@ 105
Onmyoryo 105
Private 105
talked 105
Shimot@@ 105
murder 105
Tunnel 105
folklore 105
courtier 105
Okazaki 105
1975 105
histories 105
神@@ 105
flood 105
connections 105
loincloth 105
YUKI 105
capitals 105
achig@@ 105
Od@@ 105
rushed 105
Di@@ 105
Gosaga 105
bearing 105
murdered 105
emono 105
1956 105
vary 105
sheet 105
absence 105
Tamakazura 105
genpuku 105
ker 105
plates 105
noodle 105
ministries 105
monzeki 105
cre@@ 105
network 105
teach 105
inojo 105
descendents 105
Iki 105
Broadcasting 105
woodblock 105
mei@@ 104
Motonaga 104
apparent 104
frequent 104
tures 104
Kamatari 104
polished 104
Dharma 104
connects 104
work@@ 104
ARAKI 104
SANJONISHI 104
Goz@@ 104
naming 104
REIZEI 104
Shugendo 104
ung 104
ch-@@ 104
1913 104
uru 104
mainland 104
akuji 104
choice 104
mask 104
701 104
sham@@ 104
120 104
Saneyori 104
explains 104
Sekkan 104
dly 104
hostage 104
TSUDA 104
Ujimasa 104
buy 104
dynasties 104
Sen 104
modernization 104
Takechi 104
min 104
Shonai 104
mathematics 104
Western-style 104
Kobo 104
tim@@ 104
1590 104
US 104
ession 104
SHO 104
concepts 104
balls 104
Ryok@@ 104
Kunit@@ 104
ishiki 104
negative 104
Tsubone 104
disasters 103
OTANI 103
machines 103
sel@@ 103
isei 103
BANDO 103
joruri 103
ceramic 103
appointing 103
Toshi 103
Sotan 103
proof 103
Yom@@ 103
abdication 103
Offices 103
radical 103
jointly 103
Agricultural 103
SUGI@@ 103
ale 103
1984 103
realistic 103
Ikeda 103
roku@@ 103
varied 103
ishige 103
united 103
Aritomo 103
Ukiyoe 103
Kogon 103
dies 103
eikan 103
1957 103
proved 103
his@@ 103
Saito 103
Shigeko 103
114@@ 103
1964 103
patriarch 103
1924 103
Okuma 103
Katsur@@ 103
Wang 103
ne 103
kug@@ 103
KIDO 103
,000 103
ained 103
emphasis 103
drums 103
Hata 103
shos@@ 103
MIYA@@ 103
artistic 103
Tofuku-ji 103
idai 103
vessel 103
TOKUDAIJI 103
partially 103
divisions 103
super@@ 103
uda 103
textile 103
Way 102
Yoshizumi 102
excluded 102
agent 102
rig@@ 102
Wisdom 102
Transport 102
fleet 102
Shinsen 102
corps 102
ged 102
Tower 102
Tama 102
so-@@ 102
Heritage 102
hope 102
arriving 102
Present 102
Sunday 102
Tr@@ 102
Nowadays 102
lyrics 102
begin 102
a-g@@ 102
ANDO 102
Jos@@ 102
solar 102
Moku@@ 102
anc@@ 102
privileges 102
Gr@@ 102
eleven 102
Obaku 102
preferred 102
ninja 102
BU@@ 102
Mount 102
NIKAIDO 102
jujutsu 102
preaching 102
Southeast 102
Scenic 102
fumi 102
deer 102
Nagao 102
法@@ 102
utilized 102
genre 102
Kanji 102
pursued 102
praise 102
arch@@ 102
chigyo 102
Oshima 102
okoro 102
SANADA 102
Rising 102
award 102
akushi 102
com@@ 102
Despite 102
honored 102
chest 102
off@@ 102
Seki 102
roasted 102
IC 102
oda 102
bot@@ 102
nai@@ 102
mel@@ 102
Jim@@ 102
Toru 102
revenue 102
re 101
Goryeo 101
Nobuhide 101
Reg@@ 101
shoot 101
1936 101
aling 101
rid@@ 101
malt 101
ready 101
friendly 101
pol@@ 101
mitsu 101
DO@@ 101
Given 101
Kinmei 101
sexual 101
Intangible 101
degrees 101
OYAMA 101
secondary 101
class@@ 101
mayor 101
purchase 101
iji 101
Standing 101
portrayed 101
suit 101
ekata 101
obun@@ 101
ives 101
Str@@ 101
brave 101
eyama 101
RA 101
ming 101
claiming 101
forbidden 101
Sword 101
interior 101
Kad@@ 101
disaster 101
storm 101
yoshu 101
Tomo 101
craft 101
Kuge 101
Jor@@ 101
supplied 101
Kub@@ 101
destruction 101
Suz@@ 101
Honjo 101
Power 101
shuku 101
wa-@@ 101
Conference 100
Sozen 100
bul@@ 100
Joseon 100
Tadamori 100
sentences 100
stronger 100
Monzeki 100
framework 100
asaka 100
ency 100
needs 100
hardly 100
centuries 100
Oriental 100
musicians 100
values 100
water@@ 100
zuryo 100
bones 100
koryo 100
ude 100
Mitsuyoshi 100
Jingikan 100
evaluation 100
agaki 100
worse 100
drastically 100
hid 100
hemp 100
Nirvana 100
gy@@ 100
dom@@ 100
ii 100
Maeda 100
daikan 100
Archives 100
councilors 100
Wada 100
21st 100
campus 100
bento 100
instance 100
Location 100
rough 100
HASEGAWA 100
lid 100
assets 100
Gold 100
Hatsu@@ 100
Aman@@ 100
ukan 100
surprised 100
prescribed 100
elled 100
Naga@@ 100
departments 100
Gosanjo 100
Tada@@ 100
Emaki 100
Tsugaru 100
cal@@ 100
breaking 100
Kamik@@ 99
1156 99
Iwami 99
arm@@ 99
protecting 99
Kokuga 99
pretext 99
Arisugawanomiya 99
Kodo 99
restricted 99
wrestler 99
freely 99
panel 99
koban 99
ases 99
Course 99
fermented 99
radish 99
gen-@@ 99
fut@@ 99
shit@@ 99
Social 99
Class 99
pot@@ 99
structural 99
enaga 99
bonito 99
Access 99
historically 99
igaku 99
myth 99
KIKUCHI 99
focus 99
curse 99
iten 99
violent 99
craftsman 99
abilities 99
initiative 99
ke-@@ 99
Cordon 99
factor 99
Yorinobu 99
1937 99
ust 99
plus 99
uri-@@ 99
eya 99
presently 99
recruited 99
imori 99
Ota 99
apparently 99
ological 99
pi@@ 99
KINOSHITA 99
supervision 99
Gunji 99
ridge 99
KTR 99
brand 98
Hiroshi 98
Kanpei 98
counties 98
six-@@ 98
Rakugo 98
KAJUJI 98
fast 98
meanings 98
Gozan 98
generals 98
Tree 98
Mitsukuni 98
lieutenant 98
7.@@ 98
Just 98
happy 98
wi@@ 98
ades 98
TSU 98
Gokomatsu 98
Heishi 98
TSUCHIMIKADO 98
Kobun 98
Tokihira 98
rendered 98
neck 98
ient 98
beads 98
rolling 98
jun 98
expresses 98
Az@@ 98
Kagetora 98
texture 98
issuing 98
wake 98
Atsu@@ 98
Kokyu 98
skilled 98
reside 98
beliefs 98
band 98
doshi 98
wedding 98
chrysanthemum 98
specially 98
verses 98
dharma 98
Chamber 98
Nagaokakyo 98
ara-@@ 98
lantern 98
deed 98
depart 98
3,@@ 98
informal 98
Gaku@@ 98
renowned 98
Fudoki 98
Yoriyoshi 98
Soke 97
lion 97
Isshiki 97
shoyu 97
dic@@ 97
hyo@@ 97
assistance 97
ya-@@ 97
candidate 97
Chinju-fu 97
schedule 97
drunk 97
nan@@ 97
Hosso 97
emon@@ 97
native 97
Pagoda 97
diaries 97
Living 97
Kibi 97
Amid@@ 97
notion 97
occur 97
KIMURA 97
Chogin 97
Shigenari 97
kog@@ 97
decorations 97
apply 97
feud 97
persuaded 97
contributions 97
ham@@ 97
Oyam@@ 97
welcomed 97
inbound 97
Sanjo-@@ 97
taxation 97
buk@@ 97
KAN@@ 97
Tsunehisa 97
subsidiary 97
ests 97
Kosho 97
Ando 97
1971 97
geographical 97
debut 97
Edict 97
Koshu 97
Dosan 97
Shoj@@ 97
sol@@ 97
northeast 97
mirrors 97
Keiko 97
pressed 97
hut 97
wrestlers 97
rev@@ 97
syllable 97
Yoshihira 97
continent 97
89 97
Kido 96
reduction 96
dust 96
lineages 96
compiling 96
Azuchi-jo 96
Edo-@@ 96
mountainous 96
prosperous 96
judging 96
calligrapher 96
highway 96
absolute 96
koshi 96
mixing 96
connect 96
十@@ 96
Earthquake 96
exceptional 96
Stone 96
1601 96
anim@@ 96
paulownia 96
raku 96
ium 96
Takashi 96
WA 96
down@@ 96
star@@ 96
gyo@@ 96
oji-dori 96
Gyoki 96
beer 96
glass 96
Kug@@ 96
goal 96
punitive 96
certified 96
writers 96
NAGAO 96
certificate 96
lit@@ 96
Gozoku 96
promised 96
aying 96
reverence 96
stamp 96
sil@@ 96
Yoshinao 96
sions 96
test 96
Fuchu 96
Minato 96
wishes 96
ADACHI 96
Shokoku-ji 96
finger 96
HASHI 96
fat 96
feared 96
deep-fried 96
press 96
signal 96
juro 96
kazoku 96
Ohashi 96
newspapers 96
Koi 95
tional 95
vi@@ 95
preparing 95
ective 95
Between 95
ecting 95
check 95
Taking 95
dialect 95
mud 95
earthquake 95
whereupon 95
turmoil 95
180 95
Kitayama 95
Yuryaku 95
Yoshisuke 95
Famous 95
KIYOHARA 95
ro-@@ 95
Insei 95
shojo 95
shortly 95
Abur@@ 95
MURATA 95
prewar 95
customary 95
Matsue 95
inom@@ 95
Rokuro 95
masu 95
Aki@@ 95
Tamura 95
distinctive 95
just@@ 95
pregnant 95
Production 95
Sada@@ 95
Chikugo 95
ode 95
dro@@ 95
Susano 95
SO 95
bows 95
fifty-@@ 95
ping 95
itai 95
clouds 95
Located 95
barrier 95
boats 95
at-@@ 95
HASHIMOTO 95
counselor 95
Mer@@ 95
yasu 95
Buddhas 95
Iwanami 95
astronomy 95
crops 95
hear 95
reportedly 95
ranging 95
150@@ 95
woven 95
0-@@ 95
agon 95
chan@@ 94
BA@@ 94
dev@@ 94
ft 94
KE@@ 94
aside 94
1977 94
our@@ 94
north-south 94
sa@@ 94
Ryoo 94
Ietsugu 94
Ienobu 94
ensemble 94
aku-in 94
shinko 94
judged 94
adoptive 94
Tomomasa 94
snake 94
ben 94
Keio 94
corporation 94
stat@@ 94
ements 94
reas@@ 94
Taisei 94
Keishi 94
Here 94
civilization 94
chok@@ 94
onwards 94
reigned 94
sem@@ 94
gre@@ 94
0s 94
kanzashi 94
correspond 94
ric@@ 94
ona 94
五@@ 94
dairi 94
starring 94
Yoshitoshi 94
inoge 94
inn 94
safe 94
Paekche 94
multi-@@ 94
yodo 94
second-@@ 94
Akechi 94
Sunpu 94
Kumano-@@ 94
Jod@@ 94
danger 94
initiated 94
ick@@ 94
Hog@@ 94
Seng@@ 93
Kotoku 93
1181 93
Kyo-@@ 93
mem@@ 93
Itsu@@ 93
prov@@ 93
balance 93
NA 93
cour@@ 93
F 93
chome 93
ves 93
bloom 93
manhood 93
illustrations 93
nominal 93
RO 93
grand@@ 93
Sy@@ 93
continuing 93
Bur@@ 93
Daij@@ 93
Kamin@@ 93
Mineyama 93
Dem@@ 93
awa-cho 93
suji 93
NIWA 93
ration 93
patronage 93
fence 93
ci@@ 93
southwest 93
derives 93
Mai@@ 93
cast@@ 93
ichu 93
Sanjo-dori 93
anok@@ 93
aking 93
Kamit@@ 93
yagura 93
settlements 93
Ochi 93
Vow 93
guidance 93
i-dera 93
Kawar@@ 93
commentaries 93
Sahyoe 93
59@@ 93
med 93
idan 93
Flower 93
catch 93
Zhou 93
featured 93
Hisamitsu 93
Ekiben 93
iro 93
IKE@@ 93
Hachimangu 93
sanction 93
Masamori 93
cro@@ 93
tray 93
Utaemon 93
besieged 93
impressed 92
extinct 92
resign 92
Rel@@ 92
essence 92
Ietsuna 92
Hoko-ji 92
igh@@ 92
floating 92
Enchin 92
deposited 92
Sakon 92
Tsurugi 92
privilege 92
bathing 92
Onsen 92
Katsura-gawa 92
Times 92
ton 92
necessity 92
tournament 92
250 92
edly 92
amitsu 92
extant 92
tend 92
ack@@ 92
Kogo 92
distant 92
Toki@@ 92
Harunobu 92
Gokenin 92
Yat@@ 92
are@@ 92
\ 92
nose 92
Masat@@ 92
pur@@ 92
shun@@ 92
favorable 92
二@@ 92
Tanaka 92
Tamuramaro 92
Chug@@ 92
Takatoki 92
adults 92
Iruka 92
tens 92
inland 92
graves 92
mim@@ 92
elderly 92
messengers 92
Yoshihide 92
bureaucrat 92
YAMAUCHI 92
rope 92
autonomy 92
exercise 92
Nanba 92
maker 92
actress 92
Club 92
worried 91
Tsukasa 91
mistake 91
flowing 91
DA@@ 91
southeast 91
kamaboko 91
Maro 91
enjoying 91
Kingdoms 91
shopping 91
una 91
aining 91
goshi 91
Monmu 91
Em@@ 91
Reform 91
Satake 91
ashiki 91
Sand@@ 91
deteriorated 91
washed 91
Built 91
restoring 91
peasant 91
Sanj@@ 91
sliced 91
1961 91
ids 91
Yoshikata 91
Rule 91
ex-@@ 91
dying 91
levels 91
alias 91
Yoshikatsu 91
o-gun 91
freedom 91
eki-@@ 91
Maki 91
measuring 91
gratitude 91
criminals 91
eishi 91
vessels 91
wasabi 91
patron 91
curved 91
Kendo 91
amongst 91
KOBAYAKAWA 91
Ujit@@ 91
1860 91
removing 91
Kanei 91
lif@@ 91
Sanzan 91
Yasumori 91
1575 91
scientific 91
神 91
Shinno 91
steel 91
chronological 91
sub-temple 91
Senke 91
fittings 91
descendent 91
hang@@ 91
kosode 91
dyeing 91
fabrics 91
Particularly 91
Iwashimizu 91
We@@ 90
tastes 90
TOMI@@ 90
conducting 90
extends 90
azana 90
dismissal 90
Tachi@@ 90
okai 90
unchanged 90
Kane@@ 90
Ukai 90
ulated 90
40@@ 90
fox 90
ryoshu 90
ifying 90
latest 90
apped 90
pouring 90
HATA 90
counter 90
a-kyo 90
quantity 90
Corps 90
Ir@@ 90
ier 90
ature 90
Yoshitsuna 90
Tenka 90
Kokaku 90
yog@@ 90
Gozen 90
itomo 90
isai 90
etsu-@@ 90
Stories 90
Uji-@@ 90
salted 90
tors 90
Kazunomiya 90
Takako 90
Shitenno 90
awa-jo 90
mas@@ 90
hojo 90
jinya 90
itama 90
exploits 90
electrified 90
calls 90
meantime 90
okonomiyaki 90
SERIZAWA 90
ved 90
swordplay 90
asan 90
suma 90
peculiar 90
SAKI 90
commoners 90
modified 90
ijo 90
anyone 90
survive 90
dyed 90
beaten 90
knowing 90
earliest 90
drove 90
recover 90
mikoshi 90
Jus@@ 90
HIRATA 90
Movie 90
Usually 90
fifteen 90
Hoke-kyo 90
zhou 90
Doyo 89
Terumoto 89
paint 89
functioned 89
weakened 89
tam@@ 89
dangerous 89
eyori 89
juin 89
auspicious 89
iyoshi 89
iya-@@ 89
kojitsu 89
prove 89
+ 89
afterward 89
Nobutora 89
tion@@ 89
toku 89
Ninmyo 89
Sanet@@ 89
Honshu 89
sharp 89
O-@@ 89
Legend 89
oring 89
markets 89
Son 89
Miwa 89
kaku-@@ 89
Nig@@ 89
Mythology 89
solid 89
Goguryeo 89
smell 89
Statues 89
Ainu 89
0,000 89
everyone 89
och@@ 89
Akit@@ 89
Hiy@@ 89
dowager 89
inserted 89
Azum@@ 89
dawn 89
strange 89
Country 89
ae@@ 89
Taiko 89
boarding 89
pagodas 89
izes 89
troupe 89
careful 89
hood 89
involving 89
etoshi 89
not@@ 89
bime 89
anushi 89
Kiyom@@ 89
addressed 89
MIYAKE 89
Commissioner 89
Daibu 89
usan 89
quiet 89
ven@@ 89
buke 89
Korin 89
participation 89
otherwise 89
antly 89
sixty-@@ 89
adapted 89
gam@@ 89
Kore@@ 89
Tab@@ 89
instructed 89
Shodo 89
Nevertheless 89
Yaku@@ 89
Dr@@ 89
atsuki 89
Soshi 89
consist 89
haikai 89
remarkable 88
allegiance 88
strike 88
Kizugawa 88
田@@ 88
ation@@ 88
Narit@@ 88
sato 88
fr@@ 88
red-@@ 88
NOMIYA 88
KAZANIN 88
ihai 88
zur@@ 88
ised 88
hoshi 88
ikawa 88
ther@@ 88
destination 88
ei-ji 88
monster 88
IV 88
positive 88
Nizaemon 88
benefits 88
seclusion 88
KURA 88
poetic 88
assumption 88
Gregorian 88
120@@ 88
Kuwana 88
hiki 88
commemorate 88
Ver@@ 88
ea 88
lights 88
rice-@@ 88
utsu@@ 88
introduce 88
thirty-one 88
SAEKI 88
attire 88
1179 88
Asomi 88
Industry 88
else 88
Yumiya 88
inn@@ 88
abbreviation 88
igawa 88
osu 88
ihara 88
go-@@ 88
Resigned 88
Michichika 88
Zenji 88
ajima 88
Sadanobu 88
Murashige 88
道@@ 88
1939 88
w 88
chanted 88
acknowledged 88
ese 88
potato 88
dramatic 88
1336 88
Ap@@ 87
exact 87
mus@@ 87
Machi@@ 87
Motohiro 87
directors 87
Takada 87
Mitsut@@ 87
regulated 87
alistic 87
requires 87
Rokujizo 87
lock 87
aming 87
Traditional 87
erate 87
Alliance 87
read@@ 87
maximum 87
shonin 87
Shinsen-gumi 87
grudge 87
Hokusai 87
oracle 87
fond 87
Ryuk@@ 87
Tur@@ 87
Man 87
katsudon 87
Information 87
defend 87
maid 87
resumed 87
Yet 87
matsu 87
ichin@@ 87
Kaya 87
accident 87
Merit 87
86 87
ify 87
Ages 87
banks 87
Myok@@ 87
Japanese-@@ 87
Shinden 87
devised 87
church 87
Mizuno 87
1595 87
Ajari 87
sort 87
koj@@ 87
Spain 87
Bunka 87
temp@@ 87
prostitute 87
trials 87
Kiz@@ 87
cool 87
custody 87
seven-@@ 87
ukyo 87
humans 87
Shobo 87
Nyudo 87
Hanshin 87
shortage 87
pa 87
admired 87
Oyama 87
sashimi 86
dor@@ 86
jishi 86
Ichinotani 86
Tada 86
Yasumaro 86
Next 86
episodes 86
branched 86
ums 86
dam 86
moto 86
Reng@@ 86
occurs 86
Air 86
Ogai 86
fights 86
TODA 86
dating 86
zaki 86
azuke 86
Ichi 86
Ny@@ 86
Taken@@ 86
ayama-jo 86
tsubo 86
Gouda 86
KANSAI 86
KONO 86
real@@ 86
standpoint 86
Beijing 86
mil@@ 86
Maru@@ 86
elders 86
advised 86
glutinous 86
art@@ 86
maiden 86
Teng@@ 86
uga 86
intervention 86
government-@@ 86
人@@ 86
explain 86
fortress 86
Goyozei 86
lower-ranking 86
lucky 86
akusho 86
remote 86
settle 86
steep 86
magic 86
Itagaki 86
AZAI 86
hospital 86
小@@ 86
Toyot@@ 86
上@@ 86
Sei 86
ular 86
th-@@ 86
enti@@ 86
Mizu@@ 86
carefully 86
Hagi 86
Shuri 86
tob@@ 86
eta 86
Kyoho 86
jo-ji 86
Narihira 86
giant 86
ginger 86
Girls 86
Shizuka 86
Michiie 86
Bugyo 85
SHIMIZU 85
beheaded 85
obtaining 85
associate 85
issuance 85
Shinpei 85
entirely 85
jo-in 85
kichi 85
iling 85
hired 85
ishes 85
rid 85
Y 85
pon@@ 85
himemiko 85
Kiyot@@ 85
departing 85
ust@@ 85
umb@@ 85
Hell 85
submit 85
guaranteed 85
1568 85
yang 85
29@@ 85
iled 85
Hayato 85
Narichika 85
Chichibu 85
subway 85
YO 85
anji 85
hi-@@ 85
Gom@@ 85
tonsure 85
Height 85
fue 85
adopting 85
shift 85
finish 85
appealed 85
Wakan 85
More 85
Oi 85
Kage@@ 85
till 85
ENOMOTO 85
Mod@@ 85
pping 85
union 85
practicing 85
aristocratic 85
invade 85
firm 85
melody 85
om 85
lining 85
Riku@@ 85
sculptor 85
yoin 85
Yamatai 85
Conspiracy 85
1983 85
historian 85
ides 85
prospered 85
Mand@@ 85
Mountains 85
1982 85
aisha 85
considerably 84
Tomiko 84
disembowelment 84
ested 84
emune 84
kuji 84
Yodo-dono 84
beach 84
bereaved 84
organizing 84
sesame 84
fo@@ 84
ARAI 84
Tenno@@ 84
rival 84
Address 84
lodging 84
appreciation 84
Nishikyo 84
protest 84
asak@@ 84
regency 84
forty 84
Yamad@@ 84
bone 84
Naot@@ 84
Fukuyama 84
umon@@ 84
Tadahira 84
mi@@ 84
mats 84
Gohojo 84
handwriting 84
reduce 84
o-kyo 84
Azechi 84
Suzuki 84
double-@@ 84
TAKASHINA 84
Toshinari 84
benefit 84
essay 84
checking 84
literati 84
surprise 84
yot@@ 84
Tokai-do 84
identical 84
bai@@ 84
Heisei 84
Hokan 84
KUTSUKI 84
Ji 84
Sanda 84
diseases 84
Masa@@ 84
tended 84
ono@@ 84
Kanjo 84
begins 84
Atago 84
cook 84
1570 84
direc@@ 84
factions 84
ually 84
nom@@ 84
emaki 84
Joyo 84
Koz@@ 84
akata 84
Rev@@ 84
resembles 84
Jis@@ 84
imitsu 84
ebi 84
debt 84
Kikuchi 84
combining 84
secrets 84
forefather 84
1917 84
1598 84
cutlet 84
Sup@@ 84
compromise 84
Haniwa 84
comment 84
oten 84
Taisuke 84
run@@ 84
sin 84
eels 84
monarch 84
quarter 84
oseki 84
transcribed 84
rat@@ 84
Eik@@ 84
KITA 84
hotel 84
UE@@ 84
matsu@@ 84
inauguration 83
Juro 83
Chushingura 83
yaku@@ 83
sam@@ 83
TADA 83
longevity 83
enabled 83
simultaneously 83
monetary 83
intentionally 83
races 83
Basically 83
amed 83
sophisticated 83
Sadak@@ 83
reappointed 83
desired 83
iation 83
1938 83
1958 83
ll@@ 83
reinforced 83
der@@ 83
notation 83
ous@@ 83
processing 83
tablet 83
burn 83
palanquin 83
northwest 83
Hand@@ 83
Umeda 83
Honden 83
Hoshi 83
Articles 83
great-@@ 83
Tenmei 83
artificial 83
coastal 83
Shoichii 83
YAMAZAKI 83
vehicle 83
ects 83
feet 83
ails 83
kaisho 83
kaisan 83
Kizokuin 83
amochi 83
descent 83
stance 83
planting 83
theaters 83
Oban 83
bukuro 83
inosuke 83
implies 83
Privy 83
ten-@@ 83
useful 83
Tadakuni 83
soci@@ 83
ert 83
Yoritada 83
nob@@ 83
ack 83
shiso 83
regards 83
wrapping 83
KOBAYASHI 83
inaga 83
Neo-Confucianism 83
1467 83
omori 83
long@@ 83
Love 83
ikai 83
hang 83
ordering 83
Mitsum@@ 83
1614 83
Within 83
Publishing 83
子@@ 83
eie 83
moral 83
shon@@ 83
mirin 83
fit 82
dogs 82
Sanada 82
fellow 82
lied 82
Daijin 82
rows 82
sheets 82
cow 82
Taruhito 82
reassigned 82
vast 82
manga 82
ographic 82
NU@@ 82
ningyo 82
accumulated 82
ashigaru 82
mori 82
isada 82
Daik@@ 82
Gods 82
historians 82
bill 82
u-jo 82
originating 82
Hoku@@ 82
Shur@@ 82
drying 82
Food 82
realize 82
tro@@ 82
fame 82
Ise-@@ 82
okushi 82
Seika 82
chancellor 82
representatives 82
igen 82
syn@@ 82
reclamation 82
kab@@ 82
foot@@ 82
equally 82
Instead 82
rewards 82
azo 82
wheel 82
Tokuko 82
MOTOORI 82
Matsumoto 82
中@@ 82
Tennoji 82
waves 82
roku-@@ 82
bing 82
accounts 82
busy 82
Toba-Fushimi 82
iryo 82
summoned 82
clerical 82
Koto@@ 82
pet@@ 82
ls 82
fusuma 82
Minoru 82
zu-@@ 82
Ser@@ 82
Gleanings 82
commissioned 82
Tsukigase 82
bright 82
engineering 82
Car@@ 82
ekuni 82
Suma 82
uprisings 82
Prefectures 82
本@@ 82
azu-@@ 82
wears 82
timber 82
gable 82
strengthening 82
external 82
organize 82
haya 82
Elders 82
wash 82
Jaku@@ 82
brewery 81
kers 81
Koriyama 81
produces 81
Ritsu 81
Thanks 81
Organization 81
grandmother 81
zodiac 81
Sumo 81
brother-in-law 81
Soba 81
義@@ 81
memory 81
ges 81
Considering 81
machi@@ 81
reception 81
Montoku 81
by@@ 81
Seis@@ 81
NDL 81
Men 81
Japan-@@ 81
Okur@@ 81
monuments 81
し@@ 81
Classics 81
ryu@@ 81
Sapporo 81
ubo 81
awase 81
Nishi-Maizuru 81
sponsored 81
Trains 81
stepped 81
saku 81
8.@@ 81
Koko 81
Asuk@@ 81
first-@@ 81
Staff 81
Koretada 81
throw 81
Matsui 81
squar@@ 81
ols 81
人 81
fre@@ 81
plane 81
polishing 81
Honmaru 81
lets 81
ular@@ 81
Loop 81
spl@@ 81
En 81
Okina 81
Ris@@ 81
Constitutional 81
Kokura 81
donations 81
confinement 81
vertical 81
Kennyo 81
gentle 81
candy 81
fingers 81
task 81
spar@@ 81
middle-@@ 81
clique 81
cut@@ 81
Freight 81
AMATSU 81
Oishi 81
suru 81
choose 81
Amen@@ 81
aren 81
asting 81
thread 81
after@@ 81
acquire 81
crimes 81
origami 81
priority 81
Nyogo 81
pre-@@ 81
nation@@ 81
institute 81
Name 81
Sotoku-fu 81
ino@@ 81
epic 81
ris@@ 81
HIRA@@ 80
fud@@ 80
hero 80
UCHI 80
prose 80
OKA@@ 80
gumi 80
accurate 80
myoden 80
any@@ 80
red-light 80
Technical 80
Gun 80
full-@@ 80
Kodama 80
regained 80
RAI 80
reconciliation 80
layered 80
Health 80
bai 80
discussions 80
Regional 80
pri@@ 80
cou@@ 80
contemp@@ 80
myths 80
questioned 80
surroundings 80
superintendent 80
Nakan@@ 80
clerk 80
threat 80
P 80
SAKA 80
saku@@ 80
katsu 80
Shoshidai 80
graduation 80
ji-cho 80
abolishment 80
Soji 80
transmission 80
righ@@ 80
secured 80
borrowed 80
yon@@ 80
severed 80
Finally 80
kebiishi 80
Kojiro 80
Kon-do 80
coated 80
Uhyoe 80
precious 80
Benkan 80
roe 80
Sato 80
nobody 80
Uji@@ 80
fol@@ 80
tons 80
usan@@ 80
Kazumasa 80
risk 80
glue 80
samurais 80
regularly 80
mom@@ 80
mobilized 80
Chosen 80
Otsugu 80
stringed 80
airi 80
cru@@ 79
Yoshim@@ 79
u-ji 79
Kuniyoshi 79
wor@@ 79
Sonpi 79
numbered 79
gashira 79
Ujitsuna 79
amichi 79
ord@@ 79
termin@@ 79
Ran 79
87 79
fron@@ 79
revered 79
watching 79
betrayal 79
ensho 79
lec@@ 79
lit. 79
ot 79
abolish 79
troubles 79
forged 79
thoroughly 79
smooth 79
expel 79
gunji 79
zed 79
hear@@ 79
Sai 79
Cherry 79
SHIMO@@ 79
cit@@ 79
allotted 79
Moon 79
ems 79
katsu@@ 79
Amity 79
attending 79
accepting 79
atari 79
Hamamatsu 79
Kuw@@ 79
Ninigi 79
ake-@@ 79
tends 79
observation 79
graduates 79
League 79
cultures 79
Chogen 79
Norizane 79
Hozonkai 79
baked 79
1962 79
Yukiie 79
waist 79
revive 79
wal@@ 79
knot 79
sankyoku 79
ocean 79
Junnin 79
hair@@ 79
rolled 79
pped 79
auchi 79
Kiso 79
Umayado 79
Nod@@ 79
generic 79
Sanmon 79
illegal 79
rulers 79
uan 79
FUKUZAWA 79
nishiki 79
aeshi 79
kiln 79
Tayu 79
Hakuseki 79
Nasu 79
SAKUMA 79
Queen 79
landed 79
aido 79
Hirano 79
rail 79
magazines 79
solely 79
hajime 79
itaka 79
YAMAGUCHI 79
Jitsuroku 79
ey 79
ga-@@ 78
ISBN 78
Bunmyaku 78
swordsmanship 78
defensive 78
Tsukuba 78
Oden 78
specter 78
has@@ 78
employees 78
Akiie 78
月@@ 78
ensure 78
exceptions 78
oneself 78
Iwat@@ 78
Yog@@ 78
TODO 78
Kaishu 78
hyo 78
uy@@ 78
25th 78
Kajuji 78
Makoto 78
dokoro 78
kn@@ 78
depends 78
asts 78
Or 78
wartime 78
integration 78
sof@@ 78
significance 78
ichig@@ 78
carries 78
Domains 78
grav@@ 78
Mii-dera 78
tu@@ 78
OGIMACHISANJO 78
Amatsu@@ 78
papers 78
Fuji@@ 78
extreme 78
Tadakatsu 78
Shum@@ 78
ezumi 78
lying 78
Ikai 78
Motochika 78
strips 78
fictional 78
orig@@ 78
MATSUO 78
ikata 78
chased 78
Sem@@ 78
atake 78
Sakai@@ 78
Tadayuki 78
firmly 78
immigrants 78
responded 78
ax@@ 78
Takanobu 78
Yonezawa 78
stuck 78
Yamatoji 78
patri@@ 78
tor 78
skirt 78
Jesus 78
ining 78
torinoko 78
kaz@@ 78
Nori@@ 78
zation 78
Q@@ 78
traces 78
suggesting 78
kuninomiyatsuko 78
demon 78
midnight 78
阿@@ 78
oath 77
aiki 77
amon 77
eliminate 77
leg@@ 77
God@@ 77
concubines 77
banashi 77
replied 77
commander-in-chief 77
Hyakki 77
phase 77
decisions 77
vegetable 77
TEI 77
nen 77
Zai@@ 77
expelling 77
tenno 77
ishim@@ 77
users 77
protective 77
shorter 77
ric 77
differently 77
quit 77
Mongolian 77
Naramaro 77
empty 77
ku-@@ 77
ns 77
dil@@ 77
Bando 77
restrictions 77
Nari@@ 77
Kasuga-taisha 77
competed 77
Zuryo 77
forgiven 77
tsuki 77
sports 77
Hoshu 77
amono 77
legitimacy 77
Yamamoto 77
OKAMOTO 77
Igo 77
identify 77
Ujiyasu 77
Norit@@ 77
drinks 77
furious 77
ational 77
Kashiwagi 77
extend 77
Economics 77
sho-in 77
Chig@@ 77
menu 77
grandchildren 77
Nagatoshi 77
ster 77
expressing 77
guild 77
Chancellor 77
puts 77
Takaakira 77
divorced 77
qualified 77
sarugaku 77
1584 77
shoshi 77
Suke@@ 77
Uji-gawa 77
unstable 77
standards 77
extensive 77
tasks 77
Kabane 77
Chun@@ 77
ethnic 77
jug@@ 77
best@@ 77
RU@@ 77
hin 77
Program 77
candidates 77
full-scale 77
Fu 77
Fukuhara 77
moves 77
relied 77
brings 77
ries 77
Tsu 77
recovery 77
publicly 77
Sekke 77
uro-@@ 77
incorporating 77
e-shaped 77
ogawa 77
Sab@@ 77
Shinpachi 77
exemption 77
ango 77
shir@@ 77
Dor@@ 77
ugaku 76
Takatsune 76
Hajime 76
fate 76
Late 76
stor@@ 76
yoriai 76
prevented 76
bit@@ 76
imaro 76
bay 76
Munetaka 76
Arit@@ 76
Takahashi 76
mur@@ 76
headman 76
mill@@ 76
Hokke-kyo 76
gorgeous 76
Je@@ 76
alists 76
Sandai 76
Religious 76
dayu 76
Miyafuku 76
Ning@@ 76
Zenshu 76
suki 76
Shinp@@ 76
eligible 76
Masanaga 76
leg 76
soybean 76
≒ 76
geigi 76
Goh@@ 76
or-@@ 76
Motot@@ 76
advancing 76
format 76
iguchi 76
1916 76
bottle 76
shot@@ 76
portions 76
stars 76
convenient 76
Gion-@@ 76
slices 76
locomotive 76
Yoshikazu 76
anosuke 76
flu@@ 76
Rusu@@ 76
Regulations 76
past@@ 76
auxiliary 76
1586 76
customer 76
sixteenth 76
cross@@ 76
Harut@@ 76
1.8 76
comprehensive 76
1200 76
Kobu 76
discipline 76
TSUJI 76
danjiri 76
appe@@ 76
enari 76
mistress 76
refuge 76
Kaneyoshi 76
に@@ 76
Hachiro 76
Rep@@ 76
Shosoin 76
bigger 76
NISHI 76
Tenkai 76
pickles 76
BO@@ 76
Dream 76
Remains 76
accompany 76
mai@@ 76
ner 76
Starting 76
mun@@ 76
lim@@ 76
Sannomiya 76
demands 76
Jimyoin 76
usable 76
Jon@@ 76
wan 76
Joh@@ 76
Hidesato 76
Fujitsubo 76
edicts 76
Masatsune 76
valley 76
supplies 75
coun@@ 75
Conquest 75
striking 75
registers 75
empresses 75
iness 75
credit 75
GAMO 75
Koka 75
sar@@ 75
Eig@@ 75
Onmyoji 75
delicate 75
Karasuma-dori 75
smoothly 75
eliminated 75
symbolic 75
SAN@@ 75
Shon@@ 75
ky 75
shan 75
butsu-@@ 75
bir@@ 75
cross-@@ 75
bridges 75
ied 75
plotted 75
eternal 75
tori 75
stem 75
ands 75
trac@@ 75
sok@@ 75
Gukansho 75
uted 75
AMA 75
gas 75
glory 75
serv@@ 75
iza 75
Gensho 75
juk@@ 75
provoked 75
103 75
Kiyohara 75
Chion-in 75
TOMO 75
bunko 75
emochi 75
imo 75
Winter 75
Tsum@@ 75
Hidemasa 75
residing 75
inori 75
pass@@ 75
yujo 75
oning 75
100,000 75
itting 75
mal 75
Matsun@@ 75
sn@@ 75
Jogan 75
carriage 75
enori 75
ikuni 75
odd 75
batt@@ 75
subjugate 75
cos@@ 75
Tomomori 75
MORI@@ 75
lover 75
1587 75
utei 75
yuan 75
Buke 75
Welfare 75
layers 75
Meishin 75
variations 75
HIGASHI@@ 75
ows 75
Yukinari 75
masks 75
oting 75
Joko 75
zone 75
pick 75
repaired 75
Kogen 75
column 75
year-old 75
ices 75
ono-@@ 75
ented 75
Takafusa 75
Paintings 75
bar 75
Hachijo 75
somewhat 74
Kazu@@ 74
stopping 74
Matsu 74
itted 74
capable 74
usion 74
aides 74
Kanin 74
DOI 74
tries 74
asceticism 74
Shitenno-ji 74
iate 74
engraving 74
Ori@@ 74
iced 74
session 74
dam@@ 74
1159 74
A.D. 74
zei 74
outline 74
isan 74
crafts 74
consolidated 74
Small 74
pp@@ 74
parking 74
betrayed 74
Koreyoshi 74
Dar@@ 74
Oyamazaki 74
Fri@@ 74
KOSE 74
Kamo-jinja 74
obey 74
tokonoma 74
Sciences 74
Kaidan 74
res 74
rescue 74
IZUMI 74
Motofusa 74
isolated 74
Kitak@@ 74
Hirata 74
Takanori 74
Kyor@@ 74
expl@@ 74
kod@@ 74
aves 74
sash 74
indigenous 74
Nakatsukasa 74
bal@@ 74
nu@@ 74
fold 74
Yasuko 74
asuke 74
resort 74
May@@ 74
achin@@ 74
pursue 74
ication 74
stal@@ 74
scheme 74
Yoshiki 74
pul@@ 74
PA@@ 74
speak 74
talks 74
aka-@@ 74
Yo 74
stand@@ 74
bumi 74
Kimono 74
compete 74
amaru 74
1583 74
strip 74
squ@@ 74
Blue 74
alcoholic 74
Shirak@@ 74
1177 74
Yoshikiyo 74
ography 74
Nakamura 74
artifacts 74
defeating 74
Kusakabe 74
Col@@ 74
nar@@ 74
export 74
Nagaya 74
ITAGAKI 74
Buildings 74
Takao 74
1160 74
Chu 74
omai 74
Thir@@ 74
Okagami 74
Iro@@ 74
Yatsu@@ 74
relics 74
ly@@ 74
Light 74
arguments 74
Kana 74
ryu-@@ 74
driver 74
rebelled 74
Shigeru 74
hosted 74
1580 74
ally-@@ 74
bitter 73
KONISHI 73
increases 73
sts 73
Big 73
Mother 73
Tokit@@ 73
naked 73
yuk@@ 73
Norito 73
ament 73
OGAWA 73
Jiz@@ 73
kan-@@ 73
Hen 73
concentration 73
applying 73
Taoism 73
mato 73
Shigeyoshi 73
KAI@@ 73
leap 73
Sadafusa 73
kanjin 73
collateral 73
Kobun@@ 73
-up 73
HANA@@ 73
agencies 73
jime 73
Prior 73
defended 73
Yasum@@ 73
jam 73
multi@@ 73
Iwao 73
ank@@ 73
dead@@ 73
myo-@@ 73
spend 73
ach 73
Approximately 73
Makibi 73
masterpieces 73
conservative 73
han-@@ 73
Ichikawa 73
a-ryu 73
Shob@@ 73
warehouses 73
Compared 73
relevant 73
Yashima 73
SHU@@ 73
bases 73
Say@@ 73
cat@@ 73
postwar 73
amag@@ 73
Ennin 73
oguchi 73
Newspaper 73
kud@@ 73
Kasug@@ 73
inspired 73
genuine 73
tsuji 73
ushima 73
marine 73
gunnery 73
kis@@ 73
Ippen 73
siblings 73
gri@@ 73
kanmon 73
平@@ 73
Chikafusa 73
Silver 73
Morit@@ 73
assembled 73
declining 73
1603 73
asp@@ 73
tayu 73
Ou 73
intervals 73
Kogyo 73
Nao@@ 73
Kyobashi 73
kagami 73
forcing 73
Setsu@@ 73
Designated 73
graduate 73
Nagahide 73
Bishamonten 73
KAJIWARA 73
accommodate 73
wood@@ 73
Kami@@ 73
old-@@ 73
Aik@@ 73
Forestry 73
wh@@ 73
oration 73
repose 73
Passenger 73
emitsu 73
野@@ 73
vari@@ 73
asaki-@@ 73
requests 73
collar 73
seldom 73
長@@ 73
sojo 73
textbooks 73
umaru 73
missions 73
Zh@@ 73
notable 72
Arima 72
Yuki@@ 72
SEKI 72
depict 72
ads 72
oppose 72
Motozane 72
posture 72
book@@ 72
Shoji 72
ease 72
akai 72
ured 72
expeditionary 72
mikan 72
ZUKA 72
WARA 72
Oto 72
single-@@ 72
soybeans 72
march 72
Gei@@ 72
josho 72
Tadatsugu 72
feast 72
39@@ 72
Shar@@ 72
koen 72
essentially 72
engo 72
Mir@@ 72
Wh@@ 72
corresponded 72
Dairi 72
acks 72
ners 72
HATTORI 72
Baron 72
Immediately 72
1599 72
credibility 72
omoto 72
alongside 72
masterpiece 72
domin@@ 72
riots 72
hatsu@@ 72
Commission 72
Miyuki 72
Black 72
Karas@@ 72
1859 72
lev@@ 72
urged 72
AMAGO 72
Okin@@ 72
konbu 72
amounts 72
uto 72
Kanno 72
Hi 72
Gamo 72
regain 72
agat@@ 72
taxis 72
o-ryu 72
sector 72
EN 72
comrades 72
hama 72
high-quality 72
Adachi 72
ica 72
KAWAKAMI 72
chugu 72
mining 72
Stop 72
eighteen 72
ians 72
sole 72
agree 72
Yotsu@@ 72
Tendai-zasu 72
Sadatoki 72
bit 72
Daimyojin 72
MITSU@@ 72
Men@@ 72
Nine 72
Tokiw@@ 72
DAI@@ 72
24th 72
essions 72
Gakushuin 72
Vietnam 72
Tenryu-ji 72
pun@@ 72
Shuho 72
Gango-ji 72
presenting 72
Ohar@@ 72
cat 72
tourism 72
diver@@ 72
precedent 72
Kato 72
asu-@@ 72
budo 72
stall 72
grades 72
Complete 71
existent 71
combat 71
scripts 71
sang@@ 71
Yamashi@@ 71
agon@@ 71
Names 71
umbrella 71
agashi 71
Hannya 71
Hirotsugu 71
egawa 71
fic@@ 71
binding 71
Kusatsu 71
Senshi 71
advancement 71
Shimizu 71
Kokuzo 71
insisting 71
shoshidai 71
welcome 71
concern 71
onomiya 71
modern-day 71
IN 71
threads 71
ba@@ 71
fun 71
Shijo-dori 71
Kiri@@ 71
Seppuku 71
bureaucracy 71
asada 71
ender 71
saka 71
dialogue 71
depot 71
Nobumori 71
ogyo 71
processes 71
Tenguto 71
20-@@ 71
hundreds 71
potatoes 71
chopped 71
momentum 71
akes 71
manufacture 71
Ek@@ 71
organ 71
Ishiyama-dera 71
thesis 71
Mercy 71
Sanetomi 71
国 71
dissolution 71
White 71
Seig@@ 71
summary 71
jit@@ 71
enao 71
obu@@ 71
Rights 71
parliamentary 71
shug@@ 71
sculptures 71
languages 71
em 71
yakata 71
bom@@ 71
Sadamasa 71
walked 71
flows 71
Management 71
anag@@ 71
ible 71
Taiseki-ji 71
Shuten 71
allocated 71
Night 71
LE@@ 71
ich 71
Together 71
-type 71
ar-@@ 71
Takeo 71
inin 71
enka 71
pole 71
Kashiw@@ 71
dug 71
demonstration 71
cam@@ 71
1848 71
ass 71
models 71
hib@@ 71
Waseda 71
Hyobusho 71
rain@@ 71
lad@@ 71
Temp@@ 71
winner 71
Michit@@ 71
bs 71
third-ranked 71
Jur@@ 71
Nobumasa 71
themes 71
Omura 71
Bunroku 71
Jisho 71
AMURA 71
Tsukuyomi 71
Kitaoji 71
determine 71
Portuguese 71
Nu@@ 71
KURA@@ 71
Unkei 71
bori 71
iuchi 71
Representative 70
lacked 70
Drama 70
Takayama 70
celebrating 70
encountered 70
inqu@@ 70
Takumi 70
noticed 70
fro@@ 70
Juk@@ 70
Kadokawa 70
Depending 70
Ba@@ 70
hal@@ 70
Ikedaya 70
educated 70
compile 70
travelers 70
ces 70
Ono-@@ 70
resses 70
racing 70
emi 70
Urasenke 70
Shinko 70
Not@@ 70
oy 70
isolation 70
Shijo-@@ 70
vertically 70
sixteen 70
rot@@ 70
calculated 70
inscriptions 70
stole 70
tre@@ 70
jodo 70
1854 70
boxes 70
interesting 70
rical 70
comments 70
tributes 70
Maruyama 70
edges 70
preparatory 70
personally 70
Mahito 70
maps 70
i-gawa 70
hell 70
warlords 70
Saw@@ 70
aled 70
Progressive 70
Roshi 70
1842 70
Goi 70
Gar@@ 70
Tadateru 70
ARIMA 70
Sorin 70
miniature 70
tax@@ 70
4,@@ 70
Report 70
を@@ 70
fired 70
phon@@ 70
Nagayasu 70
Lines 70
izu-@@ 70
usho 70
sleep 70
great-grandchild 70
Samurai-dokoro 70
shugodai 70
Painting 70
GAMI 70
joi 70
Uta 70
Quarters 70
miz@@ 70
phrases 70
window 70
多@@ 70
crests 70
Hu@@ 70
substance 70
ien 70
Nagara 70
kaiki 70
curtain 70
profits 70
Sanmi 70
reserv@@ 70
azuk@@ 70
quick 70
Shinjuku 69
topography 69
privatization 69
ghosts 69
expense 69
Dento 69
Except 69
ichim@@ 69
Toa 69
Ruins 69
ater 69
brilliant 69
assist 69
GI@@ 69
tru@@ 69
fragrance 69
medi@@ 69
OKADA 69
liquid 69
Takamasa 69
SATAKE 69
dog@@ 69
hermitage 69
kemari 69
monthly 69
new@@ 69
Tori 69
accomplishments 69
borders 69
discuss 69
device 69
Classic 69
worsened 69
waited 69
akawa 69
Gl@@ 69
公@@ 69
Tachi 69
iously 69
resisted 69
commuter 69
agata 69
confectionery 69
Rit@@ 69
funerals 69
scar@@ 69
ifu 69
pon 69
posted 69
aw 69
NAKAJIMA 69
amai 69
Rikken 69
Union 69
reply 69
Chos@@ 69
Kegon 69
warlord 69
Tadachika 69
nobleman 69
washing 69
Hitomaro 69
ette 69
Mission 69
promise 69
manzai 69
carving 69
uma-@@ 69
Tomb 69
Tadanobu 69
measured 69
liqu@@ 69
KE 69
149@@ 69
dig@@ 69
sangi 69
安@@ 69
Kawasaki 69
Seiga 69
Senji 69
Sadayoshi 69
listen 69
10-@@ 69
Shintaro 69
withdraw 69
Shus@@ 69
beg@@ 69
mentor 69
corridor 69
comics 69
hokan 69
KATAGIRI 69
NAGA 69
niece 69
akami 69
rhythm 69
Genmei 69
surveys 69
demonstrated 69
associations 69
brief 69
boku 69
yi 69
Inc@@ 69
a-go 69
yoriki 69
q@@ 69
occupying 68
Jid@@ 68
mage 68
Genpaku 68
co-@@ 68
Tadakiyo 68
1843 68
tune 68
kake 68
deliver 68
Mototada 68
Hashiba 68
Odori 68
Chokusen 68
Yasunori 68
offers 68
dispatching 68
entation 68
marched 68
heritage 68
grated 68
山 68
strategic 68
皇@@ 68
asks 68
shintai 68
Ogimachi 68
Nakayama 68
aving 68
Kennin-ji 68
prevailing 68
Itami 68
rak@@ 68
musician 68
tered 68
miy@@ 68
lecturer 68
Kanjin 68
kie 68
Ruiju 68
flesh 68
traced 68
Geng@@ 68
1857 68
Honmon 68
Place 68
misasagi 68
Kushi@@ 68
Green 68
Wor@@ 68
motif 68
o-machi 68
aharu 68
Jugoi 68
Murakami-Genji 68
subdue 68
Masanari 68
Business 68
Yasaka-jinja 68
novelist 68
rounded 68
cylindrical 68
Silk 68
oval 68
ibu 68
jud@@ 68
town@@ 68
iyaku 68
Naito 68
Kagura 68
ken-@@ 68
fication 68
archaeological 68
Residence 68
annually 68
monin 68
ention 68
shite-kata 68
1190 68
常@@ 68
ley 68
distinct 68
Became 68
Takamanohara 68
edi@@ 68
uya 68
ve@@ 68
trunk 68
Nobuyuki 68
bark 68
amo 68
3000 68
Eleven-faced 68
BO 68
Similar 68
properly 68
Shozan 68
Mitsumasa 68
Store 68
lat@@ 68
Tsurayuki 68
u-no-@@ 68
allies 68
itional 68
Hamaotsu 68
municipalities 68
tozama 68
finishing 68
Tenman-gu 68
Teimei 68
steaming 68
い@@ 68
Taiga 68
Iratsume 68
etsune 68
land-tax 68
daimyos 68
Murata 68
calculation 68
MATSU 68
choku 68
stretched 68
dancers 68
recording 68
retire 68
kurodo 68
1602 68
Akasaka 68
la@@ 68
Nobuhiro 68
ARIWARA 68
Manor 68
sit 68
observ@@ 68
ders 68
pe 68
Shaku@@ 68
Front 68
insist 68
kiri@@ 68
Jien 68
ins@@ 68
transferring 67
ZU 67
Motoharu 67
maiko 67
ubu 67
Fujin@@ 67
Against 67
Nobut@@ 67
Mitsunaka 67
television 67
appointments 67
Codes 67
etoki 67
insei 67
Ganjiro 67
Commander-in-Chief 67
efu 67
violation 67
Educational 67
Kogyoku 67
minting 67
cu@@ 67
1189 67
escaping 67
week 67
oge 67
nearest 67
mackerel 67
recipe 67
lightly 67
satisfied 67
Details 67
overthrown 67
ock 67
otes 67
alcove 67
Nog@@ 67
50@@ 67
barrel 67
examinations 67
my@@ 67
Bunjin 67
assassinate 67
hated 67
Jish@@ 67
top@@ 67
Raku@@ 67
shortened 67
eas@@ 67
Mich@@ 67
Repairs 67
cope 67
wave 67
select 67
Ippon 67
Ses@@ 67
swe@@ 67
ros@@ 67
HARADA 67
med@@ 67
Sanpo 67
jing@@ 67
Suinin 67
mid-Edo 67
CO@@ 67
Satsu@@ 67
observe 67
Sent@@ 67
Omuro 67
Kuj@@ 67
fudoki 67
王@@ 67
ever@@ 67
Taked@@ 67
authors 67
Miki 67
shino 67
akus@@ 67
Vocational 67
Father 67
usu 67
Nakamikado 67
Chairman 67
Twenty-@@ 67
conveyed 67
omen 67
load 67
Watanabe 67
MATSUI 67
Hongwan-ji 67
emergence 67
Yoshikuni 67
Gagaku 67
Shigemasa 67
Sasayama 67
Nobuyasu 67
Toyok@@ 67
lists 67
butsudan 67
eff@@ 67
Deities 67
hachi@@ 67
replace 67
Takahito 67
Sujin 67
dumplings 67
Sakhalin 67
jor@@ 67
Shinagawa 67
bells 67
coinc@@ 67
enobu 67
heating 67
release 67
kuro@@ 67
etsugu 67
makers 67
shiro@@ 67
blood@@ 67
implementation 67
wrestling 67
ca@@ 67
Taoist 67
Naniw@@ 67
preventing 67
intensified 67
Kori 67
amur@@ 67
discovery 67
pledge 66
ected 66
osha 66
intentions 66
exchanges 66
protein 66
vinegared 66
ur 66
Govern@@ 66
ues 66
DE@@ 66
seasonings 66
swimming 66
ezane 66
ber@@ 66
ories 66
supporter 66
Shimosa 66
ordinances 66
764 66
Wu 66
TAKEUCHI 66
ern 66
storehouse 66
Trade 66
bags 66
Yoshizane 66
Maibara 66
Kiyomaro 66
asserted 66
roshi 66
737 66
Hidenaga 66
Nihon-@@ 66
ops 66
participating 66
whereabouts 66
continuation 66
Chinzei 66
Konan 66
London 66
recited 66
reciting 66
Daian-ji 66
Shunkan 66
elite 66
ram@@ 66
Jinmyocho 66
Osho 66
sum 66
KUKI 66
cot@@ 66
Hyobukyo 66
prevention 66
Bes@@ 66
attendance 66
abashi 66
chigo 66
erial 66
Koremori 66
Kami-@@ 66
fus@@ 66
Katamori 66
Philosophy 66
Toshiaki 66
koki 66
nojo 66
6,000 66
Juntoku 66
som@@ 66
thickness 66
ogami 66
ocho 66
omachi 66
exhibitions 66
ison 66
terminated 66
Arisugawa 66
Kenshi 66
1990s 66
ash@@ 66
missionaries 66
monastery 66
wako 66
atta 66
Miyatsuko 66
dividing 66
bed@@ 66
fu-@@ 66
Ieyoshi 66
obe@@ 66
desires 66
emphasize 66
hana 66
hos@@ 66
famine 66
OINOMIKADO 66
Outline 66
Eventually 66
continuous 66
replacement 66
Saidai-ji 66
Yukio 66
Ashihara 66
yose 66
anao 66
Greater 66
magnificent 66
debts 66
premise 66
ana-@@ 66
1578 66
文@@ 66
Juro@@ 66
bread 66
tabi 66
Kinto 66
fif@@ 66
seishu 66
Shimog@@ 66
sculpture 66
lute 66
Hyobu 66
kon 66
strife 66
Masamichi 66
oroku 66
vacant 66
cent@@ 66
sozu 66
Gisho 66
invite 66
rent 66
Mah@@ 66
banishment 66
Soen 66
Da@@ 66
fast@@ 66
tsuho 66
atai 65
Sui@@ 65
mol@@ 65
meritorious 65
depended 65
preceding 65
ac 65
reins 65
slow 65
rist@@ 65
SU 65
castellan 65
ambassador 65
phenomena 65
outbreak 65
fruits 65
flight 65
Oribe 65
Zoku 65
orange 65
improving 65
atsugu 65
flat@@ 65
iding 65
kazari 65
SHIMADA 65
pop@@ 65
Shoren-in 65
1853 65
Sama 65
firearms 65
unprecedented 65
eight-@@ 65
Tsunemoto 65
sli@@ 65
pages 65
opportunities 65
longest 65
Kinmon 65
ai-cho 65
Part 65
Aso 65
Bunsei 65
Mitsui 65
Gakuen 65
Todo 65
Families 65
Noritsune 65
smallpox 65
pollution 65
composer 65
kotai@@ 65
kg 65
MATSUKATA 65
zenji 65
sup@@ 65
controversy 65
ME 65
Hiroko 65
underwear 65
invitation 65
toro 65
autonomous 65
Design 65
806 65
arti@@ 65
Kenji 65
tives 65
Toshit@@ 65
devastated 65
ornamental 65
ided 65
mold 65
hectares 65
Masaharu 65
不@@ 65
element 65
Campaign 65
drawings 65
unity 65
variation 65
grap@@ 65
opponents 65
anz@@ 65
public@@ 65
focusing 65
granting 65
solution 65
weekdays 65
lawsuits 65
Namu 65
Togo 65
oban@@ 65
climbed 65
Sennyu-ji 65
san-@@ 65
Nagashima 65
AM@@ 65
Yorifusa 65
Seated 65
Kait@@ 65
bug@@ 65
plastic 65
ere@@ 65
FUKUSHIMA 65
ascend 65
Soh 65
aho 65
civilian 65
aijin 65
suffer 65
XX 65
1591 65
Tokiwa 65
Hidenobu 64
Fukuzawa 64
yeasts 64
Sut@@ 64
shoens 64
misfortune 64
ancy 64
zake 64
copying 64
gent 64
ek 64
pedigree 64
differed 64
overall 64
Background 64
villagers 64
Kokujin 64
ekage 64
fly 64
analysis 64
arily 64
aked 64
travelled 64
itsuna 64
lanes 64
iyama-@@ 64
1338 64
tsum@@ 64
withdrawal 64
lic@@ 64
eba 64
zum@@ 64
kori 64
treat 64
expanding 64
Takasaki 64
Hiroshige 64
aman@@ 64
Chang@@ 64
sin@@ 64
'm 64
iwara 64
Natural 64
Deity 64
secluded 64
confirm 64
Exit 64
authored 64
sixty 64
NABESHIMA 64
components 64
Bidatsu 64
entertaining 64
yard 64
capturing 64
IMAI 64
Bitchu 64
aie 64
Ginza 64
reformed 64
allows 64
Yodoyabashi 64
earth@@ 64
Pass@@ 64
Gomurakami 64
Kyotango 64
ide@@ 64
Er@@ 64
ryokan 64
disorder 64
healthy 64
Collected 64
eaves 64
smoke 64
acquainted 64
Serizawa 64
nyobo 64
floors 64
dramatically 64
jewel 64
NAN@@ 64
vanguard 64
billion 64
Judging 64
ondo 64
yn@@ 64
doctrines 64
Taito 64
esses 64
Young 64
etake 64
Xavier 64
Us@@ 64
Sus@@ 64
MIYAMOTO 64
So-@@ 64
Yus@@ 64
detected 64
ites 64
chawan 64
ailing 64
Hidehira 64
barley 64
Fuyo 64
municipality 64
unequal 64
hon-@@ 64
warfare 64
Pur@@ 64
Six@@ 64
Meisho 64
identity 64
Yun@@ 64
1331 64
Language 64
concert 64
Room 64
ICHI@@ 64
a-kofun 64
ws 64
azaki 64
short-@@ 64
baseball 64
1588 64
destroying 64
contr@@ 64
Sculpted 64
Kiyoshi 63
consumers 63
sty@@ 63
backing 63
fushin 63
UTAGAWA 63
awak@@ 63
1960s 63
1970s 63
monarchy 63
Akihito 63
Shinjo 63
governor-general 63
frozen 63
adori 63
Yasun@@ 63
Calligraphy 63
kob@@ 63
forget 63
bel@@ 63
imprisoned 63
130@@ 63
consumed 63
implement 63
centr@@ 63
eless 63
Shogunal 63
Pre@@ 63
Chushojima 63
Bug@@ 63
considers 63
Choja 63
Sein@@ 63
abo 63
authentic 63
Forth 63
toilet 63
CHOSOKABE 63
sul@@ 63
seafood 63
genealogical 63
luxury 63
Ceremonies 63
substantial 63
warships 63
nominated 63
lighting 63
law@@ 63
trace 63
homes 63
umin@@ 63
centers 63
overnight 63
KAWAI 63
atively 63
astic 63
reaches 63
Tsurugaoka 63
suspicious 63
stems 63
suggestion 63
carp 63
1579 63
無@@ 63
lasting 63
Masakazu 63
hoko 63
broiled 63
な@@ 63
self 63
太@@ 63
Saiga 63
Nioumiya 63
subdued 63
legally 63
alls 63
echi 63
slaves 63
sweetened 63
third-@@ 63
Saturday 63
dohyo 63
farce 63
progressed 63
ZU@@ 63
lun@@ 63
zui 63
8,000 63
Shuei 63
modern@@ 63
watched 63
farewell 63
subo 63
coal 63
aikido 63
gyudon 63
Li 63
preliminary 63
managers 63
hou@@ 63
Kiyotaka 63
icha 63
Katata 63
delayed 63
Long@@ 63
graceful 63
zakura 63
Joan 63
Fac@@ 63
filling 63
agar@@ 63
Ow@@ 63
uous 63
oe-@@ 63
Lu@@ 63
visible 63
precise 63
gozoku 63
Jud@@ 63
bravely 63
Nobumitsu 63
MADENOKOJI 63
propagation 63
Ninko 63
oyaku 63
Kinugasa 63
BE@@ 63
ugen 63
exceeded 63
hem 63
tachi@@ 63
aforementioned 63
Kizoku 63
poison 63
ā@@ 63
micro@@ 62
liaison 62
ushiki 62
lumber 62
measurement 62
prof@@ 62
sadaijin 62
arian 62
influences 62
Torii 62
Nakahira 62
tains 62
okuin 62
Cir@@ 62
Dengaku 62
uba 62
Kobayakawa 62
excessive 62
Takaoka 62
Mishima 62
NAKATOMI 62
1612 62
Tai 62
newly-@@ 62
Tenji 62
fuji 62
ambo@@ 62
Yoshiwara 62
hil@@ 62
kneading 62
200@@ 62
Horikawa-dori 62
uten 62
WAKA@@ 62
zen-ji 62
Plain 62
Matsuo 62
oku-in 62
iron@@ 62
primarily 62
beriberi 62
tage 62
instrumental 62
harvested 62
Omi-@@ 62
lees 62
beating 62
Nab@@ 62
金@@ 62
Kusuko 62
recognize 62
judges 62
Takasue 62
completing 62
fiercely 62
energy 62
ety 62
implicated 62
cream 62
Momoy@@ 62
Hiki 62
charm 62
grams 62
believer 62
Shigen@@ 62
emerging 62
infantry 62
mastered 62
jiri 62
Gien 62
chunagon 62
Tokyo-@@ 62
cri@@ 62
< 62
compensation 62
SHIRA@@ 62
Juko 62
Kame@@ 62
Ryoge 62
acceptance 62
dango 62
log@@ 62
sanc@@ 62
mok@@ 62
oriented 62
1861 62
amine 62
TORII 62
profound 62
Dam 62
deepened 62
rebels 62
AKA@@ 62
Wa@@ 62
正@@ 62
tempura 62
Osaki 62
Norimori 62
Toneri 62
fairly 62
Ann@@ 62
portr@@ 62
utaro 62
Italy 62
Hakone 62
lie 62
Jingo-ji 62
permit 62
Nakagawa 62
spearhead 62
ket@@ 62
asserts 62
ibility 62
。 62
Dannoura 62
ressed 62
sub-@@ 62
sle@@ 62
radio 62
Taku@@ 62
oom 62
ochi-@@ 62
Laws 62
a.m. 62
Confucius 62
Edition 62
cy@@ 62
Table 62
helmet 62
okata 62
dressing 62
Hoin 62
urei 62
Anahobe 62
declaration 62
Konparu 62
oug@@ 62
prevailed 62
seller 62
Kichiemon 62
Keage 62
metropolitan 62
panels 62
handing 62
Yasuyuki 62
cremated 62
millet 62
shinto 62
Geki 62
zoshi 62
dani 62
ises 62
tment 62
saki 62
Fugen 62
imitating 62
ty-@@ 62
neg@@ 62
awn 62
Nishim@@ 62
Daisho 61
Minbu 61
YAMASHINA 61
haku@@ 61
obligation 61
Ujisato 61
Eve 61
staged 61
1576 61
Yukit@@ 61
Inspector 61
bales 61
amin@@ 61
closest 61
TAKIGAWA 61
Kono@@ 61
Masak@@ 61
bayashi 61
transcription 61
GE 61
presumably 61
Shigeuji 61
Tadanori 61
Sotatsu 61
pt 61
asset 61
gear 61
mountain@@ 61
TOIN 61
play@@ 61
stomach 61
iating 61
Hideyasu 61
Fall 61
Shugakuin 61
turing 61
Okaru 61
college 61
ouse 61
shar@@ 61
uge 61
Sin@@ 61
jodai 61
ifies 61
rant 61
Cent@@ 61
H 61
Ogaki 61
Market 61
Kaitai 61
reconciled 61
tos@@ 61
Kaiki 61
oked 61
yukata 61
1596 61
Mitsubishi 61
yama-@@ 61
ryoke 61
pac@@ 61
Gon-@@ 61
yus@@ 61
haori 61
Ganjin 61
mines 61
shrimp 61
foundations 61
otom@@ 61
Notes 61
shogi 61
Udaiben 61
high@@ 61
Hitotsubashi 61
Tro@@ 61
karaoke 61
retaining 61
kengyo 61
asted 61
Kanshi 61
sizes 61
tributary 61
inated 61
Kiku@@ 61
reinforcement 61
idated 61
Nun@@ 61
ato-@@ 61
Kizu-gawa 61
5,@@ 61
constitu@@ 61
journal 61
graduating 61
Whi@@ 61
hills 61
ita-@@ 61
OKU@@ 61
Kotai@@ 61
OGATA 61
TANI@@ 61
daishi 61
eisha 61
silent 61
omi-@@ 61
Officer 61
Jugo 61
Curry 61
virtues 61
owns 61
chim@@ 61
columns 61
akuchi 61
Enshrined 61
zuki 61
Wad@@ 61
Letter 61
anti@@ 61
artisans 61
Dojo 61
egaki 61
exempt 61
Matsuura 61
pin 61
Yasukuni-jinja 61
RE@@ 61
commented 61
ishitsu 61
Hyaku@@ 61
commemorating 61
Narimasa 61
hes@@ 61
Senko 61
enhanced 61
TOKU@@ 61
Heijo 61
Network 61
execute 61
wider 61
Promotion 61
versed 61
26th 61
a-do 61
Kaninnomiya 61
context 61
sat 61
Michikane 61
Establishment 61
Morioka 61
eable 61
iratsume 61
ahata 61
Toyokuni 61
agawa-@@ 61
Tadafuyu 61
Sensu 61
tutelary 61
lore 60
NG 60
Nos@@ 60
negotiated 60
altered 60
exerted 60
practitioners 60
nirvana 60
s--@@ 60
Ninja 60
individually 60
HIR@@ 60
KUMAGAI 60
■ 60
Rokuon-ji 60
YAGI 60
kokushu 60
GU@@ 60
iri-@@ 60
Okinaga 60
1166 60
iba 60
vending 60
judo 60
dismantled 60
Every 60
eno-@@ 60
Takaie 60
Keisuke 60
itor 60
producer 60
imon 60
yo-in 60
aiko 60
Pet@@ 60
salmon 60
pain 60
Kasagi 60
uded 60
atsuko 60
ete 60
Nishijin 60
Masatomo 60
un-@@ 60
ump 60
carbon 60
removal 60
eral 60
gs 60
adono 60
evolved 60
yorishiro 60
climbing 60
replacing 60
nai 60
cas@@ 60
Jisho-Juei 60
Ise-Heishi 60
Saig@@ 60
shut@@ 60
Ikuno 60
Sue@@ 60
charges 60
seventeen 60
committing 60
Morozane 60
pull 60
securing 60
Mig@@ 60
Founder 60
真@@ 60
minded 60
half-sister 60
Muso 60
Shohei 60
gauge 60
Takan@@ 60
kado 60
constituted 60
KOIDE 60
Adviser 60
Pe@@ 60
Seit@@ 60
soson 60
Forest 60
boundaries 60
Trans@@ 60
ifusa 60
eal@@ 60
Decree 60
bak@@ 60
1616 60
sim@@ 60
Ninomaru 60
Text 60
shoki 60
ashir@@ 60
frequency 60
reverse 60
Hisat@@ 60
Genshin 60
daka 60
investigated 60
review 60
indirect 60
truly 60
dashi 60
9-@@ 60
Soz@@ 60
Shigekatsu 60
Sushi 60
ologies 60
diesel 60
contributing 60
Nichir@@ 60
Joshi 60
Yozei 60
aya-@@ 60
physician 60
Suica 60
と@@ 60
1619 60
crane 60
ju-in 60
prog@@ 60
Kanda 60
Kenzo 60
finances 60
1703 60
societies 60
Mal@@ 60
Taki 60
abe-@@ 60
obvious 60
Nyoirin 60
kus@@ 60
males 60
engineer 60
sui-@@ 60
yoji 60
Ue 60
Thailand 60
ibi 60
Honinbo 60
Br@@ 60
Yasutsuna 60
umeboshi 60
exceptionally 60
deported 60
明@@ 60
Mitsuyuki 60
Tsushinshi 60
advocates 60
baron 60
grows 60
low-level 60
Urban 60
Urashima 60
Jushii 60
plan@@ 60
Kohechi 60
mei-@@ 60
Motomasa 60
mural 60
Hokekyo 60
Mochit@@ 60
you@@ 60
andai 60
containers 60
Makura 60
akyo 60
worthy 59
remember 59
Kokinshu 59
tier 59
etsuna 59
Muneko 59
Morimasa 59
age-@@ 59
cancelled 59
Miyasudokoro 59
oi-@@ 59
moromi 59
attainment 59
solo 59
aru-@@ 59
ordination 59
1980s 59
SUE 59
Architecture 59
KUROSAWA 59
Minbusho 59
ol 59
Sob@@ 59
IN@@ 59
Aoyama 59
tionary 59
Toshodai-ji 59
Koryu-ji 59
saving 59
Daigokuden 59
var@@ 59
kaieki 59
Jitsu@@ 59
holders 59
Revolution 59
Hachioji 59
aju 59
coating 59
Apart 59
xim@@ 59
cormorant 59
black@@ 59
YAMANAKA 59
lessons 59
Mabuchi 59
Bunroku-Keicho 59
Community 59
Genro 59
fulfilled 59
757 59
Mainichi 59
Hiyoshi 59
Bamboo 59
pulling 59
ideology 59
shes 59
ahi 59
Shimo 59
seventy-@@ 59
tend@@ 59
Shod@@ 59
MATSUDA 59
pursuit 59
Shoso-in 59
Moroe 59
exempted 59
audiences 59
operates 59
overthrowing 59
ethics 59
primitive 59
Soshitsu 59
Airport 59
whales 59
-based 59
rumors 59
symbols 59
stic 59
BAYASHI 59
there@@ 59
undertook 59
ouji 59
tering 59
sen-@@ 59
flee 59
drop 59
Juichimen 59
koz@@ 59
solved 59
Vi@@ 59
itsu-@@ 59
Seta 59
ame-@@ 59
Yonago 59
Uchiwa 59
substantially 59
Oz@@ 59
hoin 59
slogan 59
FUJITA 59
Direc@@ 59
Long 59
admon@@ 59
Masatsugu 59
rai 59
onmyoji 59
abuki 59
oyu 59
ozan 59
karo 59
rumored 59
takoyaki 59
Roku 59
laying 59
Commercial 59
akusha 59
和@@ 59
gravestone 59
unifying 59
higashi 59
HOTTA 59
ab 59
otei 59
quar@@ 59
drastic 59
high-class 59
sha-@@ 59
（ 59
'clock 59
Canal 59
kariginu 59
Ichiro 59
Uneme 59
ofuku 59
Dojo-ji 59
noshi 59
thumb 59
ASUKAI 59
Nyoin 59
okage 58
prestige 58
genealogies 58
Takayori 58
dok@@ 58
Tairo 58
INUKAI 58
Kyoto-go 58
achieving 58
aved 58
hun@@ 58
objective 58
pic@@ 58
etoyo 58
palaces 58
1849 58
Facilities 58
Portugal 58
injury 58
hospit@@ 58
Goichijo 58
HORI@@ 58
etaka 58
eve 58
Samaryo 58
Theatre 58
Nobunori 58
有@@ 58
139@@ 58
Oei 58
scholarship 58
pots 58
Munetada 58
predic@@ 58
Coun@@ 58
worlds 58
mercy 58
Tojuro 58
Gen 58
potential 58
Yan@@ 58
Pr@@ 58
Vic@@ 58
Illustrated 58
6,@@ 58
inations 58
1855 58
Allied 58
abdicate 58
Marutamachi 58
readers 58
lu@@ 58
Shushi 58
Sojuro 58
imitation 58
organizational 58
Shaku 58
Tadamune 58
raku@@ 58
Human 58
Vice-@@ 58
zon 58
inden 58
Shisho 58
profession 58
San-@@ 58
pedestal 58
Katsu 58
ook 58
ichika 58
shinno 58
definite 58
Flowers 58
liberal 58
--- 58
Nakag@@ 58
uki-@@ 58
Spanish 58
tato 58
sphere 58
1574 58
Maitreya 58
en-do 58
Nishikyogoku 58
aok@@ 58
awashi 58
tsumi 58
endai 58
Nintoku 58
ekazu 58
oshiro 58
1158 58
Hang@@ 58
Ishi 58
Roman 58
Freedom 58
Shojiro 58
Rek@@ 58
shizoku 58
SHO@@ 58
proceed 58
1688 58
Kawanakajima 58
suz@@ 58
Masayasu 58
Karoku 58
awa-dori 58
ugu 58
Cave 58
hit@@ 58
Sadayori 58
Tadaaki 58
achim@@ 58
Tsunetaka 58
UME@@ 58
ASAI 58
buying 58
proc@@ 58
TAKANO 58
require 58
trips 58
Written 58
Sadachika 58
rescued 58
Hakase 58
ando 58
examined 58
inari 58
tying 58
HIRAGA 58
Koshiro 58
gohan 58
Shinkeihan 58
Nankai 58
uyama 58
echika 58
Rem@@ 58
rob@@ 58
URA 58
Kid@@ 58
chogin 58
theatre 58
Shanghai 58
TOMI 58
atsuji 58
Atsum@@ 58
tones 58
tiered 58
ayed 58
ashig@@ 58
calligraphers 58
Hong 58
threatened 58
Sadamori 58
design@@ 58
rescript 58
teppo 58
Maiko 58
tribe 58
eboshi 58
hitoe 58
ugui 58
TOYAMA 58
Shoan 58
ikyo 58
murals 58
sanjo 58
doubtful 58
magatama 58
Genroin 58
editor 58
se-@@ 58
Fusasaki 58
hu 58
senji 58
storyteller 58
creative 58
shells 58
occurrence 58
floats 58
Omine 58
origin@@ 58
Muko 58
xx 58
15,000 58
virtual 58
disliked 58
brocade 57
earing 57
cle 57
Signal 57
prec@@ 57
mer 57
ASA@@ 57
're 57
AT@@ 57
supports 57
Kaikei 57
dominance 57
Kisshoin 57
KATAYAMA 57
hen@@ 57
Nihonbashi 57
sencha 57
associates 57
fish@@ 57
yearly 57
shui 57
porridge 57
motion 57
eki-mae 57
far@@ 57
vol 57
Ipp@@ 57
Mokuami 57
approve 57
Youth 57
Tang@@ 57
solid@@ 57
spoken 57
ishima 57
unveiled 57
Pavilion 57
Good 57
Sovereign 57
Tameie 57
gisho 57
ility 57
St. 57
Jimmu 57
Conf@@ 57
Kamogawa 57
Oper@@ 57
upgraded 57
tetsu 57
aroma 57
keeps 57
1569 57
conscription 57
Inu@@ 57
haniwa 57
discharged 57
lesser 57
agents 57
Beauty 57
posterity 57
taboo 57
afternoon 57
Azuk@@ 57
KAI 57
Kongobu-ji 57
1593 57
Sanno 57
Hide@@ 57
130 57
basket 57
Masachika 57
factories 57
Yagi 57
lar@@ 57
HONJO 57
conversation 57
essays 57
Yur@@ 57
brick 57
elev@@ 57
Ie@@ 57
Inbe 57
ofu 57
koku-@@ 57
okawa 57
Hossho-ji 57
doso 57
Nobutsuna 57
escal@@ 57
unc@@ 57
ernal 57
reproduction 57
Daj@@ 57
octopus 57
lower-@@ 57
ler 57
erable 57
indispensable 57
cash 57
slowly 57
院 57
sprinkled 57
naginata 57
Immortal 57
rest@@ 57
宗@@ 57
下@@ 57
imaru 57
alize 57
Qin 57
eous 57
enactment 57
hosho 57
hat 57
somewhere 57
Shoku@@ 57
Masanao 57
appar@@ 57
SAI 57
yabusame 57
bacteria 57
Nagashino 57
TAKAYAMA 57
Kokei 57
dium 57
lav@@ 57
Yatsuhashi 57
1840 57
dumpling 57
ially 57
photograph 57
mix 57
comb@@ 57
ai-do 57
kodan 57
advocate 57
advis@@ 57
asha 57
kara 57
divide 57
Oku@@ 57
dainagon 57
lab@@ 57
TAMURA 57
owak@@ 57
Koshin 57
windows 57
Schools 57
blamed 57
aded 57
icho-@@ 57
bo-@@ 57
patients 57
etical 57
Geisha 57
hiragana 57
iyam@@ 57
Kanze-ryu 57
Jot@@ 57
ine@@ 57
Kitano-@@ 57
eyoshi 57
splendid 57
attract 57
elaborate 57
reed 57
Sadaaki 57
honzan 57
enhance 57
1572 57
Umekoji 57
Mitsusuke 57
storytellers 56
Yomiuri 56
Tsunemune 56
1850 56
exercised 56
Trams 56
Fukagawa 56
persist@@ 56
spending 56
1199 56
Prov@@ 56
Usa 56
parishioners 56
stri@@ 56
Higashin@@ 56
spo@@ 56
reporting 56
ool 56
Daikokuten 56
100th 56
banquets 56
libraries 56
u-in 56
sex 56
solve 56
corners 56
facto 56
researcher 56
conver@@ 56
squid 56
Haiku 56
Views 56
heav@@ 56
faithful 56
argues 56
1155 56
hard@@ 56
Tend@@ 56
ound 56
Send@@ 56
GHQ 56
southward 56
talking 56
OSHIMA 56
scripture 56
thre@@ 56
flew 56
engage 56
collaboration 56
statesmen 56
Kado 56
etomo 56
occupy 56
corpor@@ 56
affection 56
ily 56
remin@@ 56
wasan 56
Kokumin 56
gata 56
Honda 56
Sumeramikoto 56
fewer 56
40,000 56
sewn 56
pasted 56
buil@@ 56
1335 56
Adjacent 56
yo-ku 56
Hideaki 56
sang 56
juice 56
Kasag@@ 56
omichi 56
Omin@@ 56
ush@@ 56
SHIN@@ 56
ayaki 56
1689 56
Dokan 56
Akiyoshi 56
hayashi 56
topknot 56
professors 56
weights 56
Okun@@ 56
木@@ 56
reasonable 56
IMADEGAWA 56
rainy 56
documentary 56
Pro 56
gesture 56
Fuku 56
Marutamachi-dori 56
p.m. 56
accuracy 56
Netherlands 56
Shijonawate 56
光@@ 56
eighty 56
Tsuna 56
Michi 56
Folk 56
stewards 56
sins 56
Jushichi@@ 56
Danjo 56
ikiyo 56
wound 56
Ko-@@ 56
horizontally 56
state-@@ 56
Teramachi-dori 56
demonstr@@ 56
atsume 56
consent 56
fix 56
Doh@@ 56
ere 56
Ha@@ 56
clos@@ 56
MURA@@ 56
poly@@ 56
beloved 56
monopolized 56
rings 56
ofuk@@ 56
ordinarily 56
koin 56
abalone 56
sleeping 56
Pol@@ 56
tide 56
ased 56
Raku 56
Tenmangu 56
Hideo 56
extinction 56
luxurious 56
onji 56
persuade 56
mitting 56
cell@@ 56
ginjoshu 56
Fudai 56
ukiyoe 56
Professor 56
Shitokan 56
insufficient 56
deny 56
Juhachi@@ 56
dignity 56
poisoning 56
engi 56
shitsu 56
Nanbu 56
YASUDA 56
Who 56
Mizoguchi 56
Takatsugu 56
Omihachiman 56
cabbage 56
rewarded 56
Yoshioka 56
discrimination 55
Shishi 55
syrup 55
bune 55
YOSHIMURA 55
unexpected 55
nuns 55
jing 55
Bot@@ 55
persu@@ 55
Bypass 55
opp@@ 55
Todo-za 55
Seiryoden 55
controller 55
spy 55
phot@@ 55
Pal@@ 55
Ban 55
Cer@@ 55
Iemoto 55
Morinaga 55
consulted 55
kotsu@@ 55
magn@@ 55
farmland 55
reserve 55
OKURA 55
horsemen 55
controls 55
gos@@ 55
Tame@@ 55
tobacco 55
Katsutoyo 55
gongyo 55
grace 55
wishing 55
Koban 55
yamakasa 55
Ti@@ 55
Kanp@@ 55
kun 55
iage 55
Shoshii 55
advisors 55
boar 55
Sal@@ 55
ny@@ 55
Twelve 55
749 55
1611 55
Imp@@ 55
Daiichi 55
Nagoya-jo 55
remarried 55
oun 55
Similarly 55
Muneyoshi 55
Zaibatsu 55
requirements 55
vo@@ 55
ozen 55
nicknamed 55
Okitsugu 55
hachim@@ 55
生@@ 55
seido 55
kaku@@ 55
Asuka-dera 55
forcibly 55
sei-@@ 55
demesne 55
politically 55
universe 55
chig@@ 55
Exchange 55
Goryo-@@ 55
1856 55
1594 55
curve 55
dotaku 55
Joetsu 55
Leg@@ 55
Naoyoshi 55
Crafts 55
Sadakatsu 55
humorous 55
Cape 55
vengeful 55
membership 55
Sozu 55
nineteenth 55
etada 55
NAKAMIKADO 55
Hinin 55
ujigami 55
preparations 55
eping 55
Dictionary 55
bold 55
zok@@ 55
anaga 55
erv@@ 55
Kodaiin 55
Tsuho 55
illed 55
Minak@@ 55
Asai 55
Shiki@@ 55
resides 55
Sokei 55
inao 55
Slope 55
wit@@ 55
grief 55
り@@ 55
excuse 55
cleaning 55
百@@ 55
entombed 55
sweet@@ 55
Fl@@ 55
roc@@ 55
ayama-@@ 55
Selected 55
chronicles 55
fort 55
Shushigaku 55
itioning 55
uck 55
occult 55
coined 55
ero 55
composing 55
Bud@@ 55
Amida-do 55
Shimon@@ 55
Shingu 55
uch@@ 55
Yang@@ 55
Eisho 55
interrupted 55
Li@@ 55
YU 55
typically 55
maj@@ 55
1633 55
renovated 55
recitation 55
apolog@@ 55
Car 55
protested 55
inheriting 55
overwhelmed 55
Takak@@ 55
comparatively 55
Nuk@@ 55
i-mura 55
zabuton 55
Kinosaki 55
zawa 55
Byobu 55
eka 55
Dot@@ 55
blocks 55
Noh@@ 55
soaked 55
oson 55
Minbukyo 55
pit@@ 55
Sakonoe 55
exported 55
attaining 55
YASU@@ 55
error 55
ohara 55
be-@@ 55
Toshim@@ 55
Satomi 55
Yoshit@@ 55
Shimok@@ 55
sakaya 54
1605 54
SANO 54
aicho 54
1841 54
ban-@@ 54
Press 54
comparing 54
pollen 54
cooperative 54
810 54
Naozane 54
Waki 54
Yoshikawa 54
Assembly 54
allowance 54
stretching 54
canned 54
Nara-@@ 54
oking 54
umi-@@ 54
Orthodox 54
Yasumasa 54
Sakata 54
sengoku 54
doshin 54
loan 54
aches 54
Ministers 54
Bushido 54
bath@@ 54
1847 54
Genealogy 54
Kidendo 54
intr@@ 54
Kyog@@ 54
Sawara 54
teki 54
Chigi 54
Non@@ 54
Chuk@@ 54
waste 54
Kanzan 54
itioned 54
ら@@ 54
shogun@@ 54
Hek@@ 54
Hayashi 54
Mototsuna 54
igi 54
chaos 54
hem@@ 54
ornament 54
restarted 54
-and-@@ 54
editing 54
Europe@@ 54
usur@@ 54
1835 54
1830 54
dependent 54
Byodo-in 54
ketsu 54
Ano 54
awari 54
Shoyuki 54
Sarashina 54
itors 54
Ishikawamaro 54
twentieth 54
pardon 54
acked 54
polic@@ 54
fumyo 54
ansen 54
whaling 54
muk@@ 54
ali@@ 54
theor@@ 54
cremation 54
Okamoto 54
Ho 54
locally 54
forfeited 54
resembling 54
Moro@@ 54
commoner 54
barely 54
Shin-Osaka 54
Vaj@@ 54
sible 54
Perry 54
Otsu-@@ 54
atic 54
Kamig@@ 54
wed@@ 54
ihime 54
Geta 54
perhaps 54
ene 54
by-@@ 54
App@@ 54
prototype 54
Stations 54
Tenchu-gumi 54
purify 54
amateur 54
eyebrows 54
matchlock 54
pufferfish 54
seize 54
dissatisfied 54
Mid-@@ 54
tuna 54
dofu 54
ulating 54
tandai 54
1839 54
Shinji 54
MO 54
Koreans 54
import 54
soku 54
Busan 54
blow 54
cry 54
displays 54
broadcast 54
Masataka 54
displaying 54
courts 54
shipping 54
conversion 54
Learning 54
dest@@ 54
missed 54
heredity 54
Yu 54
Soma 54
scre@@ 54
sword@@ 54
名@@ 54
supernumerary 54
Osak@@ 54
entertain 54
gap 54
Masuda 54
fund 54
Councillor 54
haiden 54
Several 54
kajin 54
Osaka-@@ 54
e-zukuri 54
CHIKAMATSU 54
Munenori 54
enji 54
post-war 54
returns 54
12-@@ 54
badly 54
uin 54
MIZU@@ 54
Yukimori 54
sealed 54
Nem@@ 54
victims 54
curd 54
akki 54
Oku 54
installation 54
Dragon 54
happen 54
UEDA 54
Rakunan 54
ordained 54
Buddhahood 54
Hisamasa 54
Chor@@ 54
ornaments 53
NISHIMURA 53
Chiyoda 53
Teru@@ 53
Entering 53
commun@@ 53
lightning 53
good-@@ 53
SUGITA 53
Bl@@ 53
ood 53
geta 53
Myoho-in 53
ojiro 53
joy 53
Isshi 53
coloring 53
osaku 53
disinherited 53
kad@@ 53
tablets 53
elt 53
ision 53
mechan@@ 53
clock 53
onori 53
ARI@@ 53
NII@@ 53
Out 53
amoto-@@ 53
TSUTSUI 53
JU@@ 53
Fran@@ 53
possess 53
Tsuki 53
YANAGI@@ 53
part@@ 53
suits 53
sukune 53
bears 53
eds 53
Yao 53
00-@@ 53
reducing 53
Butsu@@ 53
Kamiy@@ 53
lattice 53
Yama 53
halo 53
Kuninomiya 53
ishin@@ 53
Tripitaka 53
waterfall 53
Hab@@ 53
g-@@ 53
blessed 53
merging 53
monto 53
tension 53
Myor@@ 53
mation 53
Inari-@@ 53
lifted 53
Sesshu 53
enshu 53
Kume 53
honden 53
tiv@@ 53
Kasuga-@@ 53
ples 53
capit@@ 53
fac@@ 53
Chikan@@ 53
fictitious 53
prostitutes 53
Sogo 53
Uma 53
byo 53
Ienaga 53
wid@@ 53
nishi@@ 53
Takamimusubi 53
Eiroku 53
realms 53
SHIGEYAMA 53
rebuild 53
ody 53
ure-@@ 53
duc@@ 53
unosuke 53
ha-@@ 53
nationalized 53
1565 53
Kakitsu 53
shoes 53
Tono 53
Suko 53
ansho 53
1852 53
certification 53
Bro@@ 53
yo-do 53
Kuki 53
Hanny@@ 53
Diesel 53
discretion 53
Shoni 53
Teaching 53
egi 53
ep 53
onic 53
dynastic 53
geography 53
atama 53
reborn 53
salvation 53
marquis 53
Characters 53
ayasu 53
joy@@ 53
counterfeit 53
batsu 53
sokutai 53
onion 53
enable 53
ashige 53
Kawagoe 53
operator 53
blu@@ 53
platoon 53
Oike 53
tenmon 53
amusement 53
ail 53
Zushi 53
Ron 53
sciences 53
explo@@ 53
oya-@@ 53
ept@@ 53
BOJO 53
ulate 53
家@@ 53
女 53
ijima 53
Stadium 53
sud@@ 53
Dates 53
Ru@@ 53
oms 53
Taiwanese 53
Sango 53
tab@@ 53
1606 53
Hawaii 53
goto 53
1571 53
goryo 53
Chokei 53
karakami 53
ama-jo 53
fying 53
Nagakute 53
KONPARU 53
tek@@ 53
hare 53
yonin 53
ict 53
broadcasting 53
helping 53
utan 53
Yakushi@@ 53
hondo 53
ral 53
ocks 53
install 53
Kim 53
寺 53
tenure 53
dai-@@ 53
Ina 53
accounting 53
TERA@@ 53
ff 53
lanterns 53
1837 53
reformation 53
willing 53
Infantry 53
partner 53
a-in 53
ox 53
insects 53
essed 53
electrification 53
Kanzaki 53
AMA@@ 53
hyakusho 53
1203 53
environmental 53
priestess 53
Si@@ 53
fujin 53
Kiyouji 53
Aza 53
Kosho-ji 53
ae-@@ 53
foref@@ 53
vest@@ 53
Pillow 53
伊@@ 53
solic@@ 53
Yod@@ 53
biographies 52
warship 52
Kokiden 52
hence 52
adai 52
原@@ 52
usada 52
Norimichi 52
encourage 52
paku 52
fragments 52
tiger 52
1205 52
discord 52
Yasuhito 52
Chikat@@ 52
Using 52
Genpuku 52
partition 52
Seikanron 52
Hirado 52
Mut@@ 52
Sekien 52
Rakuchu 52
unlikely 52
FURU@@ 52
tast@@ 52
kuyo 52
incarnation 52
ZE@@ 52
harsh 52
kazu 52
emasa 52
AMI 52
Festivals 52
ematsu 52
founders 52
Rise 52
000 52
lip@@ 52
wag@@ 52
diminished 52
uhito 52
Torokko 52
Tanabe-jo 52
FURUTA 52
academy 52
Aut@@ 52
Nat@@ 52
omaro 52
Rangaku 52
lacking 52
Gog@@ 52
Takano 52
enthusiastic 52
restriction 52
formality 52
Sadamichi 52
Keihanna 52
Communication 52
Atsuyasu 52
sust@@ 52
investigate 52
Tsutsui 52
resolved 52
westward 52
Shinsuke 52
KOJIMA 52
compar@@ 52
qualification 52
Source 52
Materials 52
mode 52
imprisonment 52
Higashioji-dori 52
Gojo-dori 52
okor@@ 52
1182 52
myo-ji 52
kokufu 52
YAMAOKA 52
Hideie 52
capability 52
great-grandson 52
Tadanaga 52
Making 52
damages 52
OMURA 52
1609 52
1500 52
sonae 52
patrol 52
hyak@@ 52
1817 52
Emonfu 52
editions 52
ata-jo 52
conclude 52
educ@@ 52
Chidori 52
OKI 52
awareness 52
vain 52
Hirotsune 52
ared 52
Nakasen-do 52
Kig@@ 52
aja 52
Zojo-ji 52
HE@@ 52
wandering 52
1577 52
pink 52
igned 52
massive 52
exterior 52
aesthetic 52
Let 52
mul@@ 52
Shoyo 52
Plant 52
Yasu 52
Koen 52
ell 52
landscapes 52
Houses 52
tube 52
ball@@ 52
Onshi 52
explanations 52
1392 52
treasured 52
arashi 52
onward 52
roofed 52
lifestyle 52
odate 52
BARA 52
oura 52
amnesty 52
kets 52
packed 52
presents 52
Ryoshun 52
decreasing 52
disc@@ 52
interpretations 52
teen 52
ext@@ 52
suppressing 52
ISO@@ 52
Kong 52
mai-@@ 52
Tsunefusa 52
traded 52
Goshi@@ 52
Otagi 52
tracked 52
Shikan 52
irrigation 52
cooperate 52
obeyed 52
chants 52
low-ranking 52
pioneer 52
Mogami 52
okur@@ 52
onushi 52
Okehazama 52
内@@ 52
Suzuka 52
menoto 52
hatsu 52
seventeenth 52
supplement 52
conflicted 52
amasa 52
ju-ji 52
ambition 52
acquisition 52
Chobei 52
fourteen 52
Nir@@ 52
ck 52
ultimate 52
contracted 52
gambling 52
commandments 52
Renga 52
Shinmachi 52
interval 52
shad@@ 52
honorable 52
akuto 52
osak@@ 52
drivers 52
Regiment 52
Nose 52
bat@@ 52
Vir@@ 52
Takeaki 52
Naiku 52
Brewing 52
Shigenori 51
Tanabata 51
consistently 51
Inshi 51
launch 51
Kou@@ 51
drum@@ 51
Tsunetane 51
Kanenaga 51
strongest 51
Kurama-dera 51
Tadamitsu 51
Mimana 51
Bek@@ 51
wielded 51
WAKISAKA 51
requesting 51
Kazumasu 51
conquering 51
Inar@@ 51
900 51
compet@@ 51
eastward 51
尊 51
Ikuta 51
Iku@@ 51
Yanagawa 51
Yomeigaku 51
Inv@@ 51
Higashim@@ 51
Ine 51
Control 51
thunder 51
diet 51
Junkei 51
deals 51
1589 51
MIYA 51
Gofushimi 51
dissatisfaction 51
itive 51
Boku@@ 51
1560 51
robbers 51
etic 51
Tourism 51
Gohanazono 51
Sah@@ 51
topic 51
uruma 51
stripped 51
craft@@ 51
shelter 51
annexation 51
consciousness 51
tunnels 51
offensive 51
omin 51
Tomomitsu 51
Anshi 51
ket 51
gek@@ 51
ansai 51
Mitsusada 51
textbook 51
lla 51
rin-ji 51
remark 51
analy@@ 51
mokuroku 51
hoped 51
Tosho-gu 51
compiler 51
Fukai-no-Joten 51
Mad@@ 51
businessman 51
郎 51
Usu@@ 51
Copper 51
1834 51
shoots 51
179@@ 51
atives 51
finding 51
protagonist 51
purged 51
Maru 51
ousted 51
Yasunobu 51
higher-@@ 51
tenshu 51
Koma 51
Sadako 51
MOTO@@ 51
Tokuyama 51
Ocean 51
salty 51
Made 51
inviting 51
ofusa 51
yar@@ 51
gi@@ 51
renovation 51
Woman 51
unbroken 51
uary 51
Kanbe 51
Tsuchi@@ 51
dness 51
OSHI@@ 51
suburbs 51
Yukitsuna 51
myself 51
Colonel 51
Matsushima 51
Gyoja 51
anden 51
compan@@ 51
Sanz@@ 51
Shoin-zukuri 51
que 51
Gennai 51
Fuso 51
GE@@ 51
archer 51
Realm 51
Daikakuji 51
Yokosuka 51
Fukusuke 51
yielded 51
goro 51
Religion 51
Gob@@ 51
everywhere 51
Yusoku 51
canal 51
Okita 51
mature 51
Soraku-gun 51
own@@ 51
Seas@@ 51
Bushi 51
worker 51
through-@@ 51
aki-jo 51
る@@ 51
omot@@ 51
act@@ 51
Nation@@ 51
Seiyukai 51
casualties 51
ikane 51
bran@@ 51
Temporary 51
Yohei 51
Tomon@@ 51
Shimo-@@ 51
Commuter 51
erence 51
isaku 51
archipelago 51
submission 51
ginza 51
ship@@ 51
alities 51
vow 51
元@@ 51
hoto 51
Shishi@@ 51
Jodoshu 51
nan 51
loos@@ 51
pack@@ 51
umoto 51
acqu@@ 51
Tet@@ 51
MISHIMA 51
Heian-@@ 51
Three-@@ 51
Kawara 51
demolished 51
Gunkan 51
criticize 51
Statistics 51
Sho-@@ 51
Gosuzaku 51
Ishida 51
Fuwa 51
alter 51
Tendo 51
Transferred 51
awake 51
Inab@@ 51
sen-ji 51
ced@@ 51
Kiyosu 51
Risshi 51
ick 51
Operation 51
Ieharu 51
agg@@ 51
Image 51
constantly 51
imper@@ 51
seed 51
Mototsugu 51
thir@@ 51
Makimuku 51
Heki 51
hel@@ 51
filed 51
short@@ 51
unmarried 50
counterattack 50
Num@@ 50
moderate 50
kosho 50
tei@@ 50
eighty-@@ 50
Forces 50
ISHII 50
imachi 50
HIRAYAMA 50
universal 50
yam 50
blocked 50
sworn 50
Register 50
constables 50
vic@@ 50
BU 50
Tatsuno 50
Councilors 50
AKI@@ 50
Motomichi 50
females 50
sport 50
KURO@@ 50
NISHIKAWA 50
extracted 50
stronghold 50
conven@@ 50
with@@ 50
eito 50
instances 50
Daibutsu-den 50
staging 50
如@@ 50
tain@@ 50
kaishi 50
Keiji 50
Yokooji 50
isu 50
treating 50
Meitoku 50
tle 50
agaru 50
taijo 50
Fuyutsugu 50
adama 50
emissions 50
OK 50
warning 50
Hou@@ 50
oppressed 50
consecutive 50
scor@@ 50
Powers 50
Nobuko 50
Discovery 50
ver 50
kills 50
particles 50
sive 50
22@@ 50
Tibetan 50
selecting 50
tooth 50
consultation 50
Manzo 50
weaving 50
vers@@ 50
dy 50
oshiyori 50
Calendar 50
Doctor 50
lady-in-waiting 50
slight 50
calendars 50
aits 50
Jishu 50
Otokoyama 50
Takaragaike 50
dre@@ 50
L. 50
bloodline 50
oppression 50
都@@ 50
bari 50
1636 50
downtown 50
firstly 50
ring@@ 50
playwright 50
seki@@ 50
Amag@@ 50
1204 50
bars 50
tow@@ 50
iner 50
fied 50
bling 50
00,000 50
Hijikata 50
ew 50
syncretism 50
Kumihama 50
Conc@@ 50
conveying 50
Hidekatsu 50
1352 50
udaijin 50
Taishakuten 50
ort 50
bush 50
eong@@ 50
grip 50
interpre@@ 50
Out@@ 50
Magistrate 50
ution 50
forehead 50
sequel 50
fleeing 50
Yoichi 50
Actually 50
polity 50
NAGAKURA 50
tsub@@ 50
ashed 50
Monuments 50
Chus@@ 50
e-mon 50
absolutely 50
dining 50
shinsei 50
Chuko 50
lov@@ 50
smoking 50
－ 50
liter 50
iyasu 50
ailed 50
Nakatsu 50
Best 50
Hirakata 50
permanently 50
ographical 50
woods 50
Kadono 50
sia 50
Goreizei 50
shinji 50
foodstuffs 50
omelet 50
entity 50
utilizing 50
pit 50
uniquely 50
NAKANOIN 50
erations 50
inobu 50
outdoor 50
cats 50
Furukawa 50
Flowering 50
conv@@ 50
restr@@ 50
reorganization 50
Shingi 50
ician 50
Marquis 50
dang@@ 50
Oto@@ 50
iyori 50
MAKI 50
Sukemori 50
techn@@ 50
INA@@ 50
indigo 50
joshu 50
Yasuhira 50
Kinkaku-ji 50
aps 50
earn 50
Ueda 50
overcome 50
uni-@@ 50
Natsu@@ 50
INO@@ 50
harmon@@ 50
Tsukin@@ 50
equinox 50
anda 50
drafted 50
Tokitsugu 50
reflecting 50
yorai 50
zo@@ 50
iga 50
villain 50
-day 50
Daini 50
echi@@ 50
kai-@@ 50
assignment 50
Political 50
shinden 50
MURAKAMI 50
Momozono 50
tentative 50
poll@@ 50
ury 50
des 50
Negoro-ji 50
bok@@ 50
south-@@ 50
reflection 50
aks 50
chemical 50
Kamo-@@ 50
shozoku 50
ami-jinja 50
bravery 50
herbs 50
Butsu 50
ble@@ 50
Ninth 50
eing 50
i-ji 50
confir@@ 50
Manpuku-ji 50
queen 50
worldly 50
sorrow 50
hae 50
東@@ 50
Sadanaru 49
Noble 49
ate@@ 49
SHINO@@ 49
konnyaku 49
TAKENOUCHI 49
errors 49
Koden 49
charms 49
The@@ 49
Shigetaka 49
ocr@@ 49
Kaikan 49
troubled 49
AOKI 49
show@@ 49
crosses 49
Soku@@ 49
belongings 49
ICHIMURA 49
emblem 49
ple@@ 49
Gobo 49
priestly 49
azen 49
Maizuru-@@ 49
betsu 49
MIN@@ 49
opens 49
Founded 49
KANAMORI 49
vows 49
Ushioni 49
hashi@@ 49
enting 49
Whether 49
aims 49
needle 49
Ven@@ 49
Title 49
piled 49
Shihon 49
hur@@ 49
disguised 49
low@@ 49
Mikohidari 49
00th 49
aor@@ 49
Geku 49
SHIONOYA 49
moats 49
enjoy@@ 49
fares 49
dan-@@ 49
violence 49
tips 49
assert 49
noise 49
Kanpyo 49
targets 49
Motouji 49
rac@@ 49
transported 49
technologies 49
Jianzhen 49
trad@@ 49
morale 49
Munakata 49
Za@@ 49
Fukaijoten 49
saburo 49
Shika 49
rang@@ 49
ME@@ 49
veri@@ 49
Teacher 49
gawara 49
Shigenaga 49
Takahiro 49
intervened 49
28th 49
stroke 49
fuku@@ 49
unmanned 49
八@@ 49
Masaaki 49
renewed 49
ty@@ 49
ologically 49
Masafusa 49
spaces 49
iken 49
Jak@@ 49
Shigeharu 49
jo-dori 49
thinly 49
hikan 49
Tanbabashi 49
1804 49
Bukkyo 49
OTA@@ 49
uemon 49
welfare 49
azumi 49
enh@@ 49
Takas@@ 49
benef@@ 49
Kenkyukai 49
zume 49
originate 49
Jowa 49
か@@ 49
Bel@@ 49
Nairan 49
Internet 49
ongi 49
chan 49
ensha 49
Bunei 49
kuri 49
storied 49
り 49
productions 49
Goshui 49
stability 49
Mitsuhiro 49
Kumiyama 49
widow 49
Sadaiben 49
stupa 49
sewing 49
IKE 49
Tonom@@ 49
aki-cho 49
Fujiwara-kyo 49
asc@@ 49
Kabuki-za 49
supervisor 49
supermarkets 49
Machi 49
1192 49
similarly 49
Gang@@ 49
Soj@@ 49
revolution 49
repairs 49
erated 49
sy 49
UKITA 49
answers 49
Tengyo 49
knows 49
Takatomo 49
OTSUKI 49
accelerated 49
shipped 49
Shin-Tanabe 49
Imai 49
Gishiki 49
arrangements 49
ean 49
Bal@@ 49
gei@@ 49
competing 49
furniture 49
Nagashige 49
yl@@ 49
Omotesenke 49
Heian-jingu 49
tsu-@@ 49
black-@@ 49
ix@@ 49
Tent@@ 49
op 49
Mikado 49
Ogur@@ 49
KIYO@@ 49
sailors 49
crushing 49
oru 49
prevalent 49
oto@@ 49
pu@@ 49
Daisen 49
Yagyu 49
Seigen 49
oned 49
Sanehito 49
ation-@@ 49
reveal 49
Gyoen 49
bands 49
Zao 49
chart 49
Nariaki 49
kanmotsu 49
kans@@ 49
Daito 49
Daisojo 49
taishi 49
struggled 49
Kitayama-@@ 49
gat@@ 49
resolution 49
seventy 49
Sento 49
publications 49
lik@@ 49
separating 49
riki 49
Harunaga 49
onjo 49
年@@ 49
spears 49
proprietor 49
applies 49
Terminal 49
chiefs 49
ayaku 49
gunpowder 49
fishes 48
Structure 48
Ozu 48
60,000 48
hotels 48
Loyal 48
Kozuk@@ 48
Negoro 48
marching 48
harmony 48
Shuzo 48
Tsunemori 48
Zo@@ 48
equality 48
MAE@@ 48
arc@@ 48
upward 48
Goemon 48
U-@@ 48
ibashi 48
illustration 48
emer@@ 48
paragraph 48
wholesale 48
Seiho 48
Natsu 48
Boxers 48
Saint 48
letting 48
1838 48
machi-dori 48
bride 48
Holy 48
breast 48
enrolled 48
Nishinomiya 48
Wakam@@ 48
wakadoshiyori 48
managerial 48
Nakatomi 48
Takemikazuchi 48
zane 48
Kazuo 48
agami 48
subjected 48
Shigeyori 48
supplementary 48
earthly 48
Kujihongi 48
treason 48
drifted 48
fuel 48
iya-jinja 48
offspring 48
climb 48
cancellation 48
Shishinden 48
Tokiko 48
absent 48
ique 48
countryside 48
stabilize 48
bureaucratic 48
annotated 48
Kimigayo 48
rebuilding 48
Places 48
avoiding 48
Benzaiten 48
Junshi 48
angle 48
sits 48
deserted 48
Gyeong@@ 48
1661 48
Cre@@ 48
Naka-@@ 48
defin@@ 48
Uwajima 48
23rd 48
Over 48
Ogawa 48
receives 48
hydro@@ 48
sal 48
shelf 48
Nada 48
bodhisattva 48
Mining 48
ouchi-@@ 48
swordsman 48
Katsun@@ 48
道 48
ord 48
Empresses 48
shellfish 48
Gomomozono 48
invested 48
ocracy 48
inferred 48
Akae 48
danced 48
Kuk@@ 48
Wars 48
annotation 48
steadily 48
sando 48
1178 48
indeed 48
soke 48
Xi 48
7,@@ 48
naishi 48
Kyoku 48
Yoshihito 48
myoshu 48
movable 48
insul@@ 48
Influ@@ 48
astrology 48
cow@@ 48
garments 48
okan@@ 48
horse-@@ 48
usubi 48
intellectuals 48
Nakatsukasasho 48
dinner 48
Senzai 48
Ribbon 48
obedience 48
shichi 48
Bar@@ 48
Uchuben 48
dancer 48
Yamatohime 48
legislative 48
Shingaku 48
Sadamune 48
distilled 48
ogy 48
an-cho 48
fake 48
Ide@@ 48
Noz@@ 48
eighteenth 48
icate 48
OKI@@ 48
enced 48
Roads 48
Juo 48
pain@@ 48
resist 48
zure 48
Sosho 48
bue 48
Nohgakushi 48
859 48
repe@@ 48
component 48
kanin 48
ights 48
requiring 48
battalion 48
abushi 48
northeastern 48
intimate 48
Koetsu 48
Yab@@ 48
fukusa 48
Imazu 48
ateg@@ 48
Daibutsu 48
ached 48
Tem@@ 48
SONO 48
promising 48
Kata 48
Sod@@ 48
Tsutsu@@ 48
gn@@ 48
Wani 48
Shizugatake 48
Masatoshi 48
entertainers 48
Hangan 48
WAKE 48
Sadanji 48
adjust 48
practitioner 48
amae 48
certainly 48
Chikur@@ 48
Yasuk@@ 48
acking 48
ony 48
Taima 48
koden 48
cin@@ 48
great-grandfather 48
doji 48
Higashiyama-@@ 48
Hirosaki 48
1623 48
Monzaemon 48
Rescript 48
oes 48
arding 48
Kutsuki 48
Juso 48
Nariakira 48
Hib@@ 48
emura 48
4,000 48
Sanehira 48
ugg@@ 48
Masamitsu 48
Gokur@@ 48
Sann@@ 48
Kuyo 48
Collections 48
indication 48
lavatory 48
Daijokanpu 48
reflect 48
hook 48
Acts 48
Princesses 48
ma-@@ 48
Bas@@ 48
Gakkai 48
may@@ 48
iju 48
Large 48
affil@@ 48
advantages 48
perf@@ 48
Wakas@@ 48
Sadatsuna 48
Chu-@@ 48
Japan@@ 48
Hira 48
KISO 48
entries 48
assault 48
exchanging 47
arashi@@ 47
net 47
sting 47
ingu@@ 47
Self-Defense 47
1844 47
Terumasa 47
toppings 47
directing 47
postal 47
sav@@ 47
on-do 47
ept 47
Shigetsugu 47
oza 47
Kanz@@ 47
granddaughter 47
delib@@ 47
encounter 47
Senn@@ 47
fry 47
Death 47
Yatsushiro 47
Shigehide 47
no-kami 47
Gosai 47
firewood 47
Nakajima 47
Ononomiya 47
Eb@@ 47
consul@@ 47
Current 47
Shimo@@ 47
Gre@@ 47
relieved 47
YAMASHI@@ 47
shu-ji 47
awa-mura 47
fle@@ 47
azane 47
SAKATA 47
Horse 47
strived 47
1597 47
Takatsukasa 47
Saio 47
alled 47
é@@ 47
Kokyo 47
Saku 47
1822 47
Shizuk@@ 47
Sogi 47
1532 47
Tane@@ 47
Kyujutsu 47
Akifusa 47
triad 47
Chog@@ 47
angu 47
mushrooms 47
clashed 47
ogu 47
Katsumi 47
Kanmon 47
spare 47
Inari-jinja 47
kotoba 47
ment@@ 47
Italian 47
Vis@@ 47
Taigoku 47
advantageous 47
begged 47
Kamakura-@@ 47
touched 47
Protocol 47
Sano 47
reli@@ 47
Kokugaku 47
surely 47
sento 47
etically 47
kiri 47
fy 47
conferment 47
1613 47
bol@@ 47
mushroom 47
Brah@@ 47
Ietada 47
desirable 47
high-speed 47
Scroll 47
waki 47
sot@@ 47
Nagar@@ 47
Kazoku 47
indic@@ 47
burst 47
est-@@ 47
BASHI 47
Murasakino 47
Tenshin 47
eously 47
worshipping 47
Yura-gawa 47
Kojima 47
pace 47
Kagey@@ 47
Unknown 47
net@@ 47
YOSHI 47
Char@@ 47
Xi@@ 47
ayo 47
TAKECHI 47
Shuni-e 47
ryu-ji 47
Goten 47
delay 47
Joj@@ 47
1845 47
nationally 47
gas@@ 47
labeled 47
Sumida 47
高@@ 47
Zui@@ 47
Yorit@@ 47
canceled 47
Our 47
comprising 47
Kumag@@ 47
た@@ 47
jiz@@ 47
Goryo 47
Mongolia 47
witnessed 47
teg@@ 47
supervise 47
） 47
Urin 47
cruc@@ 47
1788 47
Mukomachi 47
Geben 47
cure 47
anch@@ 47
西@@ 47
haka 47
Kuden 47
screen@@ 47
hou 47
elegance 47
Zo 47
tub 47
cheap 47
urak@@ 47
crew 47
amune 47
eishu 47
Saimei 47
lacks 47
comfort 47
imura 47
mos@@ 47
cleared 47
replica 47
boun@@ 47
competitions 47
pleased 47
KIRINO 47
aft 47
ys 47
Mutsu@@ 47
otic 47
arrives 47
colorful 47
Mappo 47
tally 47
formulated 47
constructions 47
oichi 47
petals 47
itsuke 47
Oshik@@ 47
Liang 47
auji 47
dian 47
lem@@ 47
wayo 47
warming 47
ense 47
Kogi 47
Surutto 47
Bell 47
bachi 47
reversed 47
colon@@ 47
1428 47
Zoshi 47
attracting 47
Sugoroku 47
morals 47
enlarged 47
e-ryu 47
e-dera 47
sharp@@ 47
Kashiwara 47
arrange 47
Morisada 47
Yoritaka 47
carpenter 47
Genshi 47
Sites 47
kita 47
Ogura-ike 47
mint 47
itude 47
Someiyoshino 47
zong 47
marrying 46
st-@@ 46
Suden 46
precisely 46
outnumbered 46
o-san 46
idd@@ 46
Viscount 46
implementing 46
Princi@@ 46
Gakuin 46
995 46
Karafuto 46
enom@@ 46
Nos. 46
SAKA@@ 46
Hoju-ji 46
Majesty 46
Gojo-@@ 46
1832 46
denju 46
parliament 46
exaggerated 46
Gokuraku 46
jisha-bugyo 46
hic 46
jumped 46
yukaku 46
deep-@@ 46
commanding 46
skillful 46
aster 46
Michimori 46
jacket 46
recomm@@ 46
Nishiki 46
Female 46
questionable 46
deri@@ 46
Obon 46
alizing 46
myojin 46
habit 46
targeted 46
Sadatsugu 46
1624 46
paradise 46
ousness 46
suspension 46
conscious 46
e--@@ 46
ener@@ 46
William 46
1669 46
akusa 46
standardized 46
shugoshiki 46
Kow@@ 46
Ikkyu 46
tama 46
timing 46
Yoshiyuki 46
udan 46
Tadahiro 46
KIBI 46
corruption 46
izumi 46
oyuki 46
1800 46
a-shima 46
cook@@ 46
emori 46
mented 46
Kannon-ji 46
safely 46
Hachi 46
rates 46
contests 46
Kuse-gun 46
Nagamasu 46
ujo 46
cormorants 46
penal 46
Liquor 46
Ashio 46
yielding 46
linking 46
mistakes 46
Yellow 46
Toin 46
Inpu 46
manif@@ 46
Dev@@ 46
ocation 46
Kinyo 46
Nagai 46
Otokuni-gun 46
Keisho 46
imatsu 46
津@@ 46
sog@@ 46
VII 46
Kuri 46
sub-temples 46
Nakamur@@ 46
cong@@ 46
fiber 46
Fujita 46
Jurakudai 46
Opening 46
Hachiman@@ 46
zither 46
Hase-dera 46
edible 46
kaiseki 46
ko-in 46
global 46
floods 46
arbit@@ 46
recite 46
Wakana 46
bond 46
authorization 46
Judicial 46
abandon 46
abundant 46
Received 46
hus@@ 46
NJI 46
Shoka 46
Enshin 46
loose 46
isaki 46
guilty 46
Nishig@@ 46
journ@@ 46
kokudaka 46
kage 46
archi@@ 46
Atai 46
somebody 46
ba-@@ 46
1167 46
Contest 46
tassel 46
yuzu 46
punish 46
economical 46
arrowhead 46
i-do 46
ishig@@ 46
mild 46
HIKI 46
shocked 46
Roei 46
Yume 46
Motonobu 46
Principal 46
tamago 46
Akimitsu 46
SHIJO 46
Yakamochi 46
guessed 46
Kintaro 46
Jun 46
ano-jinja 46
sado 46
南@@ 46
apping 46
Ebisu 46
inexpensive 46
Tsuneyoshi 46
1567 46
hind@@ 46
classifications 46
Dong@@ 46
one-way 46
lottery 46
obviously 46
bow@@ 46
pipe 46
法 46
HOSHO 46
bead 46
四@@ 46
lic 46
elec@@ 46
ala 46
Acc@@ 46
disappointed 46
manip@@ 46
pride 46
Fuyu@@ 46
比@@ 46
1,500 46
quasi-@@ 46
tutor 46
bare 46
OIKAWA 46
exhibits 46
fishermen 46
AN 46
constant 46
lation 46
Track 46
broadly 46
Att@@ 46
Sanjonishi 46
SASSA 46
kub@@ 46
Komaro 46
ident 46
Johei 46
Sukehito 46
1617 46
Heijo-kyu 46
Shishigatani 46
tured 46
utensil 46
Pictures 46
Ju-kyo 46
Heijokyo 46
mast@@ 46
Sagi 46
estim@@ 46
spon@@ 46
ords 46
respond 46
shoden 46
veranda 46
soshi 46
mairi 46
Kuro 46
Chubu 46
Jodo-@@ 46
ston@@ 46
Sekishu 46
believing 46
zi 46
Don 46
2010 46
day@@ 46
Student 46
Kanei-ji 46
UEMURA 46
yori@@ 46
po-@@ 46
chazuke 46
foothold 46
NOUCHI 46
Kaisha 45
reflects 45
Asahiko 45
documented 45
deciding 45
ami@@ 45
pairs 45
hostile 45
monjosho 45
shadow 45
postponed 45
1608 45
amino 45
Tori@@ 45
ISONOKAMI 45
Michinori 45
competent 45
got@@ 45
daini 45
Zenkoku 45
supernatural 45
induc@@ 45
crab 45
Hyoe 45
Events 45
Created 45
adulthood 45
clean@@ 45
riv@@ 45
chaya 45
asa-@@ 45
consistent 45
voluntarily 45
SHITA 45
shita 45
koke 45
Hachiman-@@ 45
zing 45
indirectly 45
Kokus@@ 45
Yorimoto 45
differentiate 45
Gyoko 45
DAI 45
Teachings 45
moku 45
tsun@@ 45
Takatori 45
Perf@@ 45
Tenpyo 45
danchi 45
ll 45
translator 45
od 45
mineral 45
Nij@@ 45
Kunaikyo 45
idono 45
iro@@ 45
Danshichi 45
Hosono 45
fencing 45
Numazu 45
ising 45
部@@ 45
wounded 45
omatsu 45
drowned 45
Masakatsu 45
zones 45
wara 45
Mido 45
Taima-dera 45
1654 45
KUNI@@ 45
kuro 45
Terakoya 45
crushed 45
thro@@ 45
anti-shogunate 45
YOSHIKAWA 45
fortunes 45
govern@@ 45
Ono@@ 45
infl@@ 45
Words 45
Tenmabashi 45
aces 45
Ryotaro 45
icit 45
li 45
ashio 45
positively 45
uation 45
urely 45
kid@@ 45
1648 45
delic@@ 45
learnt 45
akushu 45
Honzan 45
Karu 45
peac@@ 45
TANUMA 45
Kurum@@ 45
laborers 45
Prepar@@ 45
ods 45
e-gawa 45
land-@@ 45
1836 45
argue 45
mobilization 45
ryaku 45
entrances 45
清@@ 45
Tadafusa 45
rage 45
obstruc@@ 45
yas@@ 45
Soviet 45
score 45
Child 45
robes 45
Boat 45
aden 45
amp 45
Met@@ 45
yomi 45
Takamoto 45
acle 45
moun@@ 45
tory 45
aira 45
ho-ji 45
organ@@ 45
Gam@@ 45
Saeki 45
相@@ 45
locked 45
York 45
semi-express 45
liber@@ 45
Choj@@ 45
publisher 45
mobile 45
week@@ 45
HO 45
1.5 45
II@@ 45
anobu 45
Archaeological 45
smith 45
trends 45
visual 45
Kishiwada 45
Sanjusangen-do 45
icated 45
Moritoki 45
reaction 45
Yamashin@@ 45
astronomical 45
ther 45
Spec@@ 45
Yamauchi 45
asobi 45
accessories 45
zaibatsu 45
oryo 45
Nobeoka 45
1691 45
liv@@ 45
aso 45
stip@@ 45
1818 45
Admiral 45
flags 45
aun@@ 45
Otom@@ 45
Kuze 45
dissem@@ 45
pacification 45
Risshu 45
enlightened 45
puku-ji 45
turret 45
decapitated 45
Myoseki 45
intellectual 45
1833 45
海@@ 45
misunderstanding 45
condemned 45
cent 45
Gishiwajinden 45
Den 45
Attached 45
Hun@@ 45
Shinpo 45
Kaju-ji 45
Senshu 45
pursuing 45
Nom@@ 45
extinguished 45
Kanzeon 45
Komaki 45
oka-@@ 45
ohashi 45
aoi 45
Insurance 45
disturbances 45
Bos@@ 45
hollow 45
Ju-@@ 45
spoke 45
breeding 45
ZA@@ 45
dozen 45
sokyoku 45
incomplete 45
mash 45
hanko 45
indai 45
Iwai 45
Nakat@@ 45
icking 45
gardening 45
Neg@@ 45
Undo 45
cop@@ 45
Heavenly 45
translations 45
ister 45
ped@@ 45
Time 45
discriminated 45
meshi 45
Yoritsugu 45
Kurashiki 45
Poem 45
Studios 45
employment 45
reclaimed 45
cons@@ 45
ego 45
Eison 45
ache 45
sympathy 45
Jisho-ji 45
searching 45
é 45
Imperi@@ 45
mune 45
Kyonyo 45
triump@@ 45
Ryug@@ 45
omiya-@@ 45
1171 45
Kikkawa 45
Tatsut@@ 45
Sotetsu 45
Rules 45
chaire 45
amat@@ 45
no-ji 45
Policy 45
respects 44
wind@@ 44
esaburo 44
ceramics 44
AMI@@ 44
oak 44
Umakai 44
anyorai 44
Morot@@ 44
Settsu-Genji 44
Hosei 44
Rinshi 44
chug@@ 44
Kura 44
Ningyo 44
aru@@ 44
mir@@ 44
Shigeyuki 44
monkey 44
Advisor 44
chieftain 44
cloud 44
Sangyo 44
Kawaramachi-dori 44
Otoshiyori 44
Tain@@ 44
Ujinori 44
Seeing 44
Murakumo 44
fulfill 44
Taka 44
Oyori 44
pow@@ 44
dedication 44
Tozan 44
Kanehira 44
Taga-jo 44
dealer 44
shigo 44
convey@@ 44
Zasshi 44
flame 44
Tow@@ 44
honors 44
Junko 44
Beginning 44
onigiri 44
von 44
commemoration 44
Eitoku 44
Tsuwano 44
oemon 44
1351 44
sely 44
Shonyo 44
fuda 44
aristocrat 44
courtiers 44
shut 44
wins 44
baiu 44
Chom@@ 44
Nobutoyo 44
sad@@ 44
kne@@ 44
activ@@ 44
Komyo-ji 44
Tenjin@@ 44
ballads 44
Highness 44
Mifune 44
plac@@ 44
も@@ 44
Tosho 44
she@@ 44
Chim@@ 44
Literary 44
Otow@@ 44
Kn@@ 44
ishment 44
1828 44
fire@@ 44
Godai@@ 44
Ue@@ 44
松@@ 44
Matsukaze 44
cargo 44
defending 44
petitions 44
ition@@ 44
Seiji 44
person@@ 44
uto-@@ 44
uban 44
Nobuo 44
Oke 44
hits 44
simplicity 44
ney 44
Warriors 44
treatise 44
common@@ 44
ood@@ 44
yukai 44
hab@@ 44
ohime 44
rivalry 44
modi@@ 44
undertaken 44
Charter 44
Gokogon 44
1851 44
ochin 44
kozo 44
Japan-Korea 44
correctly 44
Sanga 44
osada 44
irregular 44
,000-koku 44
Sait@@ 44
esting 44
van@@ 44
Shinsei 44
Advanced 44
Suita 44
MIBU 44
1643 44
minimum 44
ah 44
reprinted 44
eted 44
Zent@@ 44
FUNYA 44
King@@ 44
Shoshin 44
invading 44
Toshihito 44
'etat 44
tamag@@ 44
sakaki 44
Seito 44
Matsumae 44
ん@@ 44
azuchi 44
straigh@@ 44
Translation 44
hypothesis 44
sharing 44
Harum@@ 44
amalgamation 44
erc@@ 44
eiji 44
Groups 44
symbolized 44
Valley 44
Iwata 44
compose 44
chorus 44
western@@ 44
Yachiyo 44
Kutsuk@@ 44
convic@@ 44
OZAKI 44
eigh@@ 44
jaya 44
1709 44
backs 44
enshi 44
sweetness 44
hei-@@ 44
Still 44
scr@@ 44
Toda 44
Kand@@ 44
Tod@@ 44
Tanka 44
proud 44
amendment 44
ozo 44
Force 44
unnecessary 44
tempo 44
770 44
門 44
Tosando 44
boil 44
experiences 44
MATSUDONO 44
hyojoshu 44
Mitsuyasu 44
patterned 44
Totsukawa 44
Tenm@@ 44
flank 44
right-hand 44
Kunaisho 44
subjugated 44
Plan@@ 44
let@@ 44
John 44
Mizun@@ 44
creatures 44
hara-@@ 44
peri@@ 44
1581 44
okoku 44
Chukyo 44
Tramway 44
Tadashige 44
ef 44
merits 44
Izumo-@@ 44
Nas@@ 44
yama-kofun 44
sickness 44
Av@@ 44
switch 44
Kanko 44
Mih@@ 44
pity 44
Sadataka 44
burner 44
yl 44
prin@@ 44
Nijo-@@ 44
1846 44
forgotten 44
Treatise 44
natur@@ 44
Kanmu-Heishi 44
Formerly 44
exam 44
Matsukata 44
Yot@@ 44
Itsukushima-jinja 44
bullet 44
nig@@ 44
north-@@ 44
KURI@@ 44
fill 44
Ohime 44
Cemetery 44
ort@@ 44
lement 44
Azuchi-@@ 44
happens 44
heavens 44
jiang 44
Myoho 44
Shino 44
Noshi 44
reluctant 44
Moritsuna 44
Tofu 44
Sokui 44
Uta-awase 44
willow 44
consequence 44
video 44
eiden 44
Up 44
1698 44
Ste@@ 44
nyorai 44
feed 44
spinning 44
ille 44
Ⅱ 43
LI@@ 43
Dan 43
Used 43
Goryo-eji 43
Sumiyuki 43
Characteristics 43
Sing@@ 43
1798 43
kashi@@ 43
Mush@@ 43
mediate 43
tongue 43
arch 43
itable 43
kumigashira 43
Common 43
encouraging 43
645 43
Card 43
red@@ 43
Revolt 43
tenkoku 43
Imadegawa-dori 43
倭@@ 43
Mitsunobu 43
fancy 43
1334 43
apology 43
ま@@ 43
automatically 43
tane 43
ZUKI 43
the-@@ 43
vote 43
caps 43
superiority 43
Yagura 43
taiko 43
Chushin 43
Wam@@ 43
jusho 43
Count 43
SHINDO 43
extr@@ 43
Iwakuni 43
Muneshige 43
Zan@@ 43
imiya 43
ryo-@@ 43
enclosure 43
stre@@ 43
Flo@@ 43
adap@@ 43
Shunju 43
atsur@@ 43
Hanako 43
gourd 43
sted 43
Kintsune 43
efs 43
devote 43
2.5 43
Shimoda 43
noon 43
animation 43
punishments 43
ough@@ 43
Hoori 43
Kenko 43
oju 43
was@@ 43
Different 43
cultivate 43
,00@@ 43
repairing 43
physically 43
Performers 43
Dog@@ 43
uta-awase 43
960 43
iyuki 43
Account 43
retail 43
wisteria 43
久@@ 43
Hokke-do 43
cured 43
Raig@@ 43
Eikyo 43
asen 43
comical 43
valid 43
grad@@ 43
Tokiyuki 43
objected 43
eting 43
bridal 43
Hikohito 43
One-@@ 43
Hironari 43
inevitable 43
Obi 43
Yuzu 43
Onamuji 43
turtle 43
OKITA 43
IWASAKI 43
Okuni 43
Takeshi 43
katsuobushi 43
Oath 43
incurred 43
shinkai 43
武@@ 43
Tetsug@@ 43
tank 43
1169 43
teru 43
Kiha 43
accidents 43
lowered 43
Specifically 43
okara 43
Fushim@@ 43
Kocho 43
coalition 43
guides 43
oha 43
Paulownia 43
forestry 43
epitaph 43
akiri 43
1640 43
constitute 43
commemorative 43
explos@@ 43
persimmon 43
monk-@@ 43
ani-@@ 43
Takek@@ 43
round-trip 43
Takatora 43
Hokkeshu 43
num@@ 43
eig@@ 43
okoji 43
divorce 43
Hatto 43
Changan 43
信@@ 43
Descendants 43
self-governing 43
souvenir 43
Politics 43
refuse 43
Jokei 43
fuyu 43
fail 43
Routes 43
Kamigamo-jinja 43
Toshin@@ 43
Tojo 43
miraculous 43
Initial 43
Boso 43
き@@ 43
obue 43
1695 43
hol@@ 43
ined 43
aint 43
1802 43
Wakamiya 43
ulations 43
Ie 43
simmered 43
uncommon 43
fed 43
arrogant 43
octagonal 43
water-@@ 43
fees 43
toka 43
shuttle 43
makie 43
inu 43
encouragement 43
Sakuramachi 43
27th 43
Sukemasa 43
朝@@ 43
ANO 43
mortar 43
Kodai-ji 43
protr@@ 43
Atsuta-jingu 43
beneath 43
定@@ 43
messages 43
1559 43
doubts 43
Shinto@@ 43
Sachuben 43
Shoshi@@ 43
duel 43
eirei 43
Cat@@ 43
eased 43
Aff@@ 43
axis 43
soku@@ 43
mokkan 43
29th 43
sent@@ 43
wrist 43
pictorial 43
wandered 43
indul@@ 43
Universities 43
circumstance 43
legged 43
embankment 43
licensed 43
Nur@@ 43
imply 43
roofing 43
devotion 43
medal 43
ogen 43
tea-ceremony 43
handsome 43
1191 43
invasions 43
1604 43
dei 43
Sadatsune 43
enaka 43
Range 43
won@@ 43
prot@@ 43
announce 43
retain 43
aggressive 43
instant 43
1563 43
tenmangu 43
Gengobe 43
華@@ 43
Minamik@@ 43
Kikan 43
Niou 43
no-miya 43
Kuji 43
fortune-telling 43
Tadatoshi 43
1186 43
729 43
Nagak@@ 43
Gifu-jo 43
Kanetsugu 43
Aiz@@ 43
chuk@@ 43
Chang 43
Datsu-A 43
enkan 43
agaku 43
tant 43
imasa 43
obon 43
Kurume 43
mist@@ 43
discount 43
Wife 43
travelling 43
turn@@ 43
dwellings 43
aten 43
Yorisada 43
1543 43
minds 43
Assumed 43
iseki 43
1607 43
amic 43
Shimotsuki 43
Fleet 43
interc@@ 43
sakamai 43
Rikkokushi 43
wabi 43
Milky 42
separ@@ 42
Amenowakahiko 42
beforehand 42
aji-@@ 42
emissary 42
concentrate 42
altern@@ 42
devil 42
explaining 42
resentment 42
acquiring 42
eni 42
atsumi 42
Kitakyushu 42
firef@@ 42
ames 42
heroic 42
Hon-@@ 42
740 42
dia 42
despair 42
Yata 42
kanshi 42
thinner 42
tsur@@ 42
accessible 42
depiction 42
demotion 42
Fort 42
Atsuakira 42
o-dera 42
Jutaro 42
Nakahara 42
Essays 42
erupted 42
Districts 42
Komon 42
midst 42
Shoshiinojo 42
dei@@ 42
Chemistry 42
entities 42
Concurrently 42
Nov@@ 42
votive 42
Jitsunyo 42
Rengo 42
Tatsun@@ 42
Oh 42
Bronze 42
kos@@ 42
Jushiijo 42
Moromichi 42
Fil@@ 42
ground@@ 42
Teradaya 42
Nishioji 42
Koku 42
Members 42
setsuwa 42
uj@@ 42
haimyo 42
Hanzo 42
Suburban 42
uster 42
entr@@ 42
viol@@ 42
Sac@@ 42
jog@@ 42
briefly 42
ensis 42
Ame@@ 42
cans 42
Mam@@ 42
undai 42
onions 42
moisture 42
loincloths 42
yago 42
Rakuyo 42
Kuzuha 42
divinity 42
1549 42
mantra 42
Daisuke 42
utes 42
stolen 42
MASUDA 42
senbei 42
post-@@ 42
Americans 42
mad@@ 42
popularly 42
Succ@@ 42
machi-@@ 42
cursive 42
flavors 42
specify 42
SAKAKIBARA 42
survey@@ 42
altitude 42
sheltered 42
holl@@ 42
sman 42
Jiuta 42
all-@@ 42
115@@ 42
win@@ 42
latt@@ 42
dissolve 42
nit@@ 42
percussion 42
Hoji 42
tight 42
Kes@@ 42
nishi 42
aired 42
50th 42
crow 42
tail@@ 42
mikuriya 42
topping 42
lane 42
structured 42
mortuary 42
differentiated 42
1628 42
relay 42
stuffed 42
Locomotive 42
yourself 42
impose 42
emakimono 42
Democratic 42
river@@ 42
mad 42
Roshigumi 42
crying 42
customarily 42
wari 42
crack@@ 42
Mokuroku 42
pour 42
paddies 42
shogatsu 42
igami 42
neutral 42
renounced 42
Constructed 42
Festa 42
ropes 42
coordin@@ 42
delegated 42
Sumida-gawa 42
Correspon@@ 42
1644 42
western-style 42
ONO@@ 42
robbed 42
VI 42
Kanadehon 42
tiled 42
Contemporary 42
flourishing 42
KUWA@@ 42
tegotomono 42
violated 42
narratives 42
landing 42
Nissan 42
accommodation 42
hard-@@ 42
Kazun@@ 42
emaro 42
stir@@ 42
Yanagimoto 42
Bussetsu 42
otoko 42
shallow 42
Kyakushiki 42
bashira 42
ri-@@ 42
Kiri 42
broad@@ 42
frying 42
Haiden 42
osition 42
Dayu 42
ion-@@ 42
く@@ 42
Bod@@ 42
ekane 42
Histor@@ 42
small-scale 42
石@@ 42
SHONI 42
sodo 42
praising 42
unrelated 42
naidaijin 42
teen-@@ 42
Annual 42
eship 42
Shoroku 42
oming 42
informing 42
Bok@@ 42
falconry 42
pin@@ 42
attractive 42
Hokke-ji 42
nec@@ 42
chestnut 42
alternately 42
ture-@@ 42
Ura 42
Rites 42
Shiko 42
controversial 42
stim@@ 42
aiin 42
setsu@@ 42
reinstated 42
fir@@ 42
complained 42
Gonijo 42
1716 42
ighting 42
eeds 42
arranging 42
Josui 42
orthodox 42
Gaya 42
a-ya 42
stress 42
Yamato-e 42
izuka 42
imagine 42
Hitachi-@@ 42
Hashidate 42
Izo 42
long-term 42
Crit@@ 42
awards 42
Zhu 42
vendor 42
tuning 42
poles 42
Rakusai 42
drafts 42
fam@@ 42
a-kaido 42
ight@@ 42
denso 42
Sakihisa 42
knees 42
shine 42
prestigious 42
Tadaharu 42
Masatake 42
senke 42
Jiyu 42
nights 42
seng@@ 42
Vol@@ 42
blame 42
Super@@ 42
enshrinement 42
nikki 42
Mitsuie 42
tenant 42
HIROHASHI 42
routed 42
Atago-jinja 42
Christ 42
Hoshi@@ 42
ost@@ 42
grinding 42
ekyo 42
ired 42
akat@@ 42
Buraku 41
ith 41
affect 41
Star 41
Ryoko 41
Kai-Genji 41
Chikushi 41
Ikegami 41
enosuke 41
Iehiro 41
Cap@@ 41
icked 41
Ebi@@ 41
endeavored 41
porcelain 41
YANAGISAWA 41
vill@@ 41
sad 41
Shinsaku 41
hanamachi 41
definitely 41
inal 41
Jew@@ 41
1665 41
Restaurant 41
plotting 41
cartoon 41
wants 41
filming 41
specters 41
Yamaga 41
Tsuru@@ 41
criticisms 41
dipping 41
Akaz@@ 41
tal 41
Yuko 41
1193 41
ebon 41
crowded 41
Meg@@ 41
resource 41
index 41
Guji 41
miles 41
12.@@ 41
accommod@@ 41
Shogoi 41
Kurododokoro 41
Masakiyo 41
breakdown 41
Monchujo 41
Hongi 41
Shorokuinojo 41
wings 41
Busho 41
e-like 41
mentioning 41
Infrastructure 41
Renjun 41
uroku 41
ikage 41
Gengo 41
Meio 41
tations 41
advertis@@ 41
statements 41
extrac@@ 41
catching 41
Oike-dori 41
SEGAWA 41
igata 41
whisky 41
rebellions 41
Val@@ 41
Kawabata-dori 41
Shinsen@@ 41
roto 41
pation 41
eme 41
Nap@@ 41
dirt 41
cen@@ 41
1246 41
759 41
earnest 41
unglazed 41
168@@ 41
chika 41
loy@@ 41
izan 41
zuka-kofun 41
blank 41
Gunsho 41
Songs 41
anal@@ 41
raided 41
laver 41
sokuikanjo 41
eze 41
Hitoyoshi 41
Regular 41
Dajodaijin 41
Kameyama-jo 41
Sadanori 41
ickly 41
Sando 41
akaya 41
Shinomiya 41
tub@@ 41
taji 41
Sumiyoshi-@@ 41
Oi-gawa 41
wheels 41
Myo 41
Mansaku 41
approaching 41
legislation 41
ells 41
BC 41
Minobu 41
honke 41
Fragment 41
minced 41
Guang@@ 41
OHARA 41
courtesan 41
Kansai-@@ 41
Ujin@@ 41
Ishibashi 41
SUWA 41
行@@ 41
Tokuro 41
UCHIDA 41
shige 41
corporate 41
deified 41
HAMA@@ 41
Seimu 41
bosatsu 41
Jodai 41
Ukita 41
ill-@@ 41
udani 41
courage 41
architect 41
A-@@ 41
delicious 41
izuk@@ 41
Norimasa 41
hs 41
1195 41
Mae 41
Muryo@@ 41
sequence 41
Catholic 41
Michitoshi 41
Kitabatake 41
824 41
Kisha 41
shining 41
Kanjuro 41
9.@@ 41
1673 41
ra-@@ 41
kiy@@ 41
v 41
Gosen 41
annotations 41
Kunitomo 41
flatt@@ 41
watch@@ 41
Kanemitsu 41
豊@@ 41
Togashi 41
igation 41
clarified 41
empire 41
rine 41
Tochi 41
ya@@ 41
15-@@ 41
reform@@ 41
stadium 41
idani 41
chron@@ 41
1165 41
Shikibu-sho 41
Vice-Councilor 41
Genzo 41
Rokujo-@@ 41
Oyamazaki-cho 41
Coast 41
sentiment 41
aws 41
expectations 41
Katano 41
inhabited 41
odani 41
overwhelming 41
imagined 41
Enjaku 41
hall@@ 41
Mug@@ 41
Chan@@ 41
Ingo 41
wage 41
up-@@ 41
palm 41
money@@ 41
ian@@ 41
Oigimi 41
irim@@ 41
以@@ 41
Shiz@@ 41
humble 41
eiin 41
keys 41
pression 41
nel 41
petitioned 41
SHIGE@@ 41
Environmental 41
Tamaki 41
determining 41
KUDO 41
akata-@@ 41
Choei 41
Heart 41
FUNA@@ 41
Chin 41
revenues 41
夜@@ 41
Shoo 41
stabbed 41
oromo 41
YAGYU 41
Kanami 41
Obito 41
thorough 41
Motoie 41
challenge 41
criteria 41
spir@@ 41
-gumi 41
taku 41
Fukuro@@ 41
Shinobu 41
da-@@ 41
1662 41
Steam 41
thirty-six 41
speculation 41
teenth 41
adultery 41
appropri@@ 41
Muryoju-kyo 41
Expedition 41
Tei 41
ogen@@ 41
mic 41
Ryoan-ji 41
umen 41
川@@ 41
weeks 41
suff@@ 41
記 41
1700 41
Journal 41
1684 41
amawari 41
Yase 41
chestnuts 41
shikishi 41
publish 41
Kent@@ 41
flies 41
Tsuyama 41
Zenjo 41
reputed 41
feud@@ 41
Soka 41
umu 41
rinji 41
remembered 41
esato 41
入@@ 41
1213 41
creates 41
JA@@ 41
Kashima 40
Zenko-ji 40
Coffee 40
all-out 40
blowing 40
Yoshikado 40
JIMYOIN 40
Bet@@ 40
spelled 40
徳@@ 40
ahiko 40
Profile 40
Girl 40
1680 40
Usa-jingu 40
1620 40
wrap 40
Ujizane 40
airo 40
pointing 40
Abolished 40
nav@@ 40
ro-cho 40
snack 40
Manga 40
cel@@ 40
Can@@ 40
fuko 40
kann@@ 40
SEN@@ 40
Koten 40
yo-cho 40
adaptation 40
1779 40
notified 40
erry 40
pun 40
atori 40
Masao 40
akin 40
perpet@@ 40
Bogo 40
Yasutane 40
Sakamoto-jo 40
shoguns 40
admission 40
domestically 40
user 40
Takafuji 40
Pi@@ 40
komon 40
1554 40
Honkoku-ji 40
Hiko@@ 40
bent 40
ushim@@ 40
frames 40
ligh@@ 40
Fujitaka 40
SHIDA 40
Keihoku 40
an-jinja 40
Seoul 40
Separ@@ 40
Naka@@ 40
Hal@@ 40
Himeji-jo 40
Tenbun 40
Miscellaneous 40
Kao 40
fur 40
Kanto-@@ 40
Korenori 40
Gijuku 40
idera 40
ji-jo 40
SOMA 40
Aizu-@@ 40
amizu 40
brewers 40
Gion@@ 40
Sorai 40
Teahouse 40
inconsistent 40
interchange 40
Cit@@ 40
crepe 40
hu@@ 40
Yukimura 40
Tex@@ 40
intercalary 40
Yasaka 40
tremendous 40
preach 40
Sanjo-ohashi 40
evalu@@ 40
plectrum 40
uality 40
HOSHI 40
通@@ 40
disclosed 40
Masayori 40
cond@@ 40
synonym 40
auta 40
Aobyoshi-bon 40
ifuku 40
良@@ 40
Students 40
Gose 40
1536 40
acceded 40
inappropriate 40
Batt@@ 40
recommend 40
me-@@ 40
hast@@ 40
1441 40
ema 40
Gentaku 40
traders 40
ubi 40
defected 40
Daijo-in 40
Sengoro 40
subtle 40
Takamitsu 40
Kojun 40
ashi-cho 40
i-in 40
tenryo 40
seong 40
Happ@@ 40
rely 40
Godai 40
eption 40
Otoko 40
osaka 40
Mahavairocana 40
eving 40
snow@@ 40
一 40
Sw@@ 40
Yangming 40
30-@@ 40
Succession 40
financially 40
breaks 40
Tomonori 40
itoku 40
Bushu 40
Nariyuki 40
院@@ 40
azawa 40
forever 40
SHIMA@@ 40
eon 40
cris@@ 40
Yasuyori 40
dedicating 40
Nomura 40
Nishiyama 40
wom@@ 40
sees 40
cups 40
Ges@@ 40
remarkably 40
dozens 40
YOKO@@ 40
cemetery 40
Ryogen 40
ARA@@ 40
hunted 40
Okiku 40
mothers 40
Swords 40
Ket@@ 40
Rokui 40
otakeru 40
uchi-cho 40
Kotofu 40
unnatural 40
fuku-ji 40
Jesuit 40
Motohira 40
KARASUMARU 40
toko 40
tings 40
Imoko 40
sit@@ 40
doubled 40
Enomoto 40
imitated 40
okujo 40
fixing 40
Gong@@ 40
Ev@@ 40
Divination 40
revisions 40
brands 40
recogn@@ 40
Shoken 40
708 40
Muneharu 40
Yamaz@@ 40
Shikin@@ 40
halfway 40
omei 40
instituted 40
hed 40
ceded 40
SHIBUKAWA 40
1225 40
diplomat 40
adera 40
Shikken 40
Kind@@ 40
maidens 40
rode 40
Koshu-@@ 40
hipped 40
pir@@ 40
communicated 40
Mac@@ 40
organs 40
Bifukumonin 40
Konohana 40
Kumoi 40
ener 40
ashi-dori 40
Kammu 40
Soshu 40
Meeting 40
campaigns 40
shinobue 40
parks 40
kuchi@@ 40
ires 40
suburban 40
Nagaoka-kyo 40
1350 40
harmful 40
attribu@@ 40
identally 40
ayuki 40
HIROSE 40
ITAKURA 40
onna 40
Tojiin 40
towel 40
notification 40
Shigaraki 40
Zu 40
convey 40
suffix 40
Equinox 40
beverage 40
Metropolis 40
jir@@ 40
breath 40
YANAGIWARA 40
postscript 40
Kiheitai 40
administrators 40
1670 40
valu@@ 40
tel@@ 40
Bungaku 40
confiscation 40
interrog@@ 40
gy 40
Mino-@@ 40
ce@@ 40
antique 40
Moriyoshi 40
ahar@@ 40
izane 40
Karahashi 40
creature 40
urgent 40
Ishik@@ 40
lam@@ 40
Saiko 40
intelligence 40
quarrel 40
jar 40
gaki 40
事 40
tegoto 40
1806 40
Onami 40
1710 40
pursu@@ 40
BAN 40
Asat@@ 40
pi 40
butai 40
currencies 40
enge 40
intens@@ 40
J-@@ 40
experimental 40
Toshinaga 40
sne@@ 40
tours 40
counts 40
Wag@@ 40
Sokan 40
Hiz@@ 40
1632 40
Yokkaichi 40
complaints 40
hoshu 40
cles 40
reigning 40
benkan 40
ASO 40
versus 40
juzu 40
asses 40
orted 40
877 40
lob@@ 39
Kencho-ji 39
YASUI 39
consistency 39
752 39
fever 39
Shizu@@ 39
gilt 39
Bin@@ 39
Ojo 39
escort 39
ower 39
resistant 39
jinrikisha 39
Is 39
unite 39
idashi 39
1168 39
Nations 39
Okyo 39
inate 39
descending 39
世@@ 39
UN@@ 39
1650 39
pleated 39
Oharano 39
Shibuya 39
Chikayoshi 39
ponds 39
1521 39
RAKU 39
Okura-sho 39
Sakanoue 39
asaku 39
asshi 39
Kenkyu 39
Jihe 39
tables 39
abara 39
Services 39
Daigakuryo 39
eces 39
Yushi 39
Uzaemon 39
Iname 39
sco@@ 39
Zenrin-ji 39
1685 39
ministerial 39
sing@@ 39
hitting 39
beams 39
incantation 39
Toshifusa 39
Motoya 39
trademark 39
rim@@ 39
Organ@@ 39
Luis 39
ppo 39
handwritten 39
compulsory 39
idents 39
torch 39
man-@@ 39
exceeding 39
Ninn@@ 39
kettle 39
Tango-@@ 39
carpenters 39
Kaisho 39
unreasonable 39
kaihatsu-ryoshu 39
Fin@@ 39
eji 39
Gallery 39
ini 39
Koichi 39
top-@@ 39
-in-law 39
Shosei 39
Kojidan 39
Soko 39
Kyoku@@ 39
Seijin-shiki 39
Hatayasu 39
engagement 39
pleaded 39
MORITA 39
TSUBOUCHI 39
ensu@@ 39
l-@@ 39
Sanetsune 39
Koso 39
Exposition 39
Yoshimichi 39
rolls 39
chokusen 39
oxid@@ 39
Matsuda 39
stewed 39
intense 39
Basic 39
Utaawase 39
medicinal 39
Mikawa-@@ 39
Nanboku 39
1771 39
Yah@@ 39
vocal 39
inning 39
Chie 39
nyoin 39
AI@@ 39
oshin@@ 39
Hai 39
suited 39
combinations 39
ekatsu 39
e-mura 39
Musume 39
kang@@ 39
-jinja 39
upper-@@ 39
Tohaku 39
corn@@ 39
美@@ 39
Was@@ 39
inspec@@ 39
sm 39
sprink@@ 39
Senka 39
Hosh@@ 39
Sangoro 39
til@@ 39
unexpectedly 39
Portrait 39
indo 39
Yotsuya 39
Jidai 39
Echigo-@@ 39
Mochitoyo 39
Morichika 39
osan@@ 39
Kokugakuin 39
Tenp@@ 39
hongan 39
pup@@ 39
yashiki 39
Matsugasaki 39
omo@@ 39
challenged 39
kane 39
Gokameyama 39
cultivating 39
reproduced 39
stamps 39
1318 39
uten@@ 39
SUGI 39
eyaku 39
specialist 39
scandal 39
edit@@ 39
signing 39
objection 39
authenticity 39
NAKA 39
yug@@ 39
tunes 39
nobilities 39
Shugen 39
し 39
Fukuchi@@ 39
unify 39
Tamay@@ 39
workshop 39
Tamemitsu 39
ograp@@ 39
colleagues 39
strokes 39
Kogoro 39
Get 39
uhi 39
Tani 39
Quasi-National 39
KOMATSU 39
Healing 39
casual 39
URAGAMI 39
stairs 39
YANAGI 39
お@@ 39
1508 39
Ogi 39
Mansai 39
Sanron 39
nine-@@ 39
Lab@@ 39
wedlock 39
disposed 39
amu 39
Joo 39
Fushu 39
Kozan-ji 39
balanced 39
shield 39
possessing 39
glos@@ 39
Arinori 39
Tsunenori 39
favorably 39
Kobito 39
Teiki 39
deterioration 39
obashi 39
Bunraku 39
Gokoku-jinja 39
hexagonal 39
sla@@ 39
Kagesue 39
upset 39
758 39
acceptable 39
Renmei 39
master-servant 39
excer@@ 39
emig@@ 39
JITSUKAWA 39
Shibata 39
Censors 39
self-defense 39
Tsumasaburo 39
Clause 39
sada 39
NATSUME 39
enders 39
Itsukushima 39
exagg@@ 39
ager 39
basement 39
Dashi 39
Tanba-@@ 39
Hamada 39
Min 39
harm 39
anga 39
chiku 39
beautifully 39
oyasu 39
herbalism 39
manifestation 39
660 39
patriots 39
sometime 39
talents 39
stair@@ 39
Honganji 39
Sukun@@ 39
Cable 39
manages 39
determination 39
Sim@@ 39
Gro@@ 39
excess 39
oyama-@@ 39
TAMA@@ 39
consorts 39
gence 39
fireplace 39
seig@@ 39
celestial 39
excavations 39
bou@@ 39
Nenbutsu@@ 39
bust@@ 39
Hisashi 39
684 39
Karakuni 39
Normally 39
Ugetsu 39
Aizen 39
Departments 39
Arioka-jo 39
susp@@ 39
tournaments 39
Famine 39
YASHIRO 39
sandals 39
applicants 39
enables 39
vendors 39
visitor 39
Toko 39
right-@@ 39
→ 39
Any@@ 39
Yoken 39
surnames 39
large-sized 39
adj@@ 39
Miyakonojo 39
Suzaku-@@ 39
angi 39
kyaku 39
Kampaku 39
sessho 39
Nobutomo 39
Gyoku@@ 39
lighter 39
fu-okonomiyaki 39
bushidan 39
姫 39
KOKU@@ 39
Gosannen 39
decrees 39
ranged 39
pilgrims 39
Fif@@ 39
suigun 39
osed 39
atories 39
machi-bugyo 39
attempting 39
寺@@ 39
wafuku 39
Shomyo 39
Tw@@ 39
itam@@ 39
hoji 39
hobby 39
ihon 39
epidemic 39
Daihonzan 39
had@@ 39
slopes 39
cuts 39
investigating 39
suka 39
gently 39
方@@ 39
1275 39
quietly 39
bottles 39
incorrect 38
Mitsunori 38
Hachijoin 38
glaze 38
iyama-jo 38
ush 38
joso 38
出@@ 38
tachi 38
aligned 38
fragrant 38
1820 38
ikoto 38
1566 38
Atago-san 38
dominion 38
Heihachiro 38
fa@@ 38
auke 38
grants 38
earning 38
Compiled 38
aginu 38
-related 38
Tsunesada 38
shur@@ 38
Ritual 38
Monk 38
alia 38
revolts 38
in-in 38
Sanemori 38
nengajo 38
Chikako 38
Explanation 38
investigations 38
intent 38
tieth 38
manual 38
realizing 38
gosanke 38
Jimoku 38
assen 38
gong 38
Michiyo 38
okan-@@ 38
sailed 38
1626 38
misaki 38
signatures 38
batter 38
OI@@ 38
Fujin 38
akaw@@ 38
Seigetsu 38
手@@ 38
Project 38
small-sized 38
'll 38
KAMEI 38
Nishinomaru 38
citrus 38
Agreement 38
devotees 38
mechanism 38
shredded 38
sever@@ 38
lowly 38
ours 38
abdomen 38
sagaru 38
Cross 38
zuru 38
Kodansha 38
Tadatomo 38
AOYAMA 38
critics 38
Montblanc 38
writes 38
lay@@ 38
Kenjutsu 38
Motoyasu 38
Faith 38
Yura 38
iff@@ 38
citizen 38
Keisei 38
gaku@@ 38
es--@@ 38
cle@@ 38
Cinema 38
camphor 38
Takasuke 38
Over@@ 38
1247 38
suri 38
satis@@ 38
Kuz@@ 38
Odawara-jo 38
mother@@ 38
Oka 38
Ushoben 38
1826 38
dirty 38
tian 38
abstract 38
Mainly 38
bicycle 38
Sarutahiko 38
Fukoku 38
alternatively 38
stro@@ 38
crow@@ 38
relaxed 38
angu@@ 38
purity 38
Doburoku 38
1658 38
Kiyohira 38
Kinshin 38
Ninken 38
Anna 38
treasury 38
Kasuga-jinja 38
119@@ 38
Nakano 38
lending 38
imag@@ 38
emphasizes 38
hegemony 38
Posthumous 38
sticky 38
Acting 38
shugo-@@ 38
discharge 38
cliff 38
Yataro 38
Shochu 38
Shikibukyo 38
specializing 38
Fishing 38
CHO 38
ichijo 38
spared 38
AS@@ 38
Protec@@ 38
kuruwa 38
pressing 38
108 38
189@@ 38
stone-@@ 38
Kujira 38
mystery 38
22nd 38
1704 38
shinai 38
cludes 38
Toro 38
fitting 38
crowd 38
Bei@@ 38
Hongo 38
need@@ 38
Rock 38
warm@@ 38
Takad@@ 38
proceeding 38
Tanb@@ 38
paths 38
HON@@ 38
Kinjo 38
tility 38
Haji 38
purvey@@ 38
archers 38
bream 38
presentation 38
congestion 38
chog@@ 38
zz@@ 38
aggressively 38
IW@@ 38
1564 38
Munemitsu 38
MUTSU 38
Eihei-ji 38
osaki 38
taisho 38
Ise@@ 38
comfortable 38
ofu@@ 38
Play 38
Wall 38
nushi 38
photographs 38
う@@ 38
Jimyo-in 38
Shigetoki 38
Odoi 38
shikin@@ 38
Coll@@ 38
oted 38
exemp@@ 38
shin-ji 38
garrison 38
hata 38
echo 38
a-mon 38
tasting 38
ills 38
should@@ 38
て@@ 38
adequate 38
YANO 38
Castles 38
Tokuseirei 38
Shiragi 38
Tato 38
fault 38
Eisai 38
Takanaga 38
draw@@ 38
singer 38
Graveyard 38
okusho 38
intermediate 38
reconstruct 38
Muramune 38
flowed 38
Shimogamo-jinja 38
oyo@@ 38
defenses 38
Jug@@ 38
insists 38
fill@@ 38
twisted 38
tombstone 38
1207 38
box@@ 38
Sanjusankasho 38
hoe 38
1657 38
ti 38
nyo@@ 38
cable 38
precedents 38
Yanagi 38
baking 38
eshima 38
infant 38
vegetarian 38
symbolizes 38
Omote 38
116@@ 38
licenses 38
historiography 38
Toshimitsu 38
link 38
atures 38
Luli 38
cand@@ 38
Ryokai 38
sail 38
Yorikuni 38
Byodoin 38
resembled 38
ick-@@ 38
Mt.@@ 38
eria 38
KAGAWA 38
vac@@ 38
assassin 38
Fe@@ 38
Ingyo 38
utsu-@@ 38
MIWA 38
Kenjo 38
Chuai 38
Razan 38
repl@@ 38
ribs 38
heisha 38
Jukai 38
HAYASHIYA 38
Shogoinojo 38
Tofukuji 38
Related 38
Soemon 38
Dori 38
ankyo 38
Sadat@@ 38
Akinari 38
o-mura 38
popularized 38
systematic 38
taku@@ 38
compassion 38
Ochi@@ 38
an-jo 38
gakari 38
NAMI 38
Shitsuji 38
95 38
Mansion 38
eks 38
exam@@ 38
neglected 38
794 38
Muchimaro 38
Kinpusen-ji 38
Sadayasu 38
Goryokaku 38
1694 38
kneaded 38
Komatsu 38
scope 38
administr@@ 38
mort@@ 38
tened 38
Shinshichi 38
Ochiba 38
imai 38
figured 38
i-fuda 38
110 38
step@@ 38
scarlet 38
92 38
aragi 38
furisode 38
kiseru 38
Holidays 38
Seki@@ 38
iver@@ 38
Junan 38
weren 38
Tahoto 38
G 38
Masamura 38
Oura 38
門@@ 38
jiya 38
Yob@@ 38
a-hime 38
Norihito 38
bakama 38
Shonen 38
uts 38
egyo 38
Every@@ 38
Daishogun 38
deeper 38
yin 38
agar 38
cooled 37
Honmon-ji 37
gakushi 37
Nagara-gawa 37
Zon@@ 37
oper@@ 37
Shiran@@ 37
umatsu 37
overlapping 37
mudra 37
Sadamoto 37
Iwaki 37
Naoie 37
logical 37
purge 37
erve 37
1274 37
Newly 37
1687 37
forerunner 37
gom@@ 37
isting 37
ahim@@ 37
ales 37
otsuk@@ 37
outs 37
K-@@ 37
1-chome 37
1810 37
Dog 37
ils 37
wagon 37
comprises 37
vitam@@ 37
appo 37
表記の変更 37
house@@ 37
substituted 37
rif@@ 37
Hoei 37
allotment 37
Shizoku 37
賀@@ 37
Bunkyu 37
Wake 37
ahoko 37
yo-no-@@ 37
jizamurai 37
criticizing 37
馬@@ 37
Siebold 37
Lo@@ 37
Otsu-jo 37
mandarin 37
Kai-@@ 37
investment 37
copy@@ 37
depl@@ 37
HORIBE 37
Teg@@ 37
een 37
bury 37
Secret 37
yoi 37
gang 37
stagn@@ 37
Giseikan 37
Danrin 37
Chon@@ 37
Kei 37
Frois 37
Chichi@@ 37
wheel@@ 37
oth@@ 37
Daikakuji-to 37
Jimyoin-to 37
above-@@ 37
anthem 37
hilt 37
Kazuuji 37
Saturdays 37
amended 37
Doshi@@ 37
objections 37
school@@ 37
transparent 37
Tachikawa 37
1238 37
Kashitaro 37
doma 37
Tsunetada 37
ications 37
seas 37
eline 37
rebirth 37
recre@@ 37
Cy@@ 37
percentage 37
commodity 37
iyatsuko 37
Mimawar@@ 37
hamburger 37
altars 37
Senri 37
anori 37
Towns 37
ait 37
Kiki 37
Ikyu 37
hardship 37
sufficiently 37
1683 37
pal@@ 37
banning 37
1493 37
readings 37
Free 37
Itto 37
Mukaijima 37
osato 37
Taikan 37
tram@@ 37
ashamed 37
leaning 37
distinc@@ 37
prowess 37
tem@@ 37
1161 37
mulberry 37
Anegawa 37
Hanwa 37
channel 37
assessed 37
1272 37
tragic 37
SAI@@ 37
SHINOHARA 37
rav@@ 37
Shingyo 37
ojima 37
Senmon 37
prolonged 37
sticking 37
Cars 37
Kita@@ 37
Nagamori 37
1507 37
promotions 37
blades 37
Tadasuke 37
Kenkichi 37
matured 37
conceived 37
1212 37
sch@@ 37
Byak@@ 37
developments 37
1198 37
struggles 37
Pine 37
OSA@@ 37
upstream 37
shouted 37
Myobo 37
1162 37
Rob@@ 37
Cal@@ 37
Burial 37
AMOTO 37
Noboru 37
draws 37
crit@@ 37
Ashik@@ 37
Izushi 37
Takechiyo 37
spro@@ 37
shoko 37
firing 37
Rensho 37
list@@ 37
MIMURA 37
Kojo 37
hn@@ 37
period@@ 37
mondo 37
Koreyasu 37
belly 37
Kuchi@@ 37
agura 37
mustard 37
exercises 37
eer 37
flames 37
iver 37
disrup@@ 37
fisherman 37
cust@@ 37
Daiz@@ 37
Aj@@ 37
Shojin 37
admiral 37
Kojim@@ 37
Kosode 37
Main@@ 37
cherished 37
anners 37
Performance 37
MON 37
Chinju 37
100-@@ 37
high-ranked 37
NOGUCHI 37
Tetsudo 37
5m 37
demanding 37
ado-@@ 37
uchiyo 37
Umaryo 37
201 37
Kamakura-dono 37
Prin@@ 37
chir@@ 37
ful@@ 37
OGIMACHI 37
assisting 37
amid@@ 37
Omuraji 37
DAIGO 37
Keg@@ 37
shoulders 37
nik@@ 37
ajin 37
presided 37
Class@@ 37
embraced 37
Analects 37
Noriko 37
kamado 37
Kawai 37
zasu 37
phonetic 37
Yoriko 37
Korekata 37
abb@@ 37
impressive 37
KYO@@ 37
experiencing 37
Seizan 37
three-stringed 37
pref@@ 37
contribute 37
declare 37
hangan 37
imochi 37
manufacturer 37
mistaken 37
ambig@@ 37
ao-@@ 37
banner 37
fundamentally 37
saint 37
fifty-four 37
HONAMI 37
tailed 37
garan 37
monopoly 37
URA@@ 37
recip@@ 37
recruitment 37
lips 37
Shite 37
reinforce 37
ague 37
Yugen 37
ede 37
Daido 37
fude 37
bog@@ 37
Tax@@ 37
prisoners 37
Eno 37
circum@@ 37
Retur@@ 37
Saga-Genji 37
Okura-kyo 37
liter@@ 37
Hori 37
CHIGUSA 37
solders 37
Uman@@ 37
tes 37
ranges 37
concurrent 37
Yoshitatsu 37
kajo 37
off-@@ 37
Takayasu 37
tuberculosis 37
benevolent 37
ight-@@ 37
Goseibai-shikimoku 37
deathbed 37
Shogoin 37
ammunition 37
conducts 37
1324 37
lawsuit 37
cancer 37
atab@@ 37
Ul@@ 37
hibutsu 37
in-cho 37
hearts 37
Masahira 37
notic@@ 37
Shinden-zukuri 37
Worship 37
abari 37
1219 37
dye 37
clap 37
Arch@@ 37
ugh@@ 37
weighed 37
Okazaki-@@ 37
Shiso 37
introduces 37
uniformly 37
Sawayama-jo 37
get@@ 37
rises 37
jitsu@@ 37
juji 37
useki 37
kint@@ 37
kanpu 37
partial 37
scales 37
Tes@@ 37
spat@@ 37
Sushun 37
Gotairo 37
ape 37
karamono 37
omatic 37
transporting 37
requirement 37
Satoyama 37
economics 37
venerable 37
1471 37
touching 37
lovers 37
discre@@ 37
eth@@ 37
Kazuko 37
Selection 37
ye@@ 37
yoko 37
Tsuge 37
ukami 37
proposals 37
Trees 37
Tadanao 37
green@@ 37
netsuke 37
佐@@ 37
maintains 37
la 37
HE 37
propag@@ 37
mourned 37
igaki 37
lamp 37
Musashi-@@ 37
captive 36
erous 36
Kono 36
wonder 36
strategies 36
forb@@ 36
Cour@@ 36
1561 36
Kiku 36
distribute 36
relic 36
gae 36
Fushin 36
whe@@ 36
bes@@ 36
discrimin@@ 36
Kinn@@ 36
beam 36
foil 36
gender 36
Shimogamo 36
Daibosatsu 36
heirs 36
Ph@@ 36
oshita 36
delegation 36
anxiety 36
Command@@ 36
denomination 36
oshichi 36
Amenom@@ 36
uz@@ 36
Dosho 36
さ@@ 36
uchi-jinja 36
tenpura 36
gai 36
gin-@@ 36
INA 36
chef 36
Internal 36
myocho 36
967 36
850 36
soryo 36
esu 36
Yuzo 36
Nobukane 36
oyam@@ 36
Why 36
tran@@ 36
ayashi 36
Tsurezure 36
Tanetsugu 36
Koreshige 36
obsolete 36
operational 36
ely-@@ 36
ENDO 36
shako 36
avenge 36
1610 36
Kawakatsu 36
then-@@ 36
scores 36
Standard 36
Hakusan 36
pai 36
hogo 36
ignoring 36
etane 36
rs 36
3.6 36
assass@@ 36
1799 36
Tsubo@@ 36
THRU 36
1811 36
syllab@@ 36
pigments 36
conspired 36
deportation 36
efully 36
rectang@@ 36
catfish 36
Ryunosuke 36
define 36
chronology 36
Buddhists 36
rog@@ 36
Rome 36
1768 36
ced 36
KUR@@ 36
Nobukata 36
forc@@ 36
asi 36
kirikane 36
Kamey@@ 36
pilgrimages 36
1829 36
Iitoyo 36
Tsukiy@@ 36
Toshima 36
1242 36
Mizuho 36
1488 36
Crossing 36
ongen 36
1825 36
Shungaku 36
Shimada 36
aishu 36
extremists 36
Haru 36
Snow 36
concerns 36
Yasubei 36
Kaisei 36
Emon 36
Hino@@ 36
entertained 36
Honji 36
pts 36
azuka 36
Minat@@ 36
iwake 36
ata-cho 36
vowels 36
aned 36
Kin 36
物@@ 36
tan-@@ 36
Suik@@ 36
Niwa 36
sakan 36
inhabitants 36
uji-@@ 36
compreh@@ 36
Periods 36
藤@@ 36
interpret 36
ARASHI 36
Hoko 36
anosho 36
i-kawa 36
led@@ 36
Squ@@ 36
Birth 36
Joeki 36
critic 36
okun@@ 36
Ingen 36
oshi-cho 36
jealousy 36
1697 36
Bunkyo 36
Asa@@ 36
Ieshige 36
imaginary 36
Fumimaro 36
Kegon-kyo 36
Yamabe 36
Shogakuin 36
eed@@ 36
aissance 36
MASU@@ 36
Juroku@@ 36
occupations 36
NIWATA 36
ologist 36
Osabe 36
Yamato-Saidaiji 36
tification 36
Chron@@ 36
Hidehisa 36
1635 36
ako-@@ 36
Sud@@ 36
regretted 36
ashiki-@@ 36
convert 36
Ear@@ 36
Invasion 36
enjo 36
経@@ 36
disguise 36
behaviors 36
gus@@ 36
revit@@ 36
yosha 36
Human@@ 36
telephone 36
Top 36
WWII 36
surround 36
ai-sha 36
Div@@ 36
Ankan 36
Sol@@ 36
Attend@@ 36
desperate 36
enraged 36
Hidemitsu 36
SUE@@ 36
mushi 36
iated 36
Nishiki-@@ 36
ameshi 36
gers 36
aints 36
punch 36
legation 36
YOTSUTSUJI 36
1705 36
ok 36
pretended 36
SHIBUSAWA 36
narr@@ 36
Ike 36
japonica 36
710 36
mosquito 36
predecessors 36
tol@@ 36
Yomei-gaku 36
Myoe 36
NARUSE 36
Masazumi 36
Spirit 36
TAKAKURA 36
Security 36
candle 36
Yorinari 36
Kamomioya-jinja 36
dealers 36
website 36
万@@ 36
pel 36
harbor 36
Utak@@ 36
maturing 36
Takatsuna 36
commission 36
ojin 36
Plays 36
whenever 36
five-storied 36
Yamanouchi 36
storing 36
angered 36
parted 36
atani 36
Sakan 36
pachi 36
140 36
1173 36
Shodo-@@ 36
guarantee 36
educator 36
Are 36
gold-@@ 36
Gardens 36
assimil@@ 36
Tawar@@ 36
anti-Buddhist 36
sukiyaki 36
comeback 36
Sadayuki 36
Kirino 36
interpreter 36
Fukushin 36
percents 36
reisai 36
lon@@ 36
IS@@ 36
Nakatsuna 36
Kunimoto 36
1736 36
Tadatsuna 36
Saikashu 36
Joshu 36
Moriyama 36
round@@ 36
paved 36
Tokiie 36
gency 36
mistakenly 36
Anegakoji 36
shirab@@ 36
KOSHI 36
Kumiyama-cho 36
daisu 36
spices 36
posed 36
innocent 36
Paleolithic 36
Renamed 36
BS 36
hearth 36
彦@@ 36
plain@@ 36
twenty-four 36
Tamenori 36
Taket@@ 36
bund@@ 36
boku@@ 36
ys@@ 36
Takatsukishi 36
Agemaki 36
源@@ 36
Ginkaku-ji 36
wil@@ 36
adjusted 36
Duke 36
abor@@ 36
Rad@@ 36
1149 36
KANEKO 36
91 36
iri-zushi 36
amurai 36
icity 36
unrest 36
bad@@ 36
Armed 36
Ho-@@ 36
Hokumen 36
Tenmon 36
premi@@ 36
ubon 36
references 36
alogue 36
Tadat@@ 36
Hamag@@ 36
specialists 36
Takaaki 36
ofuku-ji 36
amachi-dori 36
1682 36
Akikuni 36
Meryo 36
spoon 36
ras@@ 36
iya-cho 36
350 36
Buncho 36
mutually 36
Taketori 36
hiko-jinja 36
Buson 36
orized 36
stream@@ 36
Kagutsuchi 36
enu 36
slave 36
abur@@ 36
tough 36
Kani 36
1711 36
Bhaisajyaguru 36
IGA 36
oiran 36
hibachi 36
NASU 36
1666 36
FUMI 36
衛@@ 36
deliberately 36
interference 36
Diamond 36
otak@@ 36
broadcasted 36
home-@@ 36
元 36
Jocho 36
adam@@ 36
Miyama 36
Kokon 36
Myoun 36
Junnyo 36
likes 36
vel@@ 36
Mitsunaga 36
militar@@ 36
1667 36
Shiyakusho-mae 36
bec@@ 36
narabini 36
tionally 36
compatible 36
inconvenient 36
nobori 36
blows 36
tou@@ 36
TSUKA@@ 35
zumi-kata 35
986 35
hop@@ 35
Sankei 35
yari 35
Michim@@ 35
Doi 35
Kusunoki 35
Comprehensive 35
ga@@ 35
Renge@@ 35
Shokei 35
1831 35
Japanese-Sino 35
Shojiroku 35
Titles 35
1678 35
ase-@@ 35
rot 35
Television 35
Dre@@ 35
appl@@ 35
11-@@ 35
686 35
odor 35
Where 35
Fuyu 35
buki 35
Chinjufu 35
swit@@ 35
erals 35
adher@@ 35
Moton@@ 35
cultiv@@ 35
Jizo-@@ 35
Shikinaisha 35
Yub@@ 35
epp@@ 35
Five-@@ 35
GEN 35
Berlin 35
Takaichi-gun 35
categor@@ 35
Niiname-sai 35
Kitashirakawanomiya 35
kenchi 35
Tadao 35
essor 35
orship 35
throat 35
pm 35
searched 35
Hozukyo 35
illustr@@ 35
Tenyakuryo 35
FUJII 35
Practice 35
involves 35
Zeze 35
sunlight 35
Biographies 35
ysis 35
1760 35
plenty 35
Agata 35
professionals 35
full-fledged 35
ple-@@ 35
ishiro 35
hon-ji 35
Mum@@ 35
humidity 35
conductor 35
tea-@@ 35
代@@ 35
conservatives 35
bell@@ 35
knots 35
1218 35
smen 35
dipped 35
mits 35
manorial 35
HIGUCHI 35
battle@@ 35
Hieizan 35
proverb 35
isaka 35
obligated 35
scription 35
Greek 35
1823 35
chains 35
zutsumi 35
faded 35
Lecture 35
itated 35
uding 35
sour 35
compilers 35
724 35
Toshisada 35
Typ@@ 35
Commentaries 35
Beli@@ 35
Hogo 35
collector 35
antiqu@@ 35
KANROJI 35
bal 35
Communist 35
Masatora 35
Kite 35
Anko 35
Yazaemon 35
Ujinao 35
Itabashi 35
田 35
Sightseeing 35
shortest 35
lively 35
shuin 35
nyudo 35
1738 35
ahashi 35
SENGOKU 35
usai@@ 35
fon@@ 35
Nene 35
Path 35
884 35
Pop@@ 35
Classification 35
720 35
hock 35
Suketsune 35
Nariko 35
次@@ 35
typhoon 35
bodyguard 35
skew@@ 35
employee 35
Entrance 35
Storehouses 35
Yodo-@@ 35
employing 35
ck@@ 35
Tsukiji 35
hereinafter 35
akukan 35
Takase-gawa 35
Kataoka 35
Kenpo 35
Orig@@ 35
buri 35
yoretsu 35
scrap@@ 35
Above 35
Etchu 35
Dead 35
china 35
Hongan 35
Mov@@ 35
evol@@ 35
slashed 35
accel@@ 35
integr@@ 35
KAKINOMOTO 35
sings 35
believes 35
Shigekata 35
Kubota 35
Soh@@ 35
impurities 35
quantities 35
Introduction 35
Saiho-ji 35
lower-ranked 35
kasen 35
utoku 35
itly 35
inspect 35
Vories 35
Momokawa 35
gasso 35
Jisha 35
Katsurag@@ 35
fragment 35
ekimae 35
Reigns 35
morality 35
Midaidokoro 35
moku@@ 35
Kuniomi 35
trail 35
enn@@ 35
view@@ 35
1821 35
Saga-Arashiyama 35
akusa-@@ 35
precept 35
recipes 35
FUJIMA 35
th-generation 35
chec@@ 35
Publishers 35
tsuzumi 35
volunteer 35
RT 35
Earth 35
Kaimyo 35
prefer 35
en-cho 35
appearances 35
Jogu 35
zes 35
wamono 35
ag 35
Registration 35
Hachijo-@@ 35
cloths 35
artillery 35
Hob@@ 35
23@@ 35
mg 35
big@@ 35
outward 35
conspicuous 35
Ueda-jo 35
1724 35
cultured 35
NUMA 35
stabil@@ 35
negotiate 35
lamented 35
fug@@ 35
Tanuma 35
Kokan 35
virtuous 35
Issunboshi 35
rib@@ 35
Uchim@@ 35
Noritada 35
1708 35
Dri@@ 35
tragedy 35
axes 35
diff@@ 35
fts 35
kendo 35
stove 35
bonds 35
nings 35
encyclopedia 35
agu@@ 35
bin 35
SAKURAI 35
Minakuchi 35
1824 35
edo 35
Setouchi 35
calculating 35
e-fu 35
Go-Daigo 35
812 35
Asuka-mura 35
usui 35
1805 35
Nenokuni 35
folk@@ 35
Waka@@ 35
fail@@ 35
1774 35
Buddhi@@ 35
iew 35
Presently 35
Monday 35
Takato 35
radicals 35
chen 35
erior 35
AN@@ 35
Rom@@ 35
profess@@ 35
ograph 35
etsuki 35
collabor@@ 35
gozen 35
Saisho 35
1.2 35
1202 35
Kyuk@@ 35
Ujikiyo 35
sata 35
部 35
rating 35
uyo 35
1487 35
unfinished 35
ryogoku 35
upheaval 35
Bunmei 35
matri@@ 35
tening 35
ogata 35
ili@@ 35
Kanmuryo@@ 35
Four@@ 35
junoto 35
barricaded 35
Tokug@@ 35
Rest@@ 35
fund@@ 35
Shogun@@ 35
Masatsura 35
Emp@@ 35
lectured 35
gradual 35
Seiyo 35
Inc. 35
dep@@ 35
mathematical 35
dual 35
tender 35
roof@@ 35
func@@ 35
Tsurug@@ 35
deep@@ 35
conjunction 35
commands 35
Ai 35
dupl@@ 35
seating 35
reco@@ 35
ORI@@ 35
IMA@@ 35
cad@@ 35
cher 35
pharmac@@ 35
Koh@@ 35
Rui@@ 35
MATSUURA 35
Shokoku 35
Eshi 35
insur@@ 35
preaches 35
Scene 35
Sit@@ 35
uated 35
impurity 35
OKUDAIRA 35
filial 35
aboveground 35
Kawan@@ 35
ongo 35
openly 35
TAN@@ 35
foodstuff 35
teaches 35
Utsu@@ 35
peach 35
oharu 35
executives 35
Horikawa-@@ 35
93 35
sci@@ 35
curves 35
Saijo 35
Buyo 35
machin@@ 35
Kazanin 35
Moromoto 35
pigment 35
prohibiting 35
itaro 35
Toji-@@ 35
Swe@@ 35
Kaneg@@ 35
Yasuke 35
calcul@@ 35
loans 35
Toshiyori 35
Otogi 35
transactions 35
は@@ 35
ider 35
kubunden 35
obiki 35
disappear 35
Paradise 35
℃ 35
Nagayao 35
usha 35
heihaku 35
1533 35
democratic 35
prohibit 35
stipulates 35
chasen 35
Tenjingawa 35
jis@@ 35
bedroom 35
Ai@@ 34
aver 34
rainfall 34
Joruri-ji 34
fant@@ 34
Michitsuna 34
teous 34
1481 34
fulness 34
Unit 34
Hideharu 34
1477 34
GATA 34
Gikeiki 34
Shou@@ 34
corrected 34
ino-@@ 34
834 34
1201 34
Shokai 34
Sujikai@@ 34
lan@@ 34
borrowing 34
mac@@ 34
compositions 34
resid@@ 34
deceived 34
Parking 34
Seisuiki 34
iin 34
Tomoe 34
Ekotoba 34
mail 34
Traditionally 34
rying 34
Omi-Ryo 34
Ikaruga 34
immig@@ 34
ota 34
antei 34
repository 34
Kozo 34
Masaki 34
mediator 34
Tanada 34
Guest 34
JO@@ 34
Gran@@ 34
Tsuru 34
archae@@ 34
Jiji 34
aseki 34
Double 34
ried 34
mon-@@ 34
life-@@ 34
Gonno 34
bancha 34
Amakusa 34
taikodai 34
Shinkan 34
designate 34
shutsu 34
ubun@@ 34
Shinjukyo 34
shishi 34
ampionship 34
Yasuchika 34
YAMATO 34
Sashi@@ 34
hallmark 34
disposition 34
1622 34
communications 34
accusation 34
Seiryo-ji 34
creed 34
Amino 34
deterior@@ 34
Yomi 34
partnership 34
chair 34
dispersed 34
1663 34
TSUCHIYA 34
ongs 34
Ninomiya 34
a-za 34
industri@@ 34
NODA 34
preserving 34
prompted 34
representation 34
Nijo-dori 34
rational 34
good@@ 34
Gonara 34
rental 34
comb 34
1651 34
Expres@@ 34
pale 34
orit@@ 34
Kawachi-bon 34
encies 34
Jiy@@ 34
Shisei 34
maritime 34
Kut@@ 34
Kagemori 34
Akita-jo 34
deposed 34
vocational 34
shin-in 34
peop@@ 34
utori 34
jikomi 34
Dochu 34
enfeoffment 34
kamon 34
MARU@@ 34
abime 34
Martial 34
Rokum@@ 34
ius 34
Soldiers 34
702 34
hima 34
sorry 34
cane 34
proven 34
cavalrymen 34
koji-@@ 34
shiitake 34
shal 34
utting 34
cuc@@ 34
shinkan 34
Meas@@ 34
Yuranosuke 34
Meigetsuki 34
270 34
flowering 34
Koman 34
Tomioka 34
jinin 34
吉@@ 34
gaeshi 34
break@@ 34
Tenjin-@@ 34
funny 34
isms 34
Barrier 34
UENO 34
constitutes 34
Yoshinoya 34
hari 34
impaired 34
Yoriyasu 34
781 34
Masaie 34
Kanbun 34
iration 34
olden 34
kind@@ 34
Norisuke 34
sh 34
Ogigayatsu-Uesugi 34
30th 34
Kintetsu-@@ 34
Chisho 34
House@@ 34
ayori 34
attach 34
behaved 34
kakegoe 34
chambers 34
clever 34
TAJIHI 34
busshi 34
fences 34
Vari@@ 34
toryo 34
disadvantage 34
Najio 34
Fujisawa 34
sian 34
rend@@ 34
Shoyu 34
fishery 34
tense 34
economically 34
shikken 34
urging 34
sinc@@ 34
nihon 34
rememb@@ 34
brush@@ 34
scal@@ 34
sardines 34
shohatto 34
that@@ 34
pillow 34
Mochikiyo 34
.A. 34
ic-@@ 34
illa 34
Pres@@ 34
Kitashirakawa 34
Michio 34
dered 34
823 34
sangen 34
gateway 34
940 34
Hiroyuki 34
_ 34
aires 34
ryoseikoku 34
Hanaten 34
hers 34
expectation 34
ax 34
Tomosada 34
Kamigamo 34
hip-and-gable 34
宮@@ 34
laugh 34
resolve 34
Purple 34
760 34
monial 34
ozaemon 34
subj@@ 34
kasu 34
Shigefusa 34
tra 34
Hibiya 34
hostages 34
Yo-@@ 34
revelation 34
Ashiya 34
usato 34
reader 34
oshige 34
ushi-no-@@ 34
long-distance 34
nevertheless 34
Danzaemon 34
transformation 34
pre-war 34
Pan@@ 34
Katsumasa 34
rails 34
sketches 34
establish@@ 34
Plaza 34
miyake 34
parting 34
cruel 34
double-track 34
onym 34
atsu-jo 34
faster 34
Buretsu 34
backdrop 34
Yasutomi 34
yamabushi 34
swore 34
discarded 34
pleasant 34
inform 34
Writings 34
igumi 34
demonstrate 34
hurt 34
Little 34
receipt 34
trait@@ 34
Hiraizumi 34
awa-ryu 34
ui@@ 34
Sanbo-in 34
edono 34
Raj@@ 34
Ep@@ 34
Genzui 34
iles 34
Amatsu 34
reestablished 34
otsu-@@ 34
yashiro 34
twenty-five 34
Sekishu-ryu 34
Mil@@ 34
ETO 34
mass@@ 34
aring 34
UCHI@@ 34
vent@@ 34
Kair@@ 34
tigh@@ 34
兵@@ 34
5000 34
ayashiki 34
a-zu 34
Kokusaikaikan 34
Takamura 34
Takamochi 34
exorc@@ 34
pool 34
shinni 34
Hayanari 34
Doan 34
Gohorikawa 34
eleg@@ 34
Hon 34
consecutively 34
Zenpo 34
happ@@ 34
guided 34
decides 34
Products 34
brazier 34
kin-@@ 34
Kakunyo 34
arena 34
Electr@@ 34
tightly 34
Biw@@ 34
1252 34
blended 34
summit 34
ISHI 34
jikan 34
sai-@@ 34
Plum 34
an-in 34
vig@@ 34
Takakazu 34
Kikaku 34
fuse 34
amulets 34
distingu@@ 34
bullets 34
ON 34
Nobuharu 34
bes 34
seventeen-syllable 34
J. 34
wet@@ 34
confront 34
Kanjincho 34
atop 34
side-@@ 34
Environment 34
Nagahiro 34
a-toge 34
Chosokabe 34
Tanyu 34
Yoshizaki 34
Tokudaiji 34
KAWAMURA 34
Sansui-@@ 34
Landscape 34
Michinobu 34
coupled 34
Haikai 34
emai 34
ataro 34
1649 34
HORIO 34
settling 34
anymore 34
ang-@@ 34
Shinichi 34
KITAMURA 34
paw@@ 34
Gokomyo 34
railroads 34
haz@@ 34
beneficial 34
weakness 34
check@@ 34
785 34
sermons 34
comedy 34
goe 34
cheon 34
Shoryo 34
Kuraryo 34
Yorisuke 34
1326 34
katakana 34
Yorinori 34
Orders 34
ANEGAKOJI 34
influ@@ 34
Mound 34
tang@@ 34
reject 34
gongen 34
Goku 34
Ume 34
Kacho 34
orihime 34
verified 34
Hiroshim@@ 34
188@@ 34
first-class 34
可@@ 34
ori-jinja 34
warmed 34
Meiji-@@ 34
Sociology 34
zei@@ 34
重@@ 34
decorate 34
snakes 34
Holl@@ 34
Nobusuke 34
eter@@ 34
ju-kyo 34
Nobumoto 34
dedicate 34
宗 34
translating 34
Intercollegiate 34
Koshinto 34
atto 33
Fol@@ 33
perfected 33
sel 33
laughter 33
bu-sho 33
experiment 33
udo-@@ 33
gelat@@ 33
naturalized 33
13-@@ 33
MAENO 33
Partly 33
Mura 33
Ryot@@ 33
useless 33
resemble 33
Kinp@@ 33
HATANO 33
Kokugaryo 33
Nobility 33
Kokur@@ 33
administer 33
inst@@ 33
Mitsuko 33
span 33
retiring 33
tani 33
rice-polishing 33
TORIYAMA 33
Atsumori 33
Tokuitsu 33
Ane@@ 33
shaving 33
Kotaro 33
obj@@ 33
Naotaka 33
Akishin@@ 33
Fumi@@ 33
Bugaku 33
realism 33
Tanegashima 33
Century 33
[...]
