#version: 0.2
t h
th e</w>
i n
a n
e d</w>
e r
o f</w>
a t
h i
a r
e n
an d</w>
o r
i n</w>
a s</w>
o n
r e
t o</w>
e r</w>
i t
o n</w>
s t
r o
a m
in g</w>
u r
s h
a l
w as</w>
o r</w>
u n
a k
e s</w>
a l</w>
a n</w>
e c
i s</w>
e n</w>
i on</w>
a s
m p
i c
l y</w>
a t</w>
a c
s u
l e</w>
h e</w>
e s
o m
o u
a i
o k
o s
a d
a g
a p
u s
o w
o l
i s
c h
en t</w>
r i
c e</w>
e l
er e</w>
th at</w>
c h</w>
er i
t i
e m
b y</w>
w h
i l
i g
y o
i d
at ion</w>
n o</w>
e t
en t
f or</w>
a b
i v
T he</w>
c l
S h
hi s</w>
it h</w>
c on
c o
b u
e v
am e</w>
w ith</w>
ro m</w>
t ed</w>
d i
o v
e i
i t</w>
f rom</w>
i r
f or
w hi
h a
u m
er s</w>
o p
u d
o d</w>
j i</w>
' s</w>
n o
a r</w>
t er</w>
re s
e mp
p ro
th er</w>
u g
w ere</w>
J ap
o g
b e
sh i</w>
a in
r in
i on
e x
y o</w>
at ed</w>
it y</w>
whi ch</w>
t h</w>
t ur
l i
s o</w>
I n</w>
t r
ar e</w>
o c
a y</w>
o d
l ed</w>
wh o</w>
f f
u k
a w
e st
i st
u l
a i</w>
b ec
p l
at e</w>
es e</w>
a in</w>
i m
eri od</w>
f am
o t
a y
e ar
u c
ar y</w>
b e</w>
o un
d e
s e
i ly</w>
in ce</w>
E mp
er or</w>
th e
u t
c al
or d
v e</w>
p eriod</w>
emp le</w>
on e</w>
re f
a st
H e</w>
K yo
er n
al ly</w>
hi m
f ter</w>
t s</w>
i k
l e
o -
s t</w>
fam ily</w>
m ent</w>
o o
q u
C h
eri al</w>
o b
Emp eror</w>
P ro
p ar
Kyo to</w>
m an
ha d</w>
s u</w>
p er
r an
t ion</w>
en d
bu t</w>
th is</w>
mp erial</w>
al so</w>
no t</w>
tur e</w>
c hi
p o
a -
p os
h e
I t</w>
in g
ag e</w>
d o</w>
ti m
re c
ow n</w>
j o</w>
i z
1 9
h t</w>
Jap an
cl an</w>
a d</w>
m e
os hi
at ion
s hi
s p
S t
at t
ou t</w>
w or
es t</w>
Japan ese</w>
Pro v
ic e</w>
T emple</w>
Jap an</w>
as s
cal led</w>
o ther</w>
ov ern
st r
i es</w>
K A
s ec
l d</w>
e d
in e</w>
c om
er ed</w>
r it
Prov ince</w>
ok u</w>
i f
I mperial</w>
ad e</w>
an g
a fter</w>
R A</w>
em b
n ame</w>
or i</w>
bec ame</w>
1 8
p e
S hi
us ed</w>
s on</w>
h i</w>
al l</w>
ev er</w>
d er</w>
or y</w>
i al</w>
p res
p ri
ref ec
C ity</w>
T h
ol l
k e</w>
ou s</w>
o ff
g overn
i y
co mp
an d
om e</w>
us e</w>
s id
it ion</w>
ak u
am a</w>
on g</w>
t er
s e</w>
su ch</w>
a v
in to</w>
aw a</w>
ow ever</w>
e ar</w>
re g
K an
ac e</w>
H I
e p
P refec
for m
be en</w>
at er</w>
d es
sh ed</w>
ur ing</w>
er n</w>
u n</w>
k i</w>
ha ve</w>
er v
o ur
b o
f ir
tim e</w>
th ere</w>
ak a</w>
Prefec ture</w>
i -
g e</w>
T ak
d is
wh en</w>
w e
ei r</w>
ur a</w>
an t</w>
B ud
i c</w>
iv e</w>
sh o</w>
e a</w>
Bud d
ol d</w>
u e</w>
l es</w>
sh u</w>
ou g
r ed</w>
ar d</w>
e t</w>
l oc
ak e</w>
ar a</w>
ent s</w>
ak u</w>
d uc
it s</w>
con t
es s
t ing</w>
the y</w>
emb er</w>
g en
T ok
es s</w>
ic al</w>
rin e</w>
am i</w>
s erv
e ly</w>
st e
th eir</w>
t en</w>
c i
en ce</w>
I n
m on
e -
ar d
m in
n e
f l
o to</w>
ai d</w>
s ur
u b
a z
- ji</w>
in c
Y oshi
at su
A M
cl ud
os e</w>
a use</w>
u p</w>
M in
P rin
m ade</w>
d uring</w>
ac t
en g
c c
oo l</w>
k n
K am
n ed</w>
op le</w>
govern ment</w>
h as</w>
f e
W A
f u</w>
fir st</w>
Sh in
oun d</w>
St ation</w>
p or
on g
s y
ch ool</w>
ou ld</w>
e i</w>
s un
E do</w>
off ic
o y
H is</w>
in clud
b el
s el
ak i</w>
c ri
pe ople</w>
b et
b ro
t y</w>
Budd hi
t w
s aid</w>
S HI
H owever</w>
0 0
O T
s i
po in
co un
an ce</w>
y ear</w>
u s</w>
re e</w>
ig ht</w>
ag a</w>
re l
ar m
J un
th oug
oo k</w>
il l
o f
al s</w>
hi g
co ur
kn own</w>
ast le</w>
ow er</w>
S an
pro v
h er</w>
ur e</w>
T A
p r
ti on
e g
o od</w>
est ab
for e</w>
as hi
ch i</w>
ear s</w>
r u
sh in
bec ause</w>
w ay</w>
k o</w>
ation s</w>
ac hi</w>
r y</w>
li shed</w>
Ch in
W A</w>
i or</w>
we en</w>
w rit
or ig
K U
a ther</w>
Prin ce</w>
st or
D ai
yo shi</w>
bet ween</w>
or s</w>
bu il
F U
com m
ok u
i ous</w>
J I
f oll
ar i</w>
M I
p re
ay s</w>
in t
S U
ing s</w>
g ro
on d</w>
di ed</w>
T his</w>
as t</w>
k s</w>
sh og
b as
l ater</w>
ste m</w>
su b
Y am
m or
ab le</w>
G en
om ain</w>
O n</w>
he ad</w>
on ly</w>
os t</w>
1 5
re as
g r
d ai
T ai
un der</w>
ai l
i mp
el l</w>
s ame</w>
ch ar
ain s</w>
WA RA</w>
foll ow
c ent
ap p
ch o</w>
d ec
sid e</w>
it ion
gen er
ac k</w>
it ed</w>
ov er</w>
N o
man y</w>
sy stem</w>
or d</w>
er e
ug h
f ac
un d
st at
an k</w>
k ed</w>
Sh rine</w>
A l
u re
ab out</w>
el d</w>
H ei
FU JI
tw o</w>
K o
str uc
r on
en d</w>
s ome</w>
g o</w>
e y
ar ri
su m
1 6
at a</w>
t ic
a u
c er
ation al</w>
an s
c ur
N i
y ears</w>
an s</w>
st y
su cc
p ol
A fter</w>
t ri
th ro
S A
e k
e ac
D A</w>
f i
v is
f ather</w>
v er
il l</w>
il it
FUJI WARA</w>
re t
at h</w>
w i
ak ura</w>
hi r
em ent</w>
ch ang
e f</w>
cour t</w>
s chool</w>
N ag
ac c
c ap
thoug h</w>
ec t</w>
o w</w>
at su</w>
ad d
G A
Y or
us t</w>
M as
ig n
f u
a shi</w>
u p
re m
al l
ap poin
the m</w>
orig in
t emple</w>
an c
estab lished</w>
T O
C astle</w>
u ro
sty le</w>
aku fu</w>
wh ere</w>
l it
t o
f t</w>
a j
ist er</w>
t ain</w>
su p
pos ition</w>
y u</w>
as a</w>
writ ten</w>
OT O</w>
n am
d ay</w>
Buddhi st</w>
e b
hi m</w>
ig h
m o
U n
N A
d a
l ine</w>
wi th
ord er</w>
iv ed</w>
n ing</w>
H id
ad a</w>
C our
d ing</w>
uk i</w>
st ar
di ff
ord ing</w>
mor e</w>
j in</w>
par t</w>
R ank</w>
th en</w>
or t
l et
att le</w>
c ul
K or
em on
th ree</w>
ord s</w>
sp ec
g iv
g re
m at
th ern</w>
da ugh
v ar
ok i</w>
ac hi
O s
b akufu</w>
t e</w>
al ace</w>
as u</w>
E n
h ou
tur al</w>
in d
includ ing</w>
ic hi</w>
an y</w>
w ell</w>
de ath</w>
su g
M A
su ke</w>
l and</w>
whi le</w>
th an</w>
j in
ar ea</w>
O k
iz ed</w>
T en
S u
di rec
iy a</w>
ic hi
g o
h eld</w>
ev en</w>
u -
con sid
om o</w>
ran k</w>
Th ere</w>
pro duc
A s</w>
appoin ted</w>
m ov
b le</w>
tim es</w>
c an</w>
S en
ilit ary</w>
as e</w>
ent ly</w>
des cri
M ei
sel f</w>
sec ond</w>
at ing</w>
g u
f in
be ing</w>
th ose</w>
s ed</w>
ec ted</w>
v i
daugh ter</w>
C hi
loc ated</w>
arm y</w>
k a</w>
er a</w>
ar ound</w>
r ice</w>
O n
t y
M ar
ain ed</w>
li ke</w>
sh e</w>
serv ed</w>
A r
p rin
H I</w>
ure s</w>
A m
st ory</w>
b l
ug h</w>
Kam akura</w>
h o</w>
1 7
L ine</w>
J u
ou r</w>
sh o
sh a</w>
s it
en c
ri g
T an
shi p</w>
p ub
j a</w>
T o
for m</w>
be g
ne w</w>
u m</w>
N or
d o
m is
m ilitary</w>
tr ans
W h
1 2
c re
Cour t</w>
b or
d ev
el l
a w</w>
an e</w>
c ame</w>
A n
ear ly</w>
ai r
em s</w>
s ince</w>
C on
t emp
i ed</w>
lit er
l ord</w>
t it
j o
at es</w>
AM OTO</w>
shog un</w>
er red</w>
an ts</w>
giv en</w>
res s</w>
D omain</w>
N O
iv er
u t</w>
h on
yo un
thro ugh</w>
h a</w>
tion s</w>
k ing</w>
pl ace</w>
1 0
in v
T SU
pl ac
al e</w>
am ur
i p
h owever</w>
e l</w>
F u
ul ar</w>
if e</w>
eac h</w>
y u
um b
res p
W ar</w>
ec tion</w>
sh rin
su l
l ar
is h</w>
t ook</w>
ist r
o th
offic ial</w>
res id
ev er
p le</w>
d r
T ad
cer emon
Mei ji</w>
op er
s m
MI N
fu l</w>
Sh og
bas ed</w>
G r
Wh en</w>
Os aka</w>
N ara</w>
follow ing</w>
k yo</w>
ci ent</w>
c oll
th ir
i w
h o
2 00
pri est</w>
MIN AMOTO</w>
ti v
F uk
1 3
a ve</w>
Jun ior</w>
ard s</w>
ion s</w>
ar u</w>
m ost</w>
d ue</w>
f oun
d own</w>
th ese</w>
r ap
con struc
c ar
s ion</w>
s on
loc al</w>
l d
is hi
var ious</w>
Chin ese</w>
t su
de p
end ed</w>
ak ing</w>
h er
w ife</w>
at o</w>
H ig
s ou
at ive</w>
be fore</w>
M it
m ain</w>
bro ther</w>
os him
consid ered</w>
diff er
l in
A s
p ower</w>
buil t</w>
O m
ac h
a f
bel i
H i
amur ai</w>
Y o
K in
P alace</w>
tr ad
form ed</w>
ere fore</w>
i mperial</w>
s ol
um i</w>
id ed</w>
le ft</w>
ar o</w>
it su</w>
p p
GA WA</w>
wor d</w>
iver s
Shi g
ig n</w>
Y AM
S him
s om
the ory</w>
chi ef</w>
Hei an</w>
reg ion</w>
K I</w>
v ed</w>
n umb
M or
pres ent
H O
i shed</w>
g ran
ad op
oc i
ov e</w>
sh rine</w>
Tok yo</w>
k oku</w>
S ak
s en
y ama</w>
as s</w>
per son</w>
pos t</w>
d e</w>
ex p
is t</w>
p ass
W ard</w>
e yoshi</w>
for c
he ad
cur r
b ed</w>
jin ja</w>
u ary</w>
o z
d s</w>
u st
w ould</w>
ain st</w>
ic t</w>
id ent</w>
di d</w>
p ain
m other</w>
C oun
ty p
m achi</w>
b ack</w>
b ir
n or
S ei
A k
ok a</w>
S ad
sec t</w>
1 4
A pri
st ation</w>
Apri l</w>
star ted</w>
ou s
ut e</w>
fe ud
G A</w>
ort ant</w>
pol it
el op
le g
Mar ch</w>
re n</w>
ag ainst</w>
bo th</w>
on o</w>
ol og
re tur
u al</w>
Al though</w>
N ob
un i</w>
feud al</w>
tit le</w>
s amurai</w>
H A
t ers</w>
e ther</w>
T su
en ti
bor n</w>
k an
l o
him self</w>
K ei
am oto</w>
t su</w>
k ami</w>
m ain
st ud
form er</w>
t re
od s</w>
y n
ic s</w>
c or
r a</w>
A cc
J an
R e
t a
Yoshi t
hig h
c ess</w>
di st
A t</w>
ur y</w>
g er</w>
est iv
c t
ail way</w>
Jan uary</w>
it ies</w>
k u</w>
e w</w>
w ent</w>
re qu
ex c
succ ess
m od
t e
t en
ti es</w>
pres ent</w>
S ai
d oc
u ally</w>
yn ast
ig ned</w>
an cient</w>
an o</w>
s m</w>
m yo</w>
emp eror</w>
Gen ji</w>
pl ay
wor k</w>
M on
00 0</w>
o m</w>
H on
o shi</w>
m ar
K I
i b
cont ro
S chool</w>
ex ist
i e</w>
c ould</w>
ex am
0 0</w>
Buddhi sm</w>
g an
K ag
ret ain
s ist
it al</w>
m oun
D ec
t ro
t ec
in ter
of ten</w>
dev elop
rec e
id d
b ook</w>
H ok
K O
un e</w>
r ing</w>
ceremon y</w>
am ong</w>
id e</w>
beli ev
s ch
Ju ly</w>
Chin a</w>
k an</w>
st it
w ar</w>
som e
ti ve</w>
s es</w>
Y as
ter rit
re sul
chi ld
us hi
numb er</w>
in u
O ct
ivers ity</w>
ur o</w>
re et</w>
adop ted</w>
is su
v ing</w>
ti l</w>
chang ed</w>
ep t</w>
o- ji</w>
c ro
ob er</w>
add ition</w>
Oct ober</w>
er ing</w>
us ing</w>
M t</w>
un d</w>
t ea</w>
bec ome</w>
v ol
un ate</w>
A ug
con f
comp let
y ing</w>
prov inc
en ed</w>
a m</w>
Aug ust</w>
ex t</w>
d ays</w>
chi ld</w>
hi stor
gro up</w>
b ur
n er</w>
thir d</w>
h and
ep t
l ong</w>
sup por
at ure</w>
J O</w>
con c
F eb
us a</w>
Acc ording</w>
I RA</w>
Nob un
ru ary</w>
e ed
Feb ruary</w>
ition al</w>
o jo</w>
a h
Dec ember</w>
st and
t og
om i</w>
t ly</w>
at ely</w>
ag on</w>
d ed</w>
an -
M ay</w>
N O</w>
No bu
sun e</w>
M us
o j
KA WA</w>
d en</w>
M ik
N ak
it e</w>
li c</w>
a ff
18 6
H an
ob u</w>
d iv
app ear
p op
is ion</w>
sec tion</w>
ynast y</w>
1 0</w>
T he
un til</w>
b attle</w>
d et
st ate</w>
him a</w>
with out</w>
Hid eyoshi</w>
T A</w>
d omain</w>
idd le</w>
K ok
oth ers</w>
Min ister</w>
or t</w>
S ept
M ot
if th</w>
fam il
Sept ember</w>
Nobun aga</w>
cent ury</w>
S ou
li f
no w</w>
differ ent</w>
u chi</w>
par tic
c as
K aw
m us
N ov
m er
il led</w>
P eriod</w>
c ol
i ally</w>
i f</w>
ard ed</w>
K i
N ational</w>
m ast
is m</w>
K it
s ake</w>
h al
i d</w>
v ass
, 000</w>
hou se</w>
or gan
or o</w>
h and</w>
Yo shin
M uro
K en
um e</w>
e ki</w>
ain ing</w>
p ur
Nov ember</w>
hi story</w>
me di
temp les</w>
arri ed</w>
U RA</w>
ad v
liter ally</w>
TO KU
fl u
char act
et su</w>
an other</w>
Y oshim
b us
Yor it
t ow
no -
estiv al</w>
ar e
me ans</w>
em on</w>
Sh into</w>
et s</w>
in d</w>
b re
m an</w>
bir th</w>
our th</w>
g ed</w>
des c
Un iversity</w>
off ice</w>
e w
b ran
ab ove</w>
est ern</w>
W ak
min istr
A SHI
m et
t or</w>
fac t</w>
f our</w>
re ad
iv er</w>
Jun e</w>
rig ht</w>
gener al</w>
ai -
gre at</w>
cont inu
pr act
il ed</w>
18 7
air s</w>
z o</w>
m emb
op s</w>
ag es</w>
Gr ade</w>
e f
sh ap
ion al</w>
b ar
ok s</w>
K on
m e</w>
Muro machi</w>
al ong</w>
des ign
sh ould</w>
Budd ha</w>
s l
hig h</w>
a th
tr ains</w>
M I</w>
G overn
il ity</w>
d a</w>
tr y</w>
in flu
beg an</w>
se t</w>
cri p
le ad
c astle</w>
B attle</w>
H ou
ow ed</w>
ti red</w>
E x
w ill</w>
l ived</w>
k ai
est s</w>
d ic
a o</w>
lar ge</w>
ent h</w>
famil ies</w>
Fu j
w ater</w>
memb ers</w>
TOKU GAWA</w>
imp ortant</w>
mo ted</w>
cap ital</w>
au th
t ak
e um</w>
i sh
un known</w>
i qu
tog ether</w>
an a</w>
w om
K E
youn ger</w>
ou t
no b
in ed</w>
I z
ex pres
R iver</w>
en -
R ailway</w>
j u</w>
v ill
ey asu</w>
d ori</w>
C HI
serv ice</w>
plac ed</w>
M un
T sun
Hi ro
lif e</w>
stat ue</w>
od o</w>
m ake</w>
F or</w>
b a</w>
r ak
d om
S HI</w>
O t
Emp ress</w>
acc ording</w>
eed ed</w>
aw ay</w>
v er</w>
origin al</w>
m a</w>
h ol
m it
ter m</w>
I k
pri v
believ ed</w>
shrin es</w>
int ro
M iy
m en
ha ving</w>
ur i</w>
d u
ik o</w>
c il
S um
uc hi
m ember</w>
li sh
ug ht</w>
ver y</w>
hir o</w>
od ay</w>
T om
child ren</w>
ic ally</w>
C HI</w>
o p</w>
h an</w>
ag i</w>
per son
or ies</w>
S O
pro moted</w>
h n
resid ence</w>
i l</w>
wor ld</w>
l ate</w>
Mit su
KA GA</w>
e qu
o od
Y O
p ut</w>
j o-
ad ministr
dai myo</w>
ug o</w>
rece ived</w>
w n</w>
aj or</w>
ASHI KAGA</w>
ron t</w>
cal end
r o</w>
s c
descri bed</w>
om iya</w>
s o
un c
doc um
S ince</w>
k illed</w>
T am
1 5</w>
resp on
ag ed</w>
g awa</w>
intro duc
2 0</w>
m on</w>
buil ding</w>
pub lic</w>
z uk
st ill</w>
OT O
h or
h all</w>
typ e</w>
ug awa</w>
iz ation</w>
polit ical</w>
ition s</w>
Sh o
f ive</w>
R A
sm all</w>
Sen ior</w>
l aw</w>
k e
hi to</w>
n ational</w>
od ai
f ound</w>
c a
uk u</w>
S he</w>
p at
und er
trad itional</w>
St reet</w>
with in</w>
s il
F us
ap er</w>
K at
contro l</w>
gran d
trans f
ap pro
cl ass
B un
y ok
thoug ht</w>
mov ed</w>
b i
N an
S e
nam es</w>
H ar
I eyasu</w>
govern or</w>
K um
succ eeded</w>
in -
calend ar</w>
ach ed</w>
ist ry</w>
ak o</w>
k ai</w>
ic ul
H ist
ic ation</w>
The y</w>
s ent</w>
gr ad
nam ed</w>
i an</w>
sum ed</w>
p h
t ures</w>
f ront</w>
' t</w>
histor ical</w>
bran ch</w>
l l
K ai
u shi</w>
h old</w>
cil or</w>
y or
yo -
i shi</w>
Tok ugawa</w>
yo u</w>
r ai
M atsu
G u
coun try</w>
rel ig
p ow
re ad</w>
w ords</w>
18 8
ar t</w>
shi n</w>
e as
desc end
includ ed</w>
comm on</w>
st u
t ai
p i
exam ple</w>
N I
t ment</w>
M i
per formed</w>
ik i</w>
ut su</w>
Yorit omo</w>
MA TSU
D A
et y</w>
com man
og e</w>
o ji</w>
ex t
m s</w>
inc reas
bo oks</w>
er y</w>
resul t</w>
ol s</w>
im a</w>
19 9
d est</w>
p ic
S uk
y a</w>
m aking</w>
I w
ob a</w>
a- jo</w>
Shog un</w>
g ave</w>
a e</w>
ch ed</w>
s oci
g od</w>
dep end
p ec
ref erred</w>
is e</w>
h y</w>
design ated</w>
D uring</w>
um a</w>
p s</w>
Th erefore</w>
K iy
I s
1 2</w>
ay ing</w>
NA KA
s k
in ess</w>
produc ed</w>
K A</w>
sur yo</w>
g ood</w>
de fe
chang e</w>
al ity</w>
wor ks</w>
m i</w>
olog y</w>
pass ed</w>
head ed</w>
S ec
retur ned</w>
mod ern</w>
construc tion</w>
z en</w>
C om
3 0</w>
cent r
P ar
shi k
char ge</w>
an n
ad o</w>
y -
tr a</w>
os ed</w>
od y</w>
in oge</w>
tec hn
Yam ato</w>
po st
A d
C o
Al so</w>
v al
ic es</w>
are as</w>
ri bu
play ed</w>
m iddle</w>
him e</w>
u su
ai r</w>
1 1</w>
l ec
t ake</w>
in s</w>
l at
c ase</w>
18 9
er al</w>
Kor ea</w>
ut ion</w>
tion ed</w>
se qu
A z
issu ed</w>
hi de</w>
Sh ing
w ard</w>
ov er
continu ed</w>
b u</w>
TA IRA</w>
L e
main ly</w>
f ul
pos ed</w>
ri d
m ent
se en</w>
L ower</w>
pro per
m u</w>
Sou thern</w>
N ar
appear ed</w>
sit u
Prin cess</w>
pop ular</w>
O DA</w>
K yu
K un
D ynasty</w>
w est</w>
19 4
on -
l and
In c
tr ain</w>
et ry</w>
o h
Tai ra</w>
F am
origin ally</w>
m ag
Nor thern</w>
Min istry</w>
C ul
bel ong
iv ing</w>
n ext</w>
M URA</w>
s ai</w>
moun tain</w>
l ess</w>
shog unate</w>
n ec
T O</w>
w ar
1 8</w>
Coun ty</w>
territ ory</w>
O ff
e m</w>
M an
develop ed</w>
B A
t oday</w>
cre ated</w>
sol di
r y
Y A
En g
r one</w>
en shrin
m y</w>
in ning</w>
a ut
R I</w>
s ing</w>
l ost</w>
th erefore</w>
ref ers</w>
eri es</w>
M A</w>
L ater</w>
k en</w>
po ems</w>
me an
ent ered</w>
fam ous</w>
p aper</w>
mast er</w>
hal f</w>
c ust
2 1</w>
youn g</w>
s im
ro le</w>
e ast</w>
1 3</w>
s ever
rel ation
for e
comp an
F ur
hir a</w>
se i</w>
ab e</w>
D e
gro und</w>
g un</w>
iv es</w>
em ents</w>
some times</w>
D ain
mus ic</w>
G re
p ed</w>
H all</w>
tiv ely</w>
2 5</w>
sun a</w>
e y</w>
w ays</w>
on om
con duc
as aki</w>
forc es</w>
ag ain</w>
a it
cl ass</w>
M ur
b an
J in
c ir
c ity</w>
sit e</w>
si ble</w>
oug ht</w>
me th
hi s
ay ama</w>
Y uk
D iv
r ul
or ed</w>
m u
if ied</w>
pi ec
l ear
w a</w>
or ial</w>
s word</w>
i als</w>
provinc ial</w>
ch u</w>
am b
tic le</w>
t eac
ok o</w>
um ul
th ing</w>
r en
reas on</w>
h on</w>
YAM A</w>
on ce</w>
f ur
S ek
pl es</w>
G o
hi b
G on</w>
z ur
w id
j ect</w>
coun cilor</w>
I chi
iz e</w>
im i</w>
K az
H e
K u
ord in
ic h
ab ol
M ai
of f</w>
t own</w>
on s</w>
men tioned</w>
s ev
j ust</w>
poin t</w>
re st
nob les</w>
Hig ashi
Fus him
2 8</w>
19 8
1 6</w>
sug u</w>
l ast</w>
ist ered</w>
descri p
con sist
B E</w>
wh ose</w>
e an</w>
S eng
al though</w>
pub lished</w>
a yoshi</w>
at ari</w>
re v
ir o</w>
ac ked</w>
offic ials</w>
cl ose</w>
M ichi
og rap
ay a</w>
K ur
d em
N ew</w>
charact ers</w>
y am
ste ad</w>
D i
no ble</w>
az u</w>
2 4</w>
ro ad</w>
No h</w>
K ar
Co mp
d en
p rec
ed a</w>
R y
1 7</w>
tro ops</w>
st one</w>
estab lish
dis ci
m en</w>
introduc ed</w>
1 4</w>
f il
R ec
prin ci
for man
s et
en ing</w>
auth or
v es</w>
pl ay</w>
oper ation</w>
l ing</w>
pre v
soldi ers</w>
ood en</w>
enshrin ed</w>
as sumed</w>
K om
F rom</w>
retain er</w>
a- cho</w>
fir e</w>
priv ate</w>
YAM A
Kan n
Fam ily</w>
curr ent</w>
th em
rel ated</w>
R it
construc ted</w>
an -ji</w>
sever al</w>
for ce</w>
R o
N a
n s</w>
e p</w>
Om i</w>
S ect</w>
iv ely</w>
h ar
bus iness</w>
iqu e</w>
B ec
tr ac
m ay</w>
an t
pol ic
m ed</w>
ab uki</w>
i x
Fuj iw
th er
O g
n ess</w>
M yo
rak awa</w>
2 3</w>
direc t</w>
di str
J R</w>
Cul tural</w>
ac ter</w>
ug a</w>
re al</w>
ord ered</w>
Kan to</w>
J I</w>
19 0
K og
Div ision</w>
to p</w>
oy a</w>
ang o</w>
D O</w>
spec ial</w>
F ifth</w>
per forman
in aga</w>
v ic
or ation</w>
ir a</w>
m ajor</w>
ear ch</w>
Mus eum</w>
19 7
relation ship</w>
ous ly</w>
all owed</w>
z u</w>
Govern or</w>
th rone</w>
s al
cul tural</w>
Chi k
ut es</w>
st age</w>
char acter</w>
b r
achi ev
19 5
s er
o suke</w>
Hist ory</w>
ac k
u es</w>
c r
re stor
J i
pro t
at ur
w arri
Kei han</w>
Hou se</w>
si x
l ig
beg inning</w>
sc en
l aw
Ni hon
Ko j
o ols</w>
re tired</w>
b ody</w>
sou th</w>
oc hi
in stead</w>
H or
stat us</w>
retain ers</w>
ent er</w>
r yo</w>
c es</w>
orig in</w>
com e</w>
On e</w>
g et</w>
ir ed</w>
T r
en v
Kyu shu</w>
reg arded</w>
T hir
19 6
z an</w>
mean ing</w>
qu ar
vi ew</w>
1 9</w>
S ome</w>
z e</w>
re co
met ers</w>
dai jin</w>
tri es</w>
s an
pl an
bro ught</w>
M O
ok an</w>
is ional</w>
stud y</w>
on es</w>
i ri
Kiy om
cas es</w>
2 7</w>
transf erred</w>
ern al</w>
foun ded</w>
g u</w>
T oshi
Gre at</w>
Fuk u
Bec ause</w>
h ara</w>
H ong
f ourth</w>
H o
form s</w>
stand ing</w>
S atsu
2 9</w>
plac es</w>
p alace</w>
j i-
Seng oku</w>
2 2</w>
re present
cent er</w>
K as
f ood</w>
Tan g</w>
par tment</w>
en s
t al
bec om
r e</w>
Inc ident</w>
ir e</w>
h an
gener ation</w>
Fujiw ara</w>
g ate</w>
A c
N ishi
tak en</w>
sim il
et c</w>
2 6</w>
li ed</w>
vass al</w>
ar ro
y ak
w ro
w ing</w>
enc y</w>
b an</w>
a u</w>
si x</w>
sch ools</w>
ro om</w>
ever y</w>
po etry</w>
d ri
TO Y
C ap
ne w
ast ern</w>
re por
r un
W est</w>
l ev
jo ined</w>
Min amoto</w>
k uni</w>
se par
iw a</w>
ind ic
ed uc
complet ed</w>
ud o</w>
Mai zur
wh at</w>
pro f
wro te</w>
ow ing</w>
d est
op ened</w>
el s</w>
Gu ards</w>
ro ku</w>
p er</w>
ul ar
m ot
rem ains</w>
m ents</w>
e ff
relig ious</w>
comp any</w>
se hold</w>
ro und
fi ed</w>
d el
B us</w>
oy ama</w>
og atari</w>
eri als</w>
coun tries</w>
on in</w>
u ji</w>
in ation</w>
cul ture</w>
at s</w>
end ai</w>
O r
C l
m arried</w>
TA KE
ug o
situ ation</w>
sequ ently</w>
ow s</w>
OTO MI</w>
pro c
foun der</w>
TOY OTOMI</w>
Off ice</w>
Ch o
m ik
K uro
vill age</w>
nor th</w>
E chi
l ong
enc es</w>
en se</w>
li m
ta x</w>
ed it
av es</w>
tri c</w>
mit ted</w>
im age</w>
l ords</w>
h ome</w>
N ai
pp er</w>
I se</w>
19 3
r an</w>
yo t
inv ol
t ot
d ate</w>
k et</w>
att ack</w>
x im
bu n</w>
W or
os a</w>
meth od</w>
f ol
se as
M e
aff airs</w>
f estival</w>
de ity</w>
Y A</w>
H os
ent ed</w>
comman der</w>
HO SO
ron ic
inc ident</w>
read y</w>
F estival</w>
p refec
min ister</w>
dec ided</w>
man ag
N in
up on</w>
di es</w>
W estern</w>
oc cur
influ ence</w>
Thir d</w>
t le</w>
form ation</w>
c rit
an i</w>
H ak
st op</w>
defe ated</w>
ass igned</w>
K atsu
I m
s crip
rec ord</w>
ac t</w>
W hi
S ang
rid ge</w>
j i
tri ed</w>
pain ting</w>
f ought</w>
mat erials</w>
ut y</w>
K e
co v
a emon</w>
Maizur u</w>
w estern</w>
umul us</w>
forc ed</w>
simil ar</w>
coll ection</w>
t or
o e</w>
P ri
wom en</w>
Sec ond</w>
H ik
ag o</w>
Z A
u -ji</w>
eng th</w>
U CHI</w>
provinc es</w>
docum ents</w>
w aka</w>
R eg
partic ip
k ind</w>
s en</w>
k i
enc ed</w>
cer tain</w>
con fl
z a</w>
m yo
curr ently</w>
Th ese</w>
f ish</w>
at eg
it a</w>
oun t</w>
follow s</w>
Satsu ma</w>
F ir
t ings</w>
g yo</w>
ass oci
s ei
ent ion</w>
kai do</w>
t aking</w>
em y</w>
dr aw
R I
Ro ad</w>
K ot
vass als</w>
anc es</w>
enti al</w>
ol der</w>
com mon
am ed</w>
Kor ean</w>
sh oki</w>
in her
oper ated</w>
vis ited</w>
n in
R oku
teac h
end ing</w>
str ong</w>
po em</w>
he av
all s</w>
pri ests</w>
H it
Y u
Le ft</w>
iz u</w>
T ale</w>
ay ed</w>
Z en
f ri
f ifth</w>
H yo
en s</w>
au ce</w>
ti c</w>
k oku
high est</w>
S et
m ak
N A</w>
od e</w>
C ro
se e</w>
re i</w>
g ing</w>
cl oth
cl o
ru le</w>
produc tion</w>
er -
d era</w>
Dain agon</w>
r yu</w>
o chi</w>
sh es</w>
p un
ing u</w>
f em
de f
c arried</w>
ard en</w>
M ain</w>
k ok
R ou
n ight</w>
bu s</w>
s qu
l ower</w>
s auce</w>
centr al</w>
bu tsu</w>
B o
1 18
prin ce</w>
pl at
conduc ted</w>
HOSO KAWA</w>
l ish</w>
h um
vol ume</w>
establish ment</w>
N ichi
F or
ard ing</w>
Rou te</w>
w ooden</w>
re p
e igh
Fir st</w>
t reas
ro y
ir i</w>
g l
me as
in st
ca used</w>
Th en</w>
shap e</w>
occur red</w>
Tsu k
Pro per
h ood</w>
Su tra</w>
th ers</w>
whi te</w>
Z en</w>
lat ter</w>
f ace</w>
ac y</w>
wor ked</w>
si mp
par ty</w>
car s</w>
al ready</w>
ar s</w>
th um
s ign
Yoshit sune</w>
lin es</w>
bel l
s ay</w>
op in
ec tively</w>
mon k</w>
um es</w>
am p
Con f
K y
I mp
R ight</w>
at ic</w>
shap ed</w>
i i</w>
F ourth</w>
or por
offic er</w>
gran ted</w>
Ch u
ro und</w>
l un
L t
Rit suryo</w>
Nihon shoki</w>
ec ts</w>
a shin
rai sed</w>
es cap
con n
al ized</w>
B os
sur v
in o</w>
i ans</w>
let ter</w>
l l</w>
rec ords</w>
ther more</w>
im ate</w>
p e</w>
f av
es pec
aku -
E v
- day</w>
ition ally</w>
est ed</w>
e ight</w>
d ings</w>
ac h</w>
H is
j ud
ic ho</w>
pos e</w>
ail s</w>
er ful</w>
gener ally</w>
g a</w>
R est
s aying</w>
gener ations</w>
TA KA
I I</w>
sch ol
ow ned</w>
espec ially</w>
g n
con v
c ast
J o
E lec
S o
temp or
diff icul
achi -
serv ing</w>
H ir
s even</w>
his a</w>
Sh u
s cal
prov ince</w>
polic y</w>
le t</w>
Whi le</w>
go t</w>
exist ed</w>
div ided</w>
as ed</w>
g ods</w>
fi eld</w>
ac tiv
abol ished</w>
sp read</w>
author ity</w>
xim ately</w>
m em
con d
f o
descrip tion</w>
am ount</w>
J ugo
f arm
aku -ji</w>
ow n
oug h</w>
of uk
lig rap
lead ing</w>
cal ligrap
includ e</w>
h el
att acked</w>
P o
im e</w>
z ei</w>
s hima</w>
ing u
5 0</w>
15 8
us an
ug yo</w>
s ays</w>
grad ually</w>
expres s</w>
ic k</w>
fe w</w>
f r
G I</w>
f ig
b o</w>
vi ew
performan ce</w>
end s</w>
comp iled</w>
add ed</w>
s w
T og
t om
reg ions</w>
HO JO</w>
sur round
Kann on</w>
l igh
fl o
stu died</w>
mu ch</w>
i an
el ds</w>
I ts</w>
l oy
Shog unate</w>
S ag
J odo</w>
n ear</w>
ab in
ref er</w>
y aku</w>
im ono</w>
ac qu
av ing</w>
ad vis
ab uro</w>
Y ok
fore ign</w>
pres s</w>
d ance</w>
ass ist
mon ey</w>
co ok
administr ation</w>
Ch ronic
wom an</w>
th us</w>
ran ked</w>
h ow</w>
fem ale</w>
sp ir
g ri
distr ict</w>
SA I
Fushim i</w>
u str
se a</w>
res t</w>
M a
K oku
Ni hon</w>
B ure
ran ce</w>
G oshi
tr av
C oll
in side</w>
h ear
K ik
ac compan
Cro wn</w>
usu ally</w>
hou ses</w>
g old</w>
Elec tric</w>
su ff
quar ters</w>
p att
ow a</w>
V ill
d on</w>
a- jinja</w>
A t
uk ai</w>
tre at
suppor t</w>
stit ution</w>
Z U
pow erful</w>
lim ited</w>
c el
ast e</w>
ran king</w>
pract ice</w>
cl ear</w>
a k</w>
U ji</w>
edit ary</w>
a shu</w>
Sh ot
Gr and</w>
liter ature</w>
leg it
cl ai
ai g
yor ai</w>
sp e
l ic
sel ected</w>
l iving</w>
sp ring</w>
pre par
l os
k ept</w>
C o</w>
reco gn
retur n</w>
pos thum
n atur
Ch un
in depend
develop ment</w>
nec ess
en th
M om
s ister</w>
ci l</w>
W ith</w>
R es
lin e
Tak eda</w>
Tak am
mis sion</w>
e al
Mon ogatari</w>
DA IRA</w>
Rest oration</w>
lev el</w>
writ ing</w>
tur ed</w>
l ad
charact eri
direc tly</w>
appro ximately</w>
M at
vis it</w>
her editary</w>
p aku</w>
acc ep
bas e</w>
N ik
cov ered</w>
uk o</w>
t un
o le</w>
t an
se ems</w>
m a
ent ary</w>
R yo
suppor ted</w>
cl ans</w>
an no
Shin k
i a</w>
al most</w>
Shi k
proper ty</w>
id a</w>
ty -
oc ial</w>
gre at
f all</w>
Bos atsu</w>
ex pl
d on
ac red</w>
I f</w>
ot s</w>
K int
S U</w>
c an
pl an</w>
comp ar
as c
abin et</w>
oc cas
e over</w>
Bure au</w>
ta x
k ar
hi ko</w>
Fur thermore</w>
ug e</w>
stud ents</w>
scal e</w>
od a</w>
conc ern
B A</w>
at or</w>
k ata</w>
if ic</w>
common ly</w>
pos itions</w>
l ow
f -
sh ort</w>
present -day</w>
bu sho</w>
ashi ro</w>
ic k
Comp any</w>
tot al</w>
su k
to o</w>
sel ves</w>
j u
el dest</w>
bell ion</w>
as ked</w>
ap pe
um o</w>
b on</w>
Imp ortant</w>
s ing
prof ess
f ell</w>
do m</w>
b att
post s</w>
invol ved</w>
piec es</w>
organ ization</w>
t ation</w>
st ed</w>
hand ed</w>
follow ed</w>
descend ants</w>
R ik
p ag
l ight</w>
ic ts</w>
p eri
mov ement</w>
k y
Sh on
M ak
m er</w>
do es</w>
ac him
Cap tain</w>
w ide</w>
ro ute</w>
out side</w>
P e
pr is
l s</w>
me i</w>
dis pat
up s</w>
organ ized</w>
aw a-
MATSU DAIRA</w>
om a</w>
un it</w>
k yu</w>
ic ip
them selves</w>
ol dest</w>
o- in</w>
k ei</w>
ar ch
p o</w>
es th
dist ingu
ribu ted</w>
im medi
cro s
St ate</w>
it self</w>
e ing</w>
T or
T o</w>
thro ugh
ar ily</w>
an g</w>
hig her</w>
ed ly</w>
z ai</w>
pain tings</w>
S E
var i
e z
belong ed</w>
um ent</w>
olog ical</w>
person s</w>
d -
buil dings</w>
O w
h eir</w>
G ok
ilit ies</w>
ex ec
S ub
Hong an-ji</w>
ser ve</w>
oku -
six th</w>
r is
oo t</w>
rem ained</w>
exc ept</w>
et su
T ei
L and</w>
t a</w>
T er
prov ided</w>
ev ent</w>
Goshi rakawa</w>
sug g
p al</w>
15 9
An d</w>
De partment</w>
Chun agon</w>
s we
Re tired</w>
Conf uc
stat ues</w>
ok oro</w>
legit imate</w>
d ynasty</w>
cir c
bel ow</w>
Wor ld</w>
3 1</w>
r i</w>
mer ch
bi g</w>
aw ara</w>
ar ticle</w>
K abuki</w>
fur ther</w>
ei ther</w>
ch es</w>
bro thers</w>
ar ran
ar chi
S on
M OTO</w>
A ff
uchi -
h aru</w>
stit ute</w>
k o
ev al</w>
eb r
comm un
no od
ai led</w>
U k
success ion</w>
mik oto</w>
a ur
app ears</w>
r un</w>
odai -ji</w>
oc c
h app
H er</w>
au ji</w>
n ation</w>
inher ited</w>
cour se</w>
col or</w>
ag awa</w>
ab ly</w>
St ates</w>
l ength</w>
if ication</w>
he i</w>
As soci
m y
10 0</w>
m ura</w>
land s</w>
Koj iki</w>
Ev en</w>
Dai g
re ign</w>
fin ally</w>
U j
l led</w>
ec onom
z u
wh ole</w>
Min o</w>
B u
sil ver</w>
s eries</w>
mon th</w>
e at</w>
anc est
ah ara</w>
2 0
origin ated</w>
T own</w>
T ango</w>
M utsu</w>
g e
direc tor</w>
vol umes</w>
et ada</w>
shi ps</w>
res igned</w>
par ts</w>
high -
K ami</w>
ri st
at ives</w>
t ained</w>
re vis
lar g
through out</w>
accep ted</w>
pro cess</w>
com b
cel ebr
15 7
Sh os
r end
T ot
HA RA</w>
st reet</w>
serv ices</w>
e astern</w>
stat es</w>
ex ist</w>
T reas
line age</w>
in k</w>
esth ood</w>
am bo
U E
o t</w>
er ence</w>
att emp
anc ed</w>
Lt d</w>
s ocial</w>
Vill age</w>
Associ ation</w>
tr aining</w>
it ing</w>
go ing</w>
Coll ection</w>
cust om
pri esthood</w>
c y</w>
act or</w>
Yor im
Aff airs</w>
w al
t ree</w>
em ori</w>
becom ing</w>
am aro</w>
u ted</w>
success or</w>
pro b
en emy</w>
co p
th ology</w>
t ext</w>
ov ed</w>
ei -
Ar my</w>
princi pal</w>
det ails</w>
h ak
g arden</w>
eri or</w>
o y</w>
Hou sehold</w>
E uro
tr an
t ain
sen se</w>
r ailway</w>
er ors</w>
T sur
wh ether</w>
tion al</w>
st ations</w>
nor thern</w>
j ingu</w>
increas ed</w>
set t
us es</w>
ev ents</w>
confl ict</w>
comm it
I CHI
w ear</w>
w e</w>
vi a</w>
sp iri
spiri t</w>
h om
Yam at
Gen eral</w>
t ern
reg ul
n ever</w>
In ner</w>
Y ear</w>
E ast</w>
of un</w>
ess ion</w>
w ards</w>
gen d</w>
fi elds</w>
m id
crit ic
a ji</w>
Kan sai</w>
E duc
An cient</w>
i ble</w>
imp ro
S aga</w>
struc ture</w>
s eng
ey ama</w>
trans l
t ains</w>
z ed</w>
ch ap
ot e</w>
oshi n</w>
m ary</w>
L aw</w>
wid ely</w>
w ood</w>
l ain</w>
j un
ar ts</w>
N yorai</w>
ograp hy</w>
an ti
ac tive</w>
Prefec tural</w>
us ol
co ins</w>
pos sible</w>
oc r
fil m</w>
sev enth</w>
g oku</w>
ar ies</w>
Tak auji</w>
S un
Nichi ren</w>
M is
M O</w>
s old</w>
pr on
g s</w>
T endai</w>
st re
soci ety</w>
ell ing</w>
co de</w>
c ut</w>
Kiyom ori</w>
rest aur
ran ks</w>
m ir
SA KA
M iddle</w>
ub o</w>
j iro</w>
d ou
ai jin</w>
Tan ba</w>
Kam ig
t ar
KU RA</w>
A shik
A n</w>
ular ly</w>
gro ups</w>
cor respon
arro w</w>
M ich
K ak
comp osed</w>
am achi</w>
leg al</w>
R ok
4 0</w>
ang u
y en</w>
su per
s o-
pur pose</w>
lun ar</w>
h at
b and</w>
J ushi
Cho shu</w>
Yam ag
Sh un
ordin ary</w>
k aku</w>
in it
Ch rist
scen e</w>
enth ron
ho t</w>
h ai
y ori</w>
th ings</w>
sen ior</w>
ess ed</w>
activ ities</w>
R us
No .</w>
Hig h</w>
gu ar
requ ired</w>
id es</w>
dis c
act ually</w>
educ ation</w>
tre ated</w>
di an</w>
de fin
Ow ari</w>
I shi
th re
s an</w>
prov isional</w>
f ight</w>
d ation</w>
T SU</w>
w at
si b
f un
ambo o</w>
am i-
NAKA MURA</w>
comm and</w>
Ad d
A ri
o ted</w>
l em
Shing on</w>
K U</w>
ec tive</w>
de ities</w>
c ed</w>
ak i-
ad s</w>
H ojo</w>
Am ong</w>
ing ly</w>
est ate</w>
dic ated</w>
Mor eover</w>
conf erred</w>
si a</w>
Tak a
M any</w>
the ories</w>
form al</w>
cl os
administr ative</w>
act ors</w>
ab les</w>
op p
et ing</w>
b ack
Shig a</w>
k u
disci ple</w>
att ers</w>
Mus ashi</w>
su ka</w>
res earch</w>
r ic
nood les</w>
m ight</w>
amb er
Proper ty</w>
warri ors</w>
sug i</w>
s acred</w>
p ref
ter ms</w>
ord ed</w>
in es</w>
i o</w>
Jugo inoge</w>
uk e</w>
partic ular</w>
O da</w>
G un
l ow</w>
b en
tran sp
posthum ous</w>
gu ard</w>
am asa</w>
pro mot
dom ains</w>
tow ns</w>
ous and</w>
Ashik aga</w>
difficul t</w>
coun t</w>
run ning</w>
po t</w>
po et</w>
p ass</w>
descri b
s or
r ather</w>
h ere</w>
eri c</w>
sh ow</w>
produc ts</w>
lit tle</w>
6 0</w>
rul ing</w>
pos s
h y
g ive</w>
Yas u
T odai-ji</w>
T a
G os
ro r</w>
le d
Th ree</w>
Sang i</w>
K ob
icip al</w>
f unc
G I
Fuk uchi
roy ed</w>
er u</w>
d eri
NO E</w>
C lo
B ut</w>
ro s
pp ed</w>
docum ent</w>
c ateg
mem orial</w>
in formation</w>
Chi ef</w>
z en
tr ade</w>
sec ret
high ly</w>
in str
ik u</w>
b ound</w>
H im
sh or
occ up
characteri st
ak ira</w>
18 5
und red</w>
f requ
wh ere
ut a</w>
ur ed</w>
rec orded</w>
er ry</w>
ud e</w>
tow ard</w>
n ov
aw arded</w>
av ed</w>
Educ ation</w>
us crip
on ed</w>
g ained</w>
f oot</w>
C ol
oc k</w>
I TO</w>
3 3</w>
natur al</w>
lear ned</w>
id ing</w>
Sh ok
um ents</w>
s ize</w>
if ic
f und
dest royed</w>
av y</w>
th s</w>
om m
i to</w>
h us
Sh ugo</w>
G or
opin ion</w>
mon ks</w>
h un
f ic
tre es</w>
env oy</w>
re ached</w>
in ner</w>
ent al</w>
E d
form ing</w>
Sh owa</w>
lead er</w>
ef for
clo th</w>
ast er</w>
O KA</w>
son s</w>
m ale</w>
loc ation</w>
ch in
t -
st ip
medi eval</w>
law ful</w>
ci ence</w>
YO SHI
man or</w>
i yo</w>
ix ed</w>
d rin
U pper</w>
Mas am
shi ki</w>
le gend</w>
dec or
s ion
hor se</w>
amber lain</w>
act ual</w>
techn ique</w>
rit suryo</w>
om on</w>
H at
G odai
rig h
ofuk u-ji</w>
id ea</w>
dis h</w>
Yam ashiro</w>
Am ida</w>
proper ties</w>
present ed</w>
R en
R O
Mik oto</w>
M ochi
st s</w>
offic ers</w>
man uscrip
f igh
ay u</w>
To yot
Mas ak
wor n</w>
squ are</w>
com ing</w>
H achim
Clo istered</w>
p ast</w>
m ul
dis p
b amboo</w>
at en</w>
typ es</w>
inv est
det er
O rig
B an
str ong
re di
iv al
includ es</w>
g ath
w r
in ated</w>
Chronic les</w>
v ir
st ri
seng umi</w>
rec omm
iv id
av ail
ap prov
Ar ticle</w>
resp ectively</w>
od ai</w>
id o</w>
M U
B ank</w>
ur a-
stor ies</w>
ok e</w>
me d
el led</w>
Fukuchi yama</w>
t o-
reg ent</w>
op en</w>
di ary</w>
yu -ji</w>
ot su
o- gawa</w>
g en</w>
f re
ere after</w>
el ev
bu shi</w>
D an
3 6</w>
sil k</w>
fin anc
Y ak
k ind
assist ant</w>
inter pre
exist ence</w>
B e
yo shu</w>
o- jinja</w>
Shin sengumi</w>
1 1
qu ality</w>
man u
ent er
descend ant</w>
Shin shu</w>
st and</w>
di shes</w>
in sul
in struc
MO RI</w>
wor ship</w>
territ ories</w>
is en</w>
distingu ished</w>
an ori</w>
S og
equ ival
d re
R in
Ar t</w>
sh ing</w>
avail able</w>
ch ing</w>
M iya</w>
wh y</w>
immedi ately</w>
en in</w>
el ed</w>
cust om</w>
bo ard</w>
San jo</w>
Cour ts</w>
tr ue</w>
t old</w>
s ions</w>
al ways</w>
Hok kaido</w>
Ac t</w>
k m</w>
gre en</w>
child hood</w>
Is land</w>
o i</w>
ke ep</w>
Nag a
M ajor</w>
Kaw achi</w>
K a
ut ting</w>
s ak
ok awa</w>
d am
P ure</w>
J usan
D az
sur i</w>
rec ent</w>
por tr
polit ics</w>
hum an</w>
equival ent</w>
ac ted</w>
sur rend
ind ivid
hus band</w>
financ ial</w>
e ed</w>
SU GI</w>
uk a</w>
ha shi</w>
b ashi</w>
T osa</w>
Mitsu hide</w>
Hei ke</w>
u als</w>
sho en</w>
con s
Govern ment</w>
st ood</w>
el der</w>
c m</w>
tsu k
mat erial</w>
de par
de ep
O tsu</w>
su d
ing redi
h ei
U E</w>
sub ject</w>
read ing</w>
op ped</w>
o- jo</w>
j ects</w>
iz o</w>
end o</w>
C enter</w>
up per</w>
av o
reg ular</w>
m ust</w>
k imono</w>
ish ment</w>
Kan paku</w>
um n</w>
ro of</w>
min utes</w>
lo t</w>
e o</w>
bro ke</w>
ac ros
S ur
st ayed</w>
sid es</w>
i le</w>
rit ual</w>
peri ods</w>
archi tec
acros s</w>
oshim a</w>
os en</w>
it su
ans en</w>
Godai go</w>
piec e</w>
offic es</w>
n a</w>
m un
direc tion</w>
Yor i
sh ugo</w>
pr ay
pic ture</w>
h ard</w>
escap ed</w>
er ation</w>
Coun cil</w>
recogn ized</w>
m ess
g un
f ar</w>
er c
d ro
bu gyo</w>
As sist
ic ide</w>
d ai</w>
appear ance</w>
zuk uri</w>
so on</w>
au ti
16 0
complet ely</w>
D istr
Add itionally</w>
ut en
t our
se -
pro hib
az aki</w>
att ached</w>
am p</w>
Higashi yama</w>
w ell
re al
iqu es</w>
as him
Par ty</w>
kn ow
em itsu</w>
dep uty</w>
I SHI
tw ent
pass eng
ne l</w>
lin ed</w>
NO UE</w>
og en</w>
o- cho</w>
exist ing</w>
ch o
I t
G O</w>
K ai</w>
ear ing</w>
te enth</w>
s le
independ ent</w>
gen cy</w>
ful l</w>
ass ass
L oc
f if
ent ually</w>
new ly</w>
de ad</w>
M iz
Kint etsu</w>
us ion</w>
anno unc
Shig e
Jusan mi</w>
Assist ant</w>
be h
b ow
am s</w>
T umulus</w>
w an
pol ice</w>
necess ary</w>
le aves</w>
e ase</w>
Echi zen</w>
18 4
sou thern</w>
ort ation</w>
ment al</w>
ib u</w>
es e-
eigh th</w>
cloth es</w>
at ively</w>
su icide</w>
grand son</w>
er ic
ear th
usol eum</w>
t able</w>
m ing</w>
k awa</w>
is c
in ojo</w>
ent rance</w>
bl ack</w>
Y od
186 8</w>
sh ows</w>
person al</w>
c ar</w>
am a-
ad ed</w>
Ni jo</w>
G y
w on</w>
tr ack</w>
manu fac
ch u
calligrap hy</w>
be i</w>
Mit sun
ful ly</w>
en insul
Tad a
D o
Ch ug
warri or</w>
w ak
sy m
know led
hol ding</w>
issu e</w>
can not</w>
bur ied</w>
Yoshim itsu</w>
U r
iz en</w>
ic ed</w>
grand father</w>
ar ti
G ot
A suka</w>
l ive</w>
c ou
Tak ak
Sh or
San et
S i
P l
Mich inaga</w>
me at</w>
man aged</w>
m iya</w>
exp eri
emp loy
ceremon ies</w>
arri age</w>
ai t</w>
B a
sou p</w>
iv il</w>
coll ected</w>
O b
s ong</w>
b ot
KA N
Hyo go</w>
B y</w>
requ est</w>
k am
g es</w>
conv en
re t</w>
ot eric</w>
l a
fig ure</w>
el ec
dispat ched</w>
disc us
depend ing</w>
bu re
S a
Iz umo</w>
treas ure</w>
ist s</w>
ab ility</w>
T w
L ib
s oba</w>
ri ver</w>
represent ative</w>
particip ated</w>
manag ement</w>
lo ok
fac ilities</w>
deter min
K E</w>
st ly</w>
gr ave</w>
M ing</w>
s our
op posed</w>
vic e-
un ique</w>
k i-
P er
s eri
et sugu</w>
s words</w>
por t</w>
em ed</w>
e ge</w>
N DO</w>
Ko be</w>
s ura</w>
ag re
St u
Set tsu</w>
Ex press</w>
Am eric
val ue</w>
r al</w>
foun dation</w>
eninsul a</w>
e ful</w>
comp et
Toyot omi</w>
ill s</w>
em er
ed ition</w>
Tai sho</w>
F ac
E s
techn iques</w>
re bellion</w>
dep ic
Shot oku</w>
w an</w>
plat form</w>
on e-
ishi ki</w>
cul tiv
acc ord
K ashi
tur ned</w>
ren amed</w>
pe ace</w>
li es</w>
d ono</w>
Mun icipal</w>
Har ima</w>
G O
Distr ict</w>
h ong
emp ress</w>
R ei
s cre
m ae</w>
beh ind</w>
sh aku</w>
reg arding</w>
kind s</w>
d ers</w>
Tak at
NA GA
y our</w>
s cro
r ad
com es</w>
Nobu t
Mas at
200 6</w>
moun tains</w>
d one</w>
concern ing</w>
Shink ansen</w>
sur e</w>
sh o-
m ur
estiv als</w>
eas ed</w>
Sh ug
ur b
adv oc
ver sion</w>
j utsu</w>
Prov isional</w>
Or der</w>
0 ,000</w>
inc orpor
ik e</w>
eng aged</w>
UE SUGI</w>
S ug
y uki</w>
ul ty</w>
m al</w>
let ters</w>
g ok
exam ples</w>
and s</w>
O KU
Nag asaki</w>
mag istr
jo in</w>
id enti
estab lish</w>
ai l</w>
Yam ashin
200 7</w>
re s</w>
n ation
er age</w>
W ar
tic les</w>
prev ious</w>
pr ai
n i</w>
compan ies</w>
an im
adv anced</w>
sing le</w>
mo chi</w>
exc av
be auti
U e
su sp
pag oda</w>
it ation</w>
b un
B ridge</w>
t umulus</w>
ow ers</w>
du ties</w>
disci ples</w>
b est</w>
N I</w>
surround ing</w>
prec inc
long er</w>
Un ited</w>
M and
p et
offic ially</w>
id ence</w>
Rec ords</w>
w are</w>
us ai</w>
ti al</w>
r on</w>
mor ning</w>
du ce</w>
c en
ac tion</w>
Q ing</w>
G ate</w>
tempor ary</w>
le ad</w>
c him
atsu -
at ures</w>
S ot
B i
teach ings</w>
k yo
k atsu</w>
emp erors</w>
cl osed</w>
bar bar
us o</w>
sh u
ord ers</w>
o o</w>
m oto</w>
con tr
K os
K is
qu est
ey ori</w>
ex hib
ai do</w>
D es
7 0</w>
3 5</w>
ov ere
ashi ge</w>
Yas ut
T oy
Shin ano</w>
KA WA
z ane</w>
us hima</w>
stit u
figh ting</w>
f er
appe ar</w>
al led</w>
S A</w>
ust ri
s em
p ot
ong s</w>
me t</w>
SA N
h as
bo w</w>
U m
w s</w>
reas ons</w>
pres erv
om atic</w>
m ill
l ove</w>
er ature</w>
el ing</w>
di pl
re pe
op ening</w>
k ill</w>
de dicated</w>
circ um
ro c
rin gs</w>
d an</w>
M ori</w>
w all</w>
n ature</w>
im asa</w>
ill ness</w>
ess es</w>
cal l</w>
y i
lad y</w>
grad u
ev entually</w>
describ es</w>
p aid</w>
er ship</w>
d es</w>
commit ted</w>
arm s</w>
H achi
wor shi
l angu
ever y
G on
rem ain</w>
fu ture</w>
con qu
ch a</w>
3 8</w>
sib ility</w>
pe i</w>
b es
Yoshin obu</w>
Shi chi
poin ted</w>
K ugyo</w>
some thing</w>
oun ced</w>
j u-
ar ist
Y a
Mom oyama</w>
A tsu
ul ation</w>
stand ard</w>
ne go
nego ti
min d</w>
le -
ac ad
7 2</w>
pe as
bas is</w>
adv ant
Yoshim asa</w>
off ered</w>
chang es</w>
belong ing</w>
accompan ied</w>
sy ll
spec i
in ter</w>
at ory</w>
1 15
val u
t at
i ated</w>
cir cul
T ran
Sh ak
M oun
Hig ashi</w>
gro und
g on</w>
follow ers</w>
deri ved</w>
b a
8 0</w>
zuk e</w>
st ated</w>
pres ident</w>
l ay
ag r
Kar as
D en
st able</w>
or u</w>
k in
draw n</w>
cont ains</w>
al es</w>
ag er</w>
no t
h air</w>
fac tion</w>
enthron ement</w>
K ong
K ing
vir t
sh owed</w>
o be</w>
ne ed
li k
iz ing</w>
O ther</w>
sum mer</w>
sh ops</w>
sec ts</w>
p up
mid -
iy ama</w>
gr ade</w>
eg r
3 2</w>
ir on</w>
Un der</w>
U daijin</w>
well -
su n</w>
sh am
s ent
con nec
au di
ab i</w>
ab a</w>
Sum mary</w>
B en
1 17
star ting</w>
lear ning</w>
j oy
ens ive</w>
ei sha</w>
Dai j
t aste</w>
star t</w>
partic ularly</w>
oku -ji</w>
me ant</w>
loc k</w>
i ent</w>
bu tsu
me eting</w>
il gri
af f</w>
z aemon</w>
shog un
restor ed</w>
R ep
D oshi
wor king</w>
schol ar</w>
s per
pl ays</w>
co st
arri ved</w>
Sh oshi
Confuc ian
C er
doc t
class ified</w>
beauti ful</w>
a uc
Yoshi aki</w>
TAKE DA</w>
Sek ig
- g
str ic
sh ar
re duc
hand s</w>
farm ers</w>
f estivals</w>
enti re</w>
ail ways</w>
Ue sugi</w>
Orig in
ot ing</w>
aj ima</w>
Prov inc
K iz
J ok
arist ocr
Z U</w>
K ing</w>
wh om</w>
vill ages</w>
o l</w>
es hi
Wak ashu</w>
Par k</w>
mat ernal</w>
i yoshi</w>
al co
Yoshin aka</w>
1 16
hel p</w>
flo or</w>
exc ell
chap ter</w>
bu t
bre w
Echi go</w>
s pl
guar dian</w>
g et
Ten mu</w>
Tad at
S ar
Hi ei</w>
G ak
A b
te en</w>
repor ted</w>
er ly</w>
e ating</w>
barbar ians</w>
al th</w>
Ok in
trad ition</w>
t ex
frequ ently</w>
circum st
En ry
tom b</w>
os eki</w>
fl av
fi x
SHI MA</w>
M im
A round</w>
transf er</w>
nin th</w>
l ab
ish ing</w>
h undred</w>
eal og
des ign</w>
conn ected</w>
cap tured</w>
a p</w>
Sad aijin</w>
Kit a</w>
J ing
oj i-
merch ants</w>
N en
A SA
th ousand</w>
le m</w>
influ enced</w>
id ent
K ofuku-ji</w>
sum i</w>
su i</w>
res sed</w>
g ar
bre wing</w>
Mik awa</w>
Hist or
H ai
15 6
s ound</w>
pro gr
li sted</w>
inst alled</w>
in e
ic ial</w>
ern s</w>
contro lled</w>
B akufu</w>
Euro pe</w>
C orpor
m ound</w>
dri ed</w>
j ik
em ic</w>
eff ect</w>
al ty</w>
Tai wan</w>
K us
H in
w earing</w>
occas ion</w>
giv ing</w>
si an</w>
restor ation</w>
comp il
Ki yo
su shi</w>
sm all
patt ern</w>
ou th</w>
m arriage</w>
k en
g ir
eg et
dou b
clai med</w>
c y
aku shi</w>
y s
spec ific</w>
ne igh
ligh ten
ingredi ents</w>
g aku</w>
e aten</w>
d id
auth or</w>
app lied</w>
V ol
Shi rakawa</w>
ud ai</w>
qu ite</w>
dom in
differ ence</w>
Me an
H yak
becom es</w>
S es
Al l</w>
re form</w>
princi ple</w>
j ima</w>
dr ama</w>
cri bed</w>
Sekig ahara</w>
Dai go</w>
id e
ei e</w>
class ical</w>
sub mitted</w>
and ed</w>
S E</w>
ran ge</w>
pro sper
batt les</w>
F un
3 9</w>
1 19
- cho</w>
ot us</w>
li ance</w>
increas e</w>
in f
dist ance</w>
defe at</w>
con fir
c it
as hima</w>
- -
swe et</w>
koku shi</w>
h oku</w>
dis mis
did n</w>
de b
cri min
TA NA
Ot omo</w>
OTO MO</w>
ut su
tw el
stu dies</w>
sho p</w>
pain ted</w>
Yoshin o</w>
Confucian ism</w>
tim et
th in</w>
ke ep
appoin tment</w>
ak usa</w>
Th us</w>
M od
E m
C abinet</w>
ur ban</w>
ru led</w>
k on
influ ential</w>
fl owers</w>
cond ition</w>
Sh om
Enry aku-ji</w>
sur name</w>
invest ig
hal f-
atsu k
S y
D ue</w>
t ale</w>
or e</w>
mo stly</w>
l y-
f uk
G oz
Doshi sha</w>
tic ket</w>
sign ific
Pe ople</w>
I se-
A BE</w>
s at
m age</w>
excell ent</w>
ear li
de ep</w>
d ar
San e
P ol
G yo
3 7</w>
play ing</w>
mov e</w>
int egr
in- law</w>
in sist
fl ower</w>
atsu ko</w>
Kuro do</w>
rul es</w>
is ions</w>
ar ticles</w>
anc ing</w>
ak ami</w>
plan ned</w>
p u</w>
k ofun</w>
curr ency</w>
an obu</w>
add itional</w>
wal k</w>
j aku</w>
it ems</w>
f our
ex change</w>
complet e</w>
TA CHI
Res earch</w>
sup p
so y</w>
res erv
i- jo</w>
be an</w>
ay uki</w>
S at
Az uchi-
y et</w>
sup posed</w>
exc ep
equ al</w>
e tic</w>
att end
T re
Shing en</w>
In stitute</w>
1 .
v eget
sp ace</w>
sh oku</w>
s ongs</w>
resp ect</w>
pron ounced</w>
n ine</w>
inv ited</w>
int ern
f are</w>
Kag ami</w>
territ orial</w>
respon sible</w>
on y
k ak
em asa</w>
and ai</w>
Tok aido</w>
N am
1 00
prepar ed</w>
exist s</w>
dec lined</w>
Kag oshima</w>
relig ion</w>
ec hi</w>
determin ed</w>
cook ing</w>
KO NOE</w>
vari ety</w>
tro op</w>
seas on
restaur ants</w>
o yo</w>
langu age</w>
gr and</w>
en joy
compar ed</w>
Yamashin a</w>
sur face</w>
sec ret</w>
n yo</w>
k abuki</w>
ind ustr
b ad</w>
P eninsula</w>
Japan ese-
Corpor ation</w>
run s</w>
rin es</w>
meas ures</w>
k now</w>
imp lem
di a</w>
c amp
SHI MA
Ch ok
3 4</w>
unc le</w>
so- called</w>
separ ated</w>
t ang
stud ent</w>
industr y</w>
M aster</w>
KU JO</w>
sh ort
o in</w>
he ight</w>
consist ing</w>
achiev ements</w>
T E
Mean while</w>
H am
Fuku oka</w>
ushi n</w>
t ok
t ai</w>
in spec
ashi ra</w>
agr icul
sh own</w>
ribu tion</w>
consist s</w>
t ory</w>
re le
indic ates</w>
go ods</w>
dec reas
cook ed</w>
ast ed</w>
Th at</w>
Shim ot
Sak yo</w>
M ost</w>
B O</w>
A gency</w>
m il
ill ing</w>
fun eral</w>
em oto</w>
ZA WA</w>
s ada</w>
circumst ances</w>
beli ef</w>
Treas ure</w>
200 5</w>
y asu</w>
su tra</w>
some one</w>
ow ager</w>
k ot
conc ept</w>
bur ial</w>
bl ood</w>
al a</w>
a ft</w>
TACHI BA
Sak ur
K ukai</w>
reg ional</w>
ograp hi
mak es</w>
hou sehold</w>
c abinet</w>
K aga</w>
J ik
ub lic</w>
sub sequently</w>
clud ed</w>
cast les</w>
b on
associ ated</w>
Mot ot
In ter
Fac ulty</w>
Az uma</w>
4 9</w>
righ ts</w>
mar tial</w>
for t
amb er</w>
M ir
C ent
spir its</w>
regul ations</w>
re li
knowled ge</w>
j uro</w>
hon or
coll ap
b ridge</w>
aut y</w>
Kat sur
Han kyu</w>
Con stitution</w>
w inter</w>
sum o</w>
h arm
ex iled</w>
buil d</w>
tit les</w>
n i
k az
associ ation</w>
am ori</w>
ac tively</w>
Y om
TACHIBA NA</w>
Emp ire</w>
w as
n en
law s</w>
en lighten
ec d
bow l</w>
anti -
Rik yu</w>
rem aining</w>
me dic
mat ter</w>
gath ered</w>
fac ility</w>
cro p</w>
ad ul
Tak e
T oday</w>
Shi gen
SHI BA</w>
Hiro shima</w>
200 8</w>
ug aku</w>
u ter</w>
st ab
ob o</w>
mill ion</w>
it ude</w>
descrip tions</w>
chu jo</w>
az a</w>
af ter
S pec
I yo</w>
C ode</w>
vice- councilor</w>
s overe
prin cess</w>
is land</w>
N JI</w>
4 3</w>
wh eat</w>
w a
ug i</w>
th y</w>
sub du
passeng ers</w>
magistr ate</w>
d an
Nag oya</w>
N yo
tak es</w>
sub o</w>
j ust
cr af
conn ection</w>
con ver
as k</w>
T oba</w>
um s</w>
prev ent</w>
k oji</w>
govern ors</w>
att ention</w>
Yoshit omo</w>
T at
A izu</w>
1 st</w>
tax es</w>
k ag
k ab
ichi i</w>
bas ic</w>
T emp
Hit achi</w>
ground s</w>
cont in
bu -
H ot
Eng lish</w>
. .</w>
t op
schol ars</w>
per mission</w>
enter tain
emp has
cul p
c are</w>
Hos okawa</w>
6 7</w>
12 0
ta ught</w>
st ones</w>
nob ility</w>
n ers</w>
manuscrip t</w>
iy ori</w>
dec ision</w>
YO SHI</w>
Kum ano</w>
K ir
I shik
16 8
simp ly</w>
se eing</w>
rem oved</w>
liter ary</w>
le aving</w>
dr am
den ly</w>
conc ub
a e
sup pres
prob lem</w>
do or</w>
H ay
tempor arily</w>
peas ants</w>
od des
st ic
pun ishment</w>
os o</w>
i- jinja</w>
g ame</w>
fix ed</w>
e ous</w>
e e</w>
5 00</w>
re vol
r ying</w>
in omiya</w>
ha y
c rest</w>
architec ture</w>
yok ai</w>
y oku</w>
sud denly</w>
su e</w>
neigh bor
head quarters</w>
cont ributed</w>
cl us
R ak
O ld</w>
5 8</w>
0 s</w>
u pris
se al</w>
s oy
p ite</w>
l acqu
f ree</w>
audi ence</w>
Yoshi k
T on
SA KI</w>
K oy
transp ortation</w>
succ eed</w>
st er</w>
ro ads</w>
f ailed</w>
de partment</w>
bo iled</w>
auc r
ashi -
S ea</w>
los op
hi losop
ch erry</w>
ancest or</w>
Tre at
Kin ki</w>
st aff</w>
ro k
m id</w>
le ave</w>
kan ji</w>
fol k</w>
ext ended</w>
effor ts</w>
div ision</w>
co in</w>
Sou th</w>
S o</w>
Q u
Mi to</w>
K im
Cer emon
5 2</w>
patt erns</w>
p ill
incorpor ated</w>
head s</w>
gen ealog
aw ar
accord ance</w>
Yoshit aka</w>
in ing</w>
dis covered</w>
col ored</w>
bure aucr
back ground</w>
an y
a oka</w>
To yo
Mot o
L it
Di rec
zuk a</w>
st opped</w>
op pos
m aru</w>
gok enin</w>
cond itions</w>
Sak ai</w>
Rec ord</w>
Di ary</w>
5 1</w>
strong ly</w>
seas on</w>
s aw</w>
rap id</w>
iy uki</w>
if u</w>
ent ry</w>
en ough</w>
ar t
Ok ayama</w>
F ive</w>
D ew
u i</w>
rit uals</w>
k ets</w>
h ang
great ly</w>
ev il</w>
con currently</w>
advis er</w>
Yam an
U kyo</w>
5 4</w>
- in</w>
stip end</w>
shogun al</w>
fav or
bo x</w>
att v
arran ged</w>
an ecd
Vol ume</w>
T eng
S om
Jushi inoge</w>
Am en
18 0
z on</w>
yo e</w>
us h</w>
prefec ture</w>
me ly</w>
l ist</w>
comp os
c ard</w>
bus es</w>
an agi</w>
al ing</w>
Shin -
4 8</w>
4 2</w>
wor k
tre mely</w>
repor t</w>
oy s</w>
main tained</w>
in s
happ ened</w>
ec hi
ac ks</w>
U t
Su z
Shi zu
Shi r
Nai daijin</w>
oshi -
i sho</w>
cro wn</w>
R U
He ad</w>
tur ing</w>
sug ar</w>
sle ev
r ate</w>
hear d</w>
ha i</w>
g am
f ar
ex tremely</w>
acad emic</w>
N e
Miy azu</w>
KA TA
I KE
A y
tow ards</w>
se ki</w>
rel atively</w>
ref used</w>
mast er
ke y</w>
hong i</w>
et aka</w>
c ities</w>
aut umn</w>
ann ual</w>
an ks</w>
Shim og
K od
Con t
z oku</w>
w alls</w>
ud en</w>
prohib ited</w>
pic tures</w>
or a</w>
om s</w>
Y U
War ring</w>
St at
Ki i</w>
D ay</w>
super vis
stor e</w>
per mitted</w>
organ iz
im oto</w>
di o</w>
Kaw ar
G UCHI</w>
Dai shi</w>
re located</w>
mon o</w>
mo on</w>
k in</w>
it able</w>
en -ji</w>
coll ec
co des</w>
am atsu</w>
Mas a
A w
A g
4 5</w>
the ater</w>
tai sha</w>
sh o-ji</w>
res ist
prot ection</w>
pro ject</w>
per c
ok ami</w>
od his
l ives</w>
grand child</w>
S ok
2 00</w>
187 1</w>
w ind</w>
str eng
per forming</w>
k oto</w>
ishi n</w>
avo id</w>
16 9
urb ance</w>
pop ular
ol den</w>
lik ely</w>
ivers ary</w>
exec uted</w>
dre w</w>
car ry</w>
b ri
at a-
Be fore</w>
vi ol
un iversity</w>
t oku</w>
or -
cont ents</w>
ch an
ashi yama</w>
announc ed</w>
an omiya</w>
U me
O NO</w>
M ag
Kum amoto</w>
Kin ai</w>
J im
Higashi -
Cl an</w>
wan ted</w>
teach ing</w>
teac her</w>
simp le</w>
s cap
oddes s</w>
man ner</w>
ilgri mage</w>
hak ase</w>
c u
c ause</w>
approv ed</w>
S cience</w>
Mot on
7 5</w>
ur yo</w>
sal t</w>
or ity</w>
k a
expres sed</w>
econom ic</w>
defin ed</w>
Shin ran</w>
Kam o</w>
I chin
H an</w>
Ar ts</w>
6 9</w>
ter min
r aw</w>
n on-
j ected</w>
i- cho</w>
hol ds</w>
ap pl
aku in</w>
G om
A p
sh all</w>
ru m</w>
resul ted</w>
rece ive</w>
prefec tural</w>
equ ip
I WA
186 9</w>
re ti
p an
mer ged</w>
en aga</w>
c at
bl os
arm ed</w>
Shon ii</w>
Ichi jo</w>
3 00</w>
17 0
we ap
sett led</w>
secret ary</w>
requ ested</w>
mon ths</w>
m atters</w>
Shi n</w>
Sai go</w>
um asa</w>
nor th
mod el</w>
k un
jin -
fil ms</w>
expres sion</w>
dec line</w>
cloth ing</w>
bir th
at trac
s ive</w>
r ary</w>
oper ations</w>
om asa</w>
odhis attv
o s</w>
le ge</w>
h ost</w>
eas ily</w>
dom est
as ion</w>
af usa</w>
R u
Koku shi</w>
Dew a</w>
B ook</w>
p en
ok yo</w>
mul ti
mar ket</w>
l ement</w>
g ak
desc ended</w>
co pper</w>
ab and
Po etry</w>
N is
H y
t ower</w>
od ate</w>
me an</w>
Sak one</w>
Iz umi</w>
treas ures</w>
sum e</w>
sty les</w>
r d</w>
def ense</w>
bet to</w>
O NJI</w>
G er
4 th</w>
suppor ting</w>
om ori</w>
ing -
f a
a- dera</w>
U don</w>
Moun tain</w>
Masam une</w>
L im
E ar
D ist
Ch amberlain</w>
A sia</w>
7 0
5 5</w>
4 6</w>
sy st
str ateg
ret re
min ist
l ook</w>
ill ustr
dis sol
conf ron
c and
Mod ern</w>
Kon oe</w>
1 -
re in
prefec tures</w>
ob ject</w>
n ar
j ug
id en</w>
chang ing</w>
b ring</w>
al tern
advant age</w>
Sur uga</w>
we ight</w>
stor es</w>
recomm ended</w>
r are</w>
performan ces</w>
numb ers</w>
d own
characterist ics</w>
achiev ed</w>
Sh rines</w>
San uki</w>
O I
J izo</w>
ICHI KAWA</w>
C ur
6 5</w>
r ise</w>
pow ers</w>
n ep
m ist
e ko</w>
be auty</w>
ad ing</w>
SO GA</w>
Mi yoshi</w>
G an
treat ment</w>
sit es</w>
scrip tion</w>
pro posed</w>
pp on</w>
individ ual</w>
hat amoto</w>
ent ering</w>
SAI ONJI</w>
Masak ado</w>
AM I</w>
A mat
z umi</w>
ur ity</w>
stre am</w>
spec ially</w>
pray er</w>
ph r
or ted</w>
er ce</w>
enlighten ment</w>
T achi
L ake</w>
t ell
sho in</w>
pe erage</w>
oo m</w>
n or</w>
mess eng
ma usoleum</w>
des igned</w>
correspon ding</w>
Sub way</w>
Origin ally</w>
MI YOSHI</w>
un in</w>
stand s</w>
s n
poin ts</w>
plat forms</w>
p ul
mis sion
m ixed</w>
k o-
k il
j uku</w>
go es</w>
ann iversary</w>
Ok imi</w>
Iz u</w>
AM URA</w>
4 1</w>
transl ated</w>
sour ce</w>
no thing</w>
in a</w>
f led</w>
draw ing</w>
dist inc
atsu gu</w>
ail road</w>
a- gawa</w>
S endai</w>
Mitsun ari</w>
M ilitary</w>
Kam e
For e
A no
3 rd</w>
pr ice</w>
opin ions</w>
m ai
et oki</w>
el t</w>
ed ict</w>
ay asu</w>
attemp ted</w>
W at
Os ak
O e</w>
sec tions</w>
proc ed
ky oku</w>
jun ior</w>
identi fied</w>
er ous</w>
earli er</w>
d uty</w>
A f
suff ered</w>
r yo
profess ional</w>
pre me</w>
man d
introduc tion</w>
fin al</w>
eri t</w>
critic ized</w>
consist ed</w>
cl es</w>
ach ing</w>
SU GA
Chi ba</w>
6 4</w>
ret ained</w>
p ay</w>
nep he
gre w</w>
er i</w>
daugh ters</w>
commun ity</w>
Tw o</w>
Tad ayoshi</w>
v ement</w>
u r</w>
sho oting</w>
ro se</w>
m os
m om
fri ed</w>
er ring</w>
ell ow</w>
ek atsu</w>
ed ge</w>
dis appeared</w>
ak es</w>
Sun g</w>
MA E
Lim ited</w>
4 7</w>
v e
twent y-
rel ative</w>
reg istered</w>
p aste</w>
og i</w>
heav en</w>
g or
f oc
am ichi</w>
YA SHI</w>
N R</w>
K aj
H aku
Coun cilor</w>
5 9</w>
tai shogun</w>
success ive</w>
pro bl
med ical</w>
fore ign
disp ute</w>
dis ease</w>
cor rec
Sh o</w>
On in</w>
Ni shi</w>
E astern</w>
D ut
ob i</w>
m ai</w>
il ing</w>
ep is
depic ted</w>
dec lar
ZA KI</w>
Shizu oka</w>
D ait
B es
tr u
sh ou
ro w</w>
n om
intern ational</w>
f usa</w>
en o</w>
ear th</w>
distr icts</w>
Y an
Mir ror</w>
Ano ther</w>
6 8</w>
vi ously</w>
u b</w>
t ori</w>
pr ay</w>
S oci
Es oteric</w>
D ate</w>
Ar ashiyama</w>
trac ks</w>
revis ion</w>
rel atives</w>
pract iced</w>
igh tly</w>
har v
gu ards</w>
coun ter
ag on
T V</w>
N avy</w>
J NR</w>
Di et</w>
Af ter
9 0</w>
5 7</w>
se emed</w>
re ver
re placed</w>
ll s</w>
ist ic</w>
h ard
en ori</w>
d ates</w>
Shik ibu</w>
Provinc es</w>
HO N
B us
sham isen</w>
ru p
ro les</w>
po ets</w>
ig ata</w>
f le
d rum</w>
ch ec
ait ing</w>
aff ic</w>
To hoku</w>
Sec ret
MA TSU</w>
I MA
AM A
A shi
t ors</w>
surrend ered</w>
ric h</w>
r at
pro duce</w>
ill a</w>
fav or</w>
ei kan</w>
dai bu</w>
cont ained</w>
a f</w>
Z u
Y ug
S ix
6 3</w>
te e</w>
po or</w>
fin ished</w>
f ication</w>
ep ts</w>
e k</w>
cons ort</w>
Th ose</w>
S or
O d
M u
K ang
I ga</w>
5 3</w>
st ay</w>
sh owing</w>
por tion</w>
nephe w</w>
g eisha</w>
f ab
cont ent</w>
Ry uk
Lib rary</w>
Fore ign</w>
v en
t aining</w>
prec ed
op e</w>
it omo</w>
d y
Proper ties</w>
HI RA
B as
treat y</w>
seri ous</w>
scro ll</w>
m al
es ada</w>
direc ted</w>
confir med</w>
att ended</w>
ac king</w>
Wak asa</w>
M y
10 th</w>
view s</w>
ri c</w>
ou ter</w>
ob tained</w>
n d</w>
n arrow</w>
con fin
bur ned</w>
W ooden</w>
Tok i
Tai sha</w>
Michi zane</w>
Ko zuke</w>
Hei an-
war ring</w>
sl ightly</w>
revis ed</w>
res ear
por tun
over thro
o be
mon ument</w>
larg e-
am a-jo</w>
I NOUE</w>
surround ed</w>
serv ant</w>
i er</w>
get ting</w>
bi ological</w>
as aka</w>
T sug
O UCHI</w>
M ed
Hon no
FU KU
B ased</w>
to m</w>
rit es</w>
priv il
op portun
ho l</w>
W a</w>
T ar
Kit ak
G od</w>
thre e-
r um
is ed</w>
i um</w>
excav ated</w>
J og
In dia</w>
He ad
G ro
Fu ji</w>
D owager</w>
2 nd</w>
w a-
v al</w>
us en</w>
ug g
typ ical</w>
progr am</w>
on ji</w>
n yo
ex clus
en cour
chi ka</w>
al ism</w>
Nor th</w>
K yo</w>
K ab
GO KU</w>
8 0
- shaped</w>
ut en</w>
int ernal</w>
hol id
ha v
ess or</w>
al u
Sy stem</w>
S H
Karas uma</w>
K YO
7 4</w>
6 1</w>
4 4</w>
promot ion</w>
precinc ts</w>
pain ter</w>
medic ine</w>
jo- dori</w>
hi k
g if
fl our
an tly</w>
Yoshi ie</w>
Wak ayama</w>
Tok it
Sag ami</w>
th ere
subdu es</w>
rele ased</w>
portr ait</w>
ind ustri
i h
ceremon ial</w>
cer ti
Su ch</w>
Nak amaro</w>
In tern
t on</w>
sel f-
respon se</w>
poss essed</w>
odhisattv a</w>
merch ant</w>
li qu
c le</w>
app ed</w>
ad y</w>
Yamag uchi</w>
YOSHI DA</w>
U da</w>
T o-ji</w>
Sog a</w>
Man yoshu</w>
M atters</w>
H oz
12 th</w>
the ast</w>
t elling</w>
sub ordin
se ated</w>
ron ze</w>
rel ation</w>
prot ect</w>
par ties</w>
occup ied</w>
mov ie</w>
ing o</w>
i ation</w>
expl ained</w>
eng yo</w>
cl am
c k
b s</w>
The ater</w>
Sh oz
P lat
M ong
K ichi
Amat er
per form</w>
nov el</w>
m ig
histor ic</w>
h an-
great -
est im
en obu</w>
dai ly</w>
arran g
an thology</w>
al one</w>
Treat y</w>
SHIMA ZU</w>
Nishi -
G ion</w>
resid ents</w>
pr ing</w>
ic ian</w>
f illed</w>
f an</w>
concub ine</w>
co ff
c old</w>
ans w
S pring</w>
K ad
Cent ral</w>
200 4</w>
well- known</w>
w aiting</w>
un o</w>
st ep
probl ems</w>
ph ys
p on</w>
n ear
instr uments</w>
fac ed</w>
exp ected</w>
alco hol</w>
W om
Tsun e
Hid etada</w>
Dut ch</w>
As a
pur ch
int ention</w>
hor ses</w>
fig ures</w>
escap e</w>
domest ic</w>
believ e</w>
bel l</w>
Shi jo</w>
Mik o</w>
Hor ik
17 8
sw ord
mus ical</w>
met al</w>
m ach
ll ing</w>
l uc
imp osed</w>
heav y</w>
h ot
as h</w>
K o</w>
Jun ii</w>
I to</w>
G ifu</w>
Daij okan</w>
8 th</w>
7 1</w>
under stood</w>
sym b
profess or</w>
pass ing</w>
int ended</w>
h ab
al ive</w>
a- gun</w>
U chi
R el
O uchi</w>
Mas ako</w>
Ke icho</w>
1 ,
usu al</w>
ud a</w>
t an</w>
sho sho</w>
p utting</w>
col ors</w>
car rying</w>
ac ting</w>
Tad ak
Shimot suke</w>
Re bellion</w>
Kan z
F ut
Ak i
A ko</w>
z ushi</w>
tro ub
th in
scre en</w>
p u
p hilosop
p ed
im ent</w>
foreign ers</w>
div ine</w>
ai e</w>
Yoshim une</w>
Y odo</w>
T en</w>
Roku hara</w>
O shu</w>
L i
D is
7 th</w>
rece iving</w>
env oys</w>
dist ributed</w>
deep ly</w>
comm is
app rec
T atsu
S eries</w>
O KA
N it
Jin shin</w>
B et
A wa</w>
5 6</w>
- do</w>
sh u-
s him
s af
reduc ed</w>
oz u</w>
n in</w>
iy atsuko</w>
implem ented</w>
gr av
g in
c ivil</w>
as agi</w>
all ow</w>
G i
F oll
6 2</w>
ti li
t ered</w>
st ock</w>
resid ent</w>
on -ji</w>
li br
k or
it ors</w>
is on</w>
i x</w>
c ous
al liance</w>
Re f
Nag at
Bu il
t end
success ively</w>
pro g
pract ical</w>
pop ulation</w>
igh t
ev alu
el ess</w>
e ast
add ing</w>
T os
Amater asu</w>
wid th</w>
upris ing</w>
spl it</w>
pro pos
off er</w>
larg est</w>
inter est</w>
establish ing</w>
bo shi</w>
ab ashi</w>
O ama</w>
Loc al</w>
Dai k
B izen</w>
A KE
11 th</w>
tr affic</w>
th ink</w>
th ick</w>
th ereafter</w>
rel ations</w>
ran ch</w>
it ai</w>
f all
employ ed</w>
ed s</w>
dismis sed</w>
Sei i</w>
NO MI
K O</w>
I mag
Hok ur
sho ji</w>
s culp
rev en
ok uni</w>
l er</w>
k e-
ig a</w>
ev idence</w>
en ess</w>
ec t
contr ast</w>
ac es</w>
Kat sura</w>
D em
w rest
um oto</w>
prin ted</w>
pract ices</w>
polic ies</w>
main tain</w>
imp os
if y</w>
f uku</w>
em entary</w>
co ver</w>
aig n</w>
Th ough</w>
MU RA
Kan mu</w>
K ofun</w>
K ira</w>
K i</w>
K aku
187 2</w>
tr as</w>
sh un</w>
sec on
re built</w>
prob ably</w>
our s</w>
og o</w>
jo b</w>
il d</w>
ev ening</w>
eng r
e er</w>
d ry</w>
d emon
ch osen</w>
ch amber</w>
bro ad
Nag amasa</w>
King dom</w>
Kam eyama</w>
Ju ichii</w>
Head quarters</w>
AKE CHI</w>
- in-law</w>
sy n
ro b
prov ide</w>
fe atures</w>
ez ane</w>
al lied</w>
a ul
Th ereafter</w>
S as
R ap
M et
Got oba</w>
D aj
t on
stud ying</w>
ro oms</w>
retur ning</w>
re ment</w>
long -
la un
func tion</w>
dipl omatic</w>
bot tom</w>
b ank</w>
S illa</w>
S erv
R is
N U
I r
Chronic le</w>
7 3</w>
5 th</w>
par ents</w>
n ag
meth ods</w>
foun ding</w>
for est</w>
en ly</w>
don ated</w>
dai ra</w>
d ancing</w>
custom s</w>
at ors</w>
Sh oku</w>
HA SHI</w>
Eng ishiki</w>
C O
A ichi</w>
10 ,000</w>
0 .
tw o-
her self</w>
a- ji</w>
R yu
Kyo to-
E i
Direc tor</w>
7 8</w>
200 0</w>
to shi</w>
new sp
i- no-
hon or</w>
hai ku</w>
b lock</w>
Shim azu</w>
SAN JO</w>
Col lege</w>
t aro</w>
resid ential</w>
re ality</w>
ne ed</w>
increas ing</w>
in ance</w>
ident ally</w>
f al
est ing</w>
as p
ar g
Yoshin ori</w>
S ong</w>
Pro duc
O uter</w>
MI YA
Hon en</w>
6 6</w>
1 14
s anc
produc t</w>
par ent</w>
m iko</w>
cor e</w>
an osuke</w>
V i
Sad at
NI SHI
Ise- jingu</w>
Chik u
Ad ministr
tur n</w>
sovere ign
scrip tures</w>
s way</w>
r ain</w>
om o
n avy</w>
j o-ji</w>
inv asion</w>
fol ding</w>
f elt</w>
entertain ment</w>
drin king</w>
cap tain</w>
bas ically</w>
av al</w>
an mi</w>
al thy</w>
Yu an</w>
M uk
M ov
H ogen</w>
ul ated</w>
sugg ests</w>
ref erence</w>
p en</w>
mag az
em ichi</w>
con centr
clam ation</w>
c ell
ac tions</w>
S am
B rit
restaur ant</w>
pur su
prai sed</w>
manag er</w>
in ity</w>
ig en</w>
h uge</w>
f ru
er ally</w>
em at
craf t
bro ken</w>
ast ic</w>
ak ed</w>
T ob
R et
Ni shin
Ni hongi</w>
Foll owing</w>
Ex pres
C amp
7 7</w>
6 th</w>
w el
ver ing</w>
t enth</w>
t ab
ro utes</w>
low -
land scap
g est</w>
characterist ic</w>
c .</w>
ashi ki</w>
arch ery</w>
SA WA</w>
R eng
L ady</w>
F um
Azuchi- Momoyama</w>
A gr
186 7</w>
vic tory</w>
to ols</w>
popular ity</w>
n ur
m it</w>
integr ated</w>
hi c</w>
coun cil</w>
concern ed</w>
cast ing</w>
b it
ah ama</w>
achi- dori</w>
Yoshi sada</w>
Secret ary</w>
S in
N o</w>
Mur asaki</w>
F our</w>
D ev
0 -
tion ary</w>
separ ate</w>
se as</w>
ro ugh
resul ting</w>
re organized</w>
pos sibility</w>
ony m</w>
ir on
insist ed</w>
form erly</w>
fl our</w>
ex per
doc tor</w>
d ated</w>
appro pri
al leg
adv ance</w>
Z E</w>
Uk one</w>
Si ege</w>
San j
M ie</w>
KA TSU
HA TAKE
Dai myo</w>
B ranch</w>
uten ant</w>
ter y</w>
om aru</w>
instr ument</w>
et c.</w>
ch amberlain</w>
ag uchi</w>
SUGA WARA</w>
Om iya</w>
Okin awa</w>
MI ZU
JI MA</w>
I emitsu</w>
F ud
Agr icul
17 9
yo i</w>
shi ge</w>
par t
iz u-
iv e-
e utenant</w>
des pite</w>
con cluded</w>
bet ter</w>
advoc ated</w>
Ten chi</w>
Spec ial</w>
SAI GO</w>
Nag ano</w>
M E
Kan rei</w>
Kamig yo</w>
HATAKE YAMA</w>
Fuku i</w>
- no-
wh e
thir ty-
the at
tar get</w>
str ength</w>
ot es</w>
organiz ations</w>
n um
g i</w>
dam age</w>
TA KE</w>
Min ami</w>
Kame oka</w>
KYO GOKU</w>
Hok ke</w>
Christ ian</w>
vis iting</w>
play er</w>
off ering</w>
enjoy ed</w>
econom y</w>
b ara</w>
ab ov
Shos anmi</w>
Ses sho</w>
Rus sia</w>
Rei zei</w>
F oun
B iwa</w>
A RA
13 th</w>
w ish</w>
ow ner</w>
le af</w>
im ages</w>
ig o</w>
foll ow</w>
em or
doct rine</w>
cont aining</w>
b ig
ar i-
an o-
Rap id</w>
R ev
Pri me</w>
Ka oru</w>
H ashi
Euro pe
15 th</w>
- style</w>
produc ing</w>
p se
in j
ex ten
et suna</w>
ch ur
cen timet
ag ami</w>
af uku</w>
Y on
Tsu shima</w>
T E</w>
O RI</w>
Matsu daira</w>
M o
200 3</w>
transl ation</w>
shin -
sec ular</w>
pl ants</w>
opp on
it ive</w>
in stitution</w>
ik ado</w>
be ans</w>
ac ts</w>
Tran sp
O ri
Ni ppon</w>
writ e</w>
su mp
reg ard</w>
rak ugo</w>
it suna</w>
for th</w>
fa ith</w>
ex emp
dec ree</w>
d ered</w>
cre ate</w>
asc ended</w>
ac comp
aband oned</w>
a ug
Tak as
Nar i
Kaz usa</w>
spe ed</w>
sev ent
l aid</w>
l -
id ly</w>
h en</w>
f ine</w>
Tai ho</w>
Nor i
Michi t
L ord</w>
J or
C A</w>
pl ot</w>
oh ama</w>
od en</w>
mis o</w>
ic a</w>
high- ranking</w>
fr ag
flav or</w>
en ari</w>
dai sho</w>
Soci ety</w>
Shi ki</w>
Japanese- style</w>
H as
Com mer
veget ables</w>
v o
sho t</w>
ob lig
n t</w>
k it
fin d</w>
cur ry</w>
cros sing</w>
Yoshi hisa</w>
Sh aka</w>
Plat form</w>
Kok in</w>
5 -
t al</w>
sou th
p al
me et</w>
mat suri</w>
h achi</w>
fri end
fer ment
dis played</w>
c amp</w>
b ronze</w>
Yamag ata</w>
T oshim
Re present
K oya</w>
G arden</w>
y u-
str ugg
sh e
set ting</w>
r aid</w>
ot su</w>
meas ure</w>
l oved</w>
l ack</w>
j our
govern ed</w>
bo at</w>
bl ue</w>
ben ef
b order</w>
ar rest
ai med</w>
Sub sequently</w>
Cl ass
Christ ian
Ac ad
prin ces</w>
or i
ex plan
er able</w>
el eg
e en</w>
cous in</w>
c al</w>
achiev ement</w>
Ten no</w>
Nobu m
Kaw achi-
Kamig ata</w>
Ji to</w>
Imag awa</w>
8 4</w>
y aki</w>
ri es</w>
represent ing</w>
pun ished</w>
pp ing</w>
pic k
phr ase</w>
op position</w>
need ed</w>
en om
el ements</w>
dec eased</w>
com ic</w>
cent ered</w>
ca ught</w>
bu mi</w>
acc ept</w>
ac count</w>
Tok u
NI SHI</w>
Myo o</w>
Mat suri</w>
L otus</w>
ICHI JO</w>
Bes ides</w>
Americ a</w>
8 1</w>
ur is
oshi ki</w>
opp ing</w>
mat ch</w>
look ed</w>
le y</w>
k at
jo y</w>
is dom</w>
in come</w>
et h</w>
d ress</w>
cost ume</w>
bu l
Ni igata</w>
KU R
Bo th</w>
2 -
ut ation</w>
ter u</w>
t ar</w>
prot ected</w>
par k</w>
oper ating</w>
indic ated</w>
fi ef</w>
eb i
cop y</w>
cl early</w>
bre ak</w>
T sub
T ec
E ach</w>
Dai jo-
B odhisattva</w>
v ice</w>
stor y
ine ering</w>
eg g</w>
dev oted</w>
comb ined</w>
Yas um
O yam
KI TA
J ingu</w>
Ishik awa</w>
F udo</w>
Christian ity</w>
3 .
sovereign ty</w>
sel or</w>
sat is
s ai
lo oks</w>
fac ing</w>
a- no-
Six th</w>
Kon do</w>
K ud
D r
B uk
tri p</w>
t ou
pro tec
preserv ed</w>
pre dec
os ei</w>
l og
ik an</w>
hi t</w>
govern mental</w>
fund oshi</w>
educ ational</w>
connec ting</w>
c ards</w>
arrang ement</w>
ag aku</w>
Z e
Cur r
Ba ek
8 5</w>
7 9</w>
pref ixed</w>
p ine</w>
p ath</w>
ick ly</w>
he alth</w>
centr alized</w>
c utting</w>
aw ase</w>
am ura</w>
Yoshi hiro</w>
Sh u</w>
R ailways</w>
Nag ayoshi</w>
Ken shin</w>
I bar
Hid e
At ag
sup erior</w>
roc k</w>
re -
p uku</w>
o il</w>
n ick
m ass</w>
in u</w>
fi shing</w>
fac ts</w>
bran ches</w>
agricul tural</w>
ag ing</w>
Tak akura</w>
Rin zai</w>
G in
15 0
su itable</w>
sel ling</w>
s cience</w>
re stric
r ical</w>
pse ud
pres ents</w>
pat ri
mon ogatari</w>
exp anded</w>
bel ong</w>
Ry oma</w>
O f</w>
I N</w>
GA TA</w>
9 th</w>
z aburo</w>
ver se</w>
th anks</w>
t ei</w>
str ing</w>
sch ed
res ses</w>
represent ed</w>
effor t</w>
ed ited</w>
con stable</w>
commis sion
co t
ast ing</w>
and -
Hachim an-
G e
E zo</w>
D E
ynast ies</w>
worshi pped</w>
ut s</w>
ust ed</w>
un ci
tal es</w>
surv ey</w>
s -
person nel</w>
k -
in t</w>
im ori</w>
ichi ka</w>
ic hiro</w>
h ours</w>
govern ing</w>
em a</w>
cont ain
an ari</w>
OKU BO</w>
186 3</w>
ro of
iz an</w>
init ially</w>
e- shaped</w>
e .</w>
ch e
bo y</w>
ag g
Tot tori</w>
Lit erature</w>
Kyo gen</w>
Histor ical</w>
187 3</w>
186 4</w>
there by</w>
or ized</w>
n on
imp orted</w>
h air
conduc t</w>
complet ion</w>
az ono</w>
arrest ed</w>
ap s</w>
achi ka</w>
MAE DA</w>
Kas ug
J od
D ep
Ak ita</w>
A ki</w>
pow der</w>
m ob
conf isc
celebr ated</w>
categ ory</w>
attemp t</w>
ass er
ans ion</w>
and a</w>
Yo u</w>
Y ag
Stu dies</w>
S ait
D oc
C or
Bo ard</w>
un clear</w>
surrend er</w>
stor ed</w>
sequ ent</w>
san them
rem ar
per f
o x</w>
k illing</w>
iv il
in scription</w>
genealog y</w>
ey es</w>
et omo</w>
cont emp
bu ck
Tec hn
Shi koku</w>
Se e</w>
O shi
Kur ama</w>
Intern ational</w>
In t
G oj
DA TE</w>
Con tro
ry santhem
rap idly</w>
p air</w>
o x
mod ern
m ix
j e</w>
ik ki</w>
ig i</w>
i .
co operation</w>
anc ell
ZU KI</w>
Yok ohama</w>
Y um
R O</w>
O aza</w>
KA DO</w>
A KA
z eki</w>
trav el</w>
su tras</w>
s of
pre viously</w>
pre mis
neighbor ing</w>
messeng er</w>
g ates</w>
agre ement</w>
Ref er</w>
P ort</w>
No h
Hokur iku</w>
Expres sway</w>
C ivil</w>
res emb
mir ror</w>
look ing</w>
k y</w>
is o</w>
h os
f act
eas y</w>
dist ribution</w>
consid eration</w>
compil ation</w>
ay ori</w>
am itsu</w>
Tak ar
Sad a
SAI TO</w>
w ise</w>
ti le</w>
stic ks</w>
reti rement</w>
pl ant</w>
p ond</w>
on i</w>
o shu</w>
jud icial</w>
i. e.</w>
en- in</w>
en ses</w>
con sul
TA NI</w>
Ki shu</w>
J omon</w>
Inc identally</w>
Hei ji</w>
G ojo</w>
G aku
A ut
A be</w>
trad ing</w>
sub jug
reg ister</w>
r uc
por ts</w>
p ay
no ted</w>
ic him
dou ble</w>
c ake</w>
ass emb
a jo</w>
Yoshim oto</w>
YA NA
Hor yu-ji</w>
Chug u</w>
Cap ital</w>
Baek je</w>
9 9
8 8</w>
14 th</w>
vis itors</w>
valu ed</w>
symb ol
sou l</w>
secret ly</w>
rul er</w>
roy al</w>
re jected</w>
r am
prosper ity</w>
nam ely</w>
kan -
in obu</w>
hang ing</w>
fl ute</w>
d oll
d ang
asc etic</w>
an ami</w>
al ist</w>
Tsun ayoshi</w>
St ud
Ok ubo</w>
wor e</w>
sub st
sh ing
sal es</w>
ri t</w>
pro mis
ot en</w>
oppos ite</w>
it subo</w>
it aka</w>
comm erc
blos som
O E</w>
Mak ino</w>
KA TO</w>
IKE DA</w>
H igh
E specially</w>
8 6</w>
4 -
sump tion</w>
over seas</w>
l y
hel ped</w>
epis ode</w>
echi ka</w>
e th
do ing</w>
dic tion</w>
di al
d or
aug ur
YAMA NA</w>
Po ems</w>
NI JO</w>
Ed o-jo</w>
Dist urbance</w>
tr ain
tiv es</w>
st ick</w>
sched u
s etsu</w>
resul ts</w>
reserv ation</w>
ll er</w>
is ine</w>
ib i</w>
ho u</w>
harm a</w>
fo ods</w>
ebi ishi</w>
demon str
correspon ds</w>
commerc ial</w>
ar ch</w>
ab or
Nik ko</w>
us ei</w>
temp erature</w>
sub -
spec ified</w>
sk in</w>
resear ch
p ilgrimage</w>
ou e</w>
nor mal</w>
n ai
it ure</w>
interpre tation</w>
dem and</w>
cl im
Ya yoi</w>
Temp les</w>
Sh onin</w>
Iz um
Hid etsugu</w>
F rance</w>
Em ishi</w>
158 2</w>
streng th
sk ills</w>
sec urity</w>
rev ived</w>
o sho</w>
loc ations</w>
lish ing</w>
keep ing</w>
is ada</w>
e ji</w>
believ ers</w>
b oun
assass inated</w>
Yoshi da</w>
N aka</w>
M id
Ch ar
2 .
we ak
twent y</w>
st ation
play ers</w>
opportun ity</w>
occas ions</w>
ob an</w>
mar k</w>
in augur
if usa</w>
depar ted</w>
d ary</w>
as an</w>
appropri ate</w>
anim als</w>
Th eir</w>
S p
Ot ani</w>
J os
G o-
writ er</w>
t es
ro ugh</w>
rev eal
pri or</w>
ow ad
le ast</w>
k ey
iz es</w>
eshi ge</w>
confl icts</w>
ch air
U z
Mas anori</w>
M oku
13 9
succ ess</w>
sh ug
se ats</w>
propos al</w>
nick name</w>
is ei</w>
impos sible</w>
flour ished</w>
cont ribu
centimet ers</w>
ay ashi</w>
Shom u</w>
Min or</w>
Ak ashi</w>
s end</w>
rep utation</w>
re constructed</w>
nar r
in al</w>
hav ior</w>
h aku</w>
gu est</w>
g umi</w>
coun ted</w>
at edly</w>
Th rone</w>
TANA KA</w>
Sa icho</w>
S amurai</w>
Mas amoto</w>
Mand ala</w>
B oshin</w>
u tive</w>
tit led</w>
supp ly</w>
rec ently</w>
r in</w>
pray ers</w>
mast ers</w>
manuscrip ts</w>
hi d
form ers</w>
el ementary</w>
eff ective</w>
cont ain</w>
bu kyo</w>
ab u</w>
Yoshit oki</w>
To zai</w>
S un</w>
Kyo goku</w>
I S
Confuc ian</w>
Acad emy</w>
A man
188 9</w>
under stand</w>
uk yo</w>
tow n
sub jects</w>
sp ent</w>
se k
om et
lear n</w>
j ob
id ents</w>
fort une</w>
fi re
eed ing</w>
Su o</w>
O tsu
O NOE</w>
yi eld</w>
where by</w>
v ers</w>
ut oku</w>
tr ying</w>
str aig
plac ing</w>
m aj
k ei
ign s</w>
hear t</w>
et te</w>
estim ated</w>
decor ated</w>
att itude</w>
arro ws</w>
an aga</w>
agre ed</w>
Shog o
Sanet omo</w>
Rok kaku</w>
Gro up</w>
Gen erally</w>
Fuk ushima</w>
D ied</w>
Ar chi
rough ly</w>
pron unci
o bu
nation wide</w>
iz ens</w>
gu chi</w>
ful l-
f ted</w>
exhib ition</w>
differ ences</w>
d ay
critic ism</w>
craft sm
cl er
bo l</w>
as ks</w>
anecd ote</w>
ai fu</w>
Yori ie</w>
Yod o-gawa</w>
Con sequently</w>
8 7</w>
8 2</w>
yok an</w>
surv ived</w>
ref l
ref erring</w>
owad ays</w>
not es</w>
ition ed</w>
inter v
ic ient</w>
est ern
ef s</w>
dr aw</w>
di e</w>
custom ers</w>
con sequently</w>
and ing</w>
T y
Stu dio</w>
On ly</w>
KA MI</w>
Hiro t
Hid eyori</w>
Gy oku
187 0</w>
vill a</w>
un i
or ary</w>
m ine</w>
m el
j ac
indic ating</w>
i r</w>
giv es</w>
contin ue</w>
co vering</w>
abov e-
abol ition</w>
ab sor
Y os
San in</w>
OT A</w>
Lt d
Kot su</w>
Cul ture</w>
13 0
v in
sol id
small er</w>
rysanthem um</w>
par tly</w>
igh ts</w>
forc ement</w>
ent ru
do ors</w>
de pri
buck wheat</w>
approv al</w>
ancest ors</w>
Ltd .</w>
Fur ther</w>
B ai
z awa</w>
yo -ji</w>
y s</w>
umb er</w>
um a-
to fu</w>
success ful</w>
situ ated</w>
pres sure</w>
pl ate</w>
mov ing</w>
m outh</w>
j ig
i res</w>
g y
g ard
camp aign</w>
bus in
be st
be havior</w>
ba by</w>
az ane</w>
Yor inaga</w>
On myo
O -
KUR ODA</w>
H er
Emp erors</w>
Bi ography</w>
- jo</w>
serv ants</w>
large- scale</w>
k ugyo</w>
jac ent</w>
hig i</w>
gro wing</w>
eri a</w>
drin k</w>
cu isine</w>
b all</w>
ar gu
a x
Shimog yo</w>
Rep ublic</w>
Pol ice</w>
N E
Iw akura</w>
F ren
193 1</w>
un its</w>
syst ems</w>
st aying</w>
sit ting</w>
resid ed</w>
res h</w>
oz ane</w>
olog ies</w>
j im
gir ls</w>
fri end</w>
declar ed</w>
chap ters</w>
Suk une</w>
Sh oshi</w>
P ass</w>
Kan ezane</w>
Bun go</w>
where as</w>
ushi ge</w>
privil eg
lic ated</w>
libr ary</w>
i ary</w>
fav ored</w>
elec tric</w>
consid ering</w>
consid er</w>
con trac
c ivil
an eous</w>
Wom en</w>
Shig emori</w>
Sh oj
Kun i
Hak odate</w>
un ified</w>
tang ible</w>
tan ka</w>
tai fu</w>
suppor ters</w>
sil s</w>
sh ok
repe atedly</w>
philosop hy</w>
oy u</w>
mov ements</w>
k ne
it ab
dis continued</w>
coll ectively</w>
clo istered</w>
atsu ki</w>
ai sho</w>
Y aw
Jin mu</w>
Gr ad
DA I
u o</w>
twel ve</w>
sel l</w>
s a</w>
reg ents</w>
predec essor</w>
ph ere</w>
pet ition</w>
no te</w>
m ichi</w>
iy asu</w>
inv aded</w>
hak ama</w>
famil i
el im
comm it</w>
SE N</w>
N eg
Mor on
Kas uga</w>
KU SU
KO NDO</w>
Jok yu</w>
In aba</w>
I CO
ICO CA</w>
G o</w>
D om
16 00</w>
14 9
vic inity</w>
tri g
sym bol</w>
stitu tional</w>
signific ant</w>
re construction</w>
re alized</w>
re ach</w>
pl ain</w>
p ital</w>
mo at</w>
landscap e</w>
if ically</w>
g i
bur nt</w>
b i</w>
ath s</w>
am o</w>
ag aki</w>
W aka</w>
R E
As akura</w>
A sian</w>
199 7</w>
stre ets</w>
ru ins</w>
resist ance</w>
ob jects</w>
k ur
k atsu
ex erc
ent it
collap sed</w>
cal ling</w>
atsu me</w>
al ed</w>
ag ue</w>
YAM AMOTO</w>
T ajima</w>
San yo</w>
Ok un
Min am
K oshi
Europe an</w>
under standing</w>
tex ts</w>
sub sequent</w>
s ort</w>
resid ences</w>
per su
ou chi</w>
on- in</w>
oji- dori</w>
lad ies</w>
k uge</w>
issu es</w>
ing er</w>
hun ting</w>
em iko</w>
el ection</w>
decreas ed</w>
cal cul
bre vi
a sho</w>
Yoshit ada</w>
Yoshi teru</w>
Tom o
T e
S tr
Heian- kyo</w>
Ba sho</w>
7 6</w>
y eo</w>
st ops</w>
read s</w>
os an</w>
or i-
k om
k imi</w>
in ari</w>
fe ature</w>
d okoro</w>
cultiv ation</w>
cre ation</w>
comm emor
cit izens</w>
c ru
ak ata</w>
Tog oku</w>
NOMI YA</w>
NA GA</w>
Mor i
Ma usoleum</w>
Kan eie</w>
K engyo</w>
Cont inu
Chu o</w>
w ine</w>
revol t</w>
r ics</w>
qu ickly</w>
ne y</w>
n early</w>
lab or</w>
k ing
imp ort
immedi ate</w>
fac es</w>
es n</w>
env iron
e ties</w>
de al</w>
de al
chi n</w>
b al
accompan iment</w>
J in</w>
A rit
200 2</w>
w ood
t u
su preme</w>
s ized</w>
quest ion</w>
oun ds</w>
ot o-
lem entary</w>
g oddess</w>
f ive-
ex ile</w>
dissol ved</w>
det ailed</w>
co al</w>
clud ing</w>
categ orized</w>
Sad o</w>
S ev
Or d
Og as
NO KI</w>
Kawachi- Genji</w>
Inter change</w>
Im ad
Hei jo-
G E
Fren ch</w>
we althy</w>
uris diction</w>
sugg ested</w>
r ailways</w>
perc ent</w>
kan a</w>
er ected</w>
em ochi</w>
do esn</w>
clos ely</w>
cho ja</w>
b en</w>
an ji</w>
advis or</w>
Tr ue</w>
Shi ba</w>
S aemon</w>
Pri est</w>
KA TA</w>
Ik ko</w>
E stab
D ar
w are
un able</w>
sum a</w>
prepar ation</w>
manufac turing</w>
in om
i ence</w>
ed -
ec ting</w>
domin ant</w>
dem oted</w>
confin ed</w>
comp ris
circ le</w>
blossom s</w>
b er</w>
arm or</w>
OT SU
B ic
writ ings</w>
tal ent</w>
t ool</w>
spir acy</w>
sid ed</w>
rai se</w>
posthum ously</w>
per man
indic ate</w>
inc ense</w>
end ation</w>
be y
Tan abe</w>
Sei wa-
Mis asagi</w>
M er
Hei shi</w>
Eng i</w>
B ro
Americ an</w>
8 3</w>
um on</w>
u tili
tr usted</w>
sett lement</w>
scen es</w>
s and
n eng
min ute</w>
laun ched</w>
it ted</w>
il s</w>
form ally</w>
fe eling</w>
f ashi
eg awa</w>
e- cho</w>
cor ner</w>
ar i
al i
a- kyo</w>
U eno</w>
Takak uni</w>
L et
His a
Dev elop
Ch o</w>
19 28</w>
us him
tw ice</w>
tion ally</w>
techn ology</w>
s ought</w>
pl um</w>
os ai</w>
num erous</w>
lar ger</w>
l ay</w>
investig ation</w>
ight seeing</w>
ichi -
h ok
ef usa</w>
discus sed</w>
de g
chi -
ch ron
c av
ah aru</w>
Un til</w>
No .
KA I
As ano</w>
194 5</w>
y aku
uten sils</w>
under ground</w>
s ang
rig ade</w>
k ubo</w>
ins cribed</w>
in n
import ance</w>
g host</w>
er ve</w>
entit led</w>
en joy</w>
el op</w>
del iv
class ics</w>
c ill
bey ond</w>
ard less</w>
al -
ac ho</w>
Yamat o-
T TA</w>
Sai onji</w>
3 -
189 0</w>
1 13
view ing</w>
o- Japanese</w>
nen butsu</w>
m our
lacqu er</w>
exp edition</w>
ear ly-
cr is
comb ination</w>
b ana</w>
at mos
ab brevi
U ji-
Th ousand</w>
Ryuk yu</w>
Mur akami</w>
Ku jo</w>
vin eg
ti ed</w>
sev ere</w>
s ign</w>
qu ake</w>
pro min
my thology</w>
ic ians</w>
f resh</w>
eng a</w>
deg ree</w>
decor ative</w>
arch y</w>
P reservation</w>
P ac
Commer ce</w>
Camp us</w>
w ind
ud on</w>
s igned</w>
ro ju</w>
reveal ed</w>
pr ent
pos es</w>
oppon ent</w>
man ors</w>
los ing</w>
l an
e fu</w>
dev elop</w>
coll ect</w>
calligrap hic</w>
c ed
c ast</w>
administr ator</w>
T andai</w>
T ales</w>
Seiwa- Genji</w>
Sait ama</w>
Pri v
No w</w>
K uni</w>
B U
189 8</w>
ut ai</w>
u to</w>
r ac
prov iding</w>
pronunci ation</w>
proced ures</w>
prin ting</w>
ographi cal</w>
man ners</w>
li ked</w>
lec ture</w>
f th</w>
descri be</w>
comm enced</w>
bl ade</w>
SA KA</w>
Nor mal</w>
Nin n
Kog a</w>
Kashi w
Kan agawa</w>
KATA OKA</w>
Ibar aki</w>
Gen roku</w>
6 0
10 9
weap ons</w>
sh el
pseud onym</w>
n either</w>
k new</w>
k ane</w>
dis play</w>
class es</w>
ban ished</w>
az awa</w>
app ing</w>
Tai shogun</w>
Shoshi inoge</w>
Sag ano</w>
SAKA NOUE</w>
R aku
R U</w>
Mas ashige</w>
Ken mu</w>
Kawar amachi</w>
KAN ZE</w>
J e
HI NO</w>
E lementary</w>
Con struc
8 -
valu able</w>
us age</w>
success fully</w>
su s</w>
sk y</w>
restor e</w>
re presents</w>
magaz ine</w>
l ers</w>
ion ally</w>
gun s</w>
gir l</w>
g ets</w>
for ward</w>
fol k
fi erce</w>
en acted</w>
emer ged</w>
dispat ch</w>
dest ro
compet ition</w>
add itionally</w>
ab ara</w>
Yam azaki</w>
Toshi ie</w>
Na o
Ishi yama</w>
H aving</w>
Daz aifu</w>
Am itab
190 7</w>
yo sho</w>
y le</w>
ve hi
tax i</w>
spir it
rin ging</w>
r ar
poss ession</w>
pass age</w>
own ership</w>
im itsu</w>
hor iz
gu arded</w>
entru sted</w>
enthron ed</w>
car eer</w>
c ken</w>
bro ad</w>
bo dies</w>
ang u</w>
am achi-dori</w>
Yam ada</w>
Tog u</w>
Nik ki</w>
KA NO</w>
16 th</w>
w ed
ste amed</w>
respon sibility</w>
re d-
pub lic
precinc t</w>
pre sumed</w>
lin ked</w>
impro ved</w>
g an</w>
exp ansion</w>
em ies</w>
di am
cor por
clai m</w>
ar ed</w>
am une</w>
Yak ushi
Mun emori</w>
MIZU NO</w>
Ko chi</w>
Grad u
Ab out</w>
A RI
188 1</w>
soy -
relation ships</w>
rec ru
re ki</w>
h am
famili ar</w>
f ail
exp ensive</w>
cell aneous</w>
b ing</w>
ap ers</w>
Y akushi</w>
Ni jo-
Kon o
Continu ed</w>
Ch ap
Ay abe</w>
8 9</w>
188 4</w>
186 2</w>
tru th</w>
susp ic
sub i</w>
shor e</w>
sh aku
rai sing</w>
pres ence</w>
ong en</w>
ne g
n et
li st
le x</w>
k osa</w>
ji to</w>
is ai</w>
impro vement</w>
imp res
g ain</w>
crimin al</w>
ch ance</w>
c ost</w>
az uka</w>
az e</w>
atmos phere</w>
appro x</w>
ap prent
ak ko</w>
YAMA DA</w>
U ki
T ri
R ailroad</w>
Osak a-jo</w>
Naga ok
Mun e
IWA KURA</w>
Daz ai</w>
B yo
sw it
scro lls</w>
re ar</w>
par al
or nam
oj u</w>
jud ge</w>
iy aki</w>
experi ence</w>
etsu -
en emies</w>
deliv ered</w>
bu d
ath emat
art ist</w>
ab road</w>
Ze ami</w>
Yoshi haru</w>
Tai hei
Se in
Rus sian</w>
R an
Nak ag
K izu</w>
we ak</w>
wak ashu</w>
ver s
trav eled</w>
susp ended</w>
str ict</w>
shor yo</w>
shi ro</w>
on to</w>
ob tain</w>
m ally</w>
l u
gro wn</w>
exam ination</w>
co ast</w>
characteri zed</w>
am e
TSU KA
Shi ki
Serv ice</w>
Pac ific</w>
Ogas awara</w>
MA KI
Kam o-gawa</w>
Jugo inojo</w>
G ek
C .</w>
Amitab ha</w>
19 18</w>
y east</w>
tri bu
syll ab
s pot</w>
pay ment</w>
ot ted</w>
ol l</w>
of -
loc omo
k o-ji</w>
i- gun</w>
farm ing</w>
cov ers</w>
car ved</w>
c chu</w>
Y ur
Shi t
KUSU NOKI</w>
Go sho</w>
star ts</w>
st ret
se l</w>
ri ding</w>
recogn ition</w>
near by</w>
n e</w>
m ut
lic ense</w>
lead ers</w>
ld n</w>
inv ented</w>
h alls</w>
es oteric</w>
el ected</w>
e on</w>
correc t</w>
conf usion</w>
bet r
ach es</w>
TANA BE</w>
Sh oki</w>
R ai
Og ura</w>
NO MURA</w>
Hak ata</w>
Hachim an</w>
F il
Atsu t
Am id
9 0
y ellow</w>
un iver
tr end</w>
stat es
sp ots</w>
resp ected</w>
prov isions</w>
p an</w>
negoti ations</w>
is ol
in ki</w>
ic kn
harv est</w>
ey e</w>
ext ent</w>
exp elled</w>
dram as</w>
doll s</w>
depri ved</w>
b iwa</w>
ac le</w>
a- mura</w>
Yuk i
Yorim ichi</w>
ISHI KAWA</w>
I sl
Hok ke-
Dait oku-ji</w>
Dai jo</w>
B on
Aw aji</w>
1 ,000</w>
u hito</w>
sh uk
res our
ph ot
pe ac
oper ate</w>
og awa</w>
o di
m ous</w>
kok uga</w>
j ing
iz ane</w>
interpre ted</w>
in ate</w>
im ag
gro w
ey uki</w>
ent ing</w>
dr aft</w>
conver ted</w>
confron tation</w>
ar yo</w>
U .
T aro</w>
S O</w>
P ain
OI SHI</w>
N E</w>
Mand okoro</w>
Kan e
I NA
Han azono</w>
Eng land</w>
Bic chu</w>
Ari sug
yam uni</w>
t sub
sei i</w>
se pp
ro polit
reg ime</w>
reg ardless</w>
qu al
pl eas
mon me</w>
l ess
g ami</w>
for tun
fl ow</w>
elev enth</w>
an ao</w>
al tar</w>
ag ata</w>
Yas un
U shi
O no</w>
NI TTA</w>
H undred</w>
Daj okan</w>
Col or</w>
200 1</w>
yok o</w>
yam a-
twel fth</w>
t one</w>
st ice</w>
ropolit an</w>
re forms</w>
oy al</w>
met er</w>
me al</w>
k on</w>
j urisdiction</w>
gradu ated</w>
fin ance</w>
fe el</w>
en forced</w>
dam aged</w>
cour tes
aff ected</w>
above- mentioned</w>
ab dic
Sh ochi
SA SAKI</w>
M em
Kyo tan
Kit ano</w>
K imi</w>
In it
Develop ment</w>
C ou
Asa hi</w>
A ward</w>
A re
118 0</w>
y uk
se at</w>
pri me</w>
overthro w</w>
mus eum</w>
moun tain
k as
ik ami</w>
gu ests</w>
func tions</w>
ess ing</w>
coun ty</w>
char ged</w>
cand id
bu k
ai- fu</w>
a yo</w>
Shi ten
Shi b
Roku jo</w>
Represent atives</w>
R em
P op
Nobut ada</w>
Kaz an</w>
KO BA
Gyoku yo</w>
Ger many</w>
BA TA</w>
3 ,000</w>
un like</w>
t am
sup pl
sleev es</w>
separ ately</w>
s ci
retre ated</w>
re d
prec epts</w>
ob served</w>
newsp aper</w>
necess arily</w>
m ay
l ication</w>
int en
in ori</w>
im it
fund am
equip ped</w>
e- jinja</w>
dipl om
contain er</w>
conf erence</w>
cill or</w>
bo t</w>
ai m</w>
aff il
Yan ag
T oyama</w>
Sum itomo</w>
Suk e</w>
S even</w>
Reg ion</w>
Na omasa</w>
N H
Miy ake</w>
H ome</w>
Daig o-ji</w>
D ef
4 00</w>
19 10</w>
12 9
y ag
ver t
te am</w>
su it</w>
situ ations</w>
s ar
res ign
re ward</w>
re bel
rat io</w>
ph enom
or ing</w>
mov ies</w>
mess age</w>
low er-
iy a-
isc al</w>
ig e</w>
g olden</w>
fi sh
ek i-
cot ton</w>
ch ome</w>
bur ning</w>
b rigade</w>
aw n</w>
ai red</w>
ag ency</w>
Y atsu
Un like</w>
TO MI</w>
Sei mei</w>
P ic
Ki yot
HA YASHI</w>
Fushim inomiya</w>
Chug oku</w>
A son</w>
wr apped</w>
straig ht</w>
stat ing</w>
separ ation</w>
scrip t</w>
s now</w>
mar ry</w>
if ying</w>
asp ect</w>
W e</w>
P resident</w>
Nor it
Nen butsu</w>
Nai shi</w>
Naga oka</w>
L ife</w>
KO JI</w>
Hig o</w>
Ex am
B ay</w>
7 9
6 -
187 7</w>
u y
stric tly</w>
ste p</w>
s atsu</w>
ri ed</w>
om y</w>
od es</w>
k oj
f ath
et er</w>
cre ating</w>
construc t</w>
ch ronic
celebr ate</w>
batt le
al ization</w>
ag ement</w>
P ublic</w>
NH K</w>
KI YO
KI TA</w>
Hik aru</w>
Hachiman- gu</w>
Con c
B ut
198 7</w>
t uary</w>
strateg y</w>
sp rings</w>
sit ies</w>
sec l
sal ary</w>
pres sed</w>
phenom en
particip ate</w>
p ing</w>
my st
li fied</w>
jo shu</w>
j iki</w>
fl at</w>
f y</w>
eff ects</w>
chi cken</w>
attend ant</w>
assass ination</w>
SH O</w>
Pe ers</w>
Nan iwa</w>
MI URA</w>
Katsu moto</w>
J ish
H oj
H ino</w>
D O
Chu jo</w>
194 6</w>
zen -ji</w>
s ango</w>
recomm endation</w>
oo th
mob il
in stitu
i jo</w>
ho jo</w>
h in
gr at
favor ite</w>
em e</w>
day time</w>
crit ical</w>
at ake</w>
adul t</w>
Tan b
Ren nyo</w>
Reg ent</w>
Nak atsuk
Mur aji</w>
KA I</w>
Ik oma</w>
Daz ai-fu</w>
Com mun
6 9
. C.</w>
. ..</w>
view point</w>
sum ing</w>
station ed</w>
sl iding</w>
s ok
qu e</w>
pur poses</w>
per formers</w>
om ei</w>
og in</w>
m ass
im une</w>
hi ll</w>
govern ance</w>
four -
en ware</w>
ek ata</w>
ec h</w>
dar k</w>
cri me</w>
con st
cl ou
bro th</w>
ban qu
b ills</w>
att acks</w>
Tot omi</w>
Takak age</w>
Taihei ki</w>
N y
Kan ze</w>
Kag ekatsu</w>
J ud
I e
E igh
Am ago</w>
Acc ord
tri al</w>
transp ort</w>
t ments</w>
sk rit</w>
sh ak
sc att
s ending</w>
research ers</w>
rem n
re ly</w>
pur ple</w>
pe t</w>
ment ary</w>
kar ate</w>
inspec tor</w>
hou r</w>
horiz on
fo ster</w>
early- modern</w>
butsu -
birth place</w>
belong s</w>
be ings</w>
at e-
ar m</w>
ad ap
activ ity</w>
Tachi bana</w>
San skrit</w>
Per son
P ort
K eg
ISHI DA</w>
Hisa hide</w>
G OTO</w>
After wards</w>
7 -
4 .
19 29</w>
we t</w>
w o</w>
trig g
tic kets</w>
suff icient</w>
st rings</w>
soldi er</w>
pro clamation</w>
ob serv
n ak
ki yo</w>
kab ane</w>
ik uni</w>
i- dera</w>
gener ated</w>
g ment</w>
explan ation</w>
ex tr
dec oration</w>
cop ied</w>
conven ience</w>
P res
J o</w>
E izan</w>
B ur
B eing</w>
Accord ingly</w>
A suk
w ives</w>
ul tim
suppres sed</w>
sun omiya</w>
soy- sauce</w>
re ally</w>
rar ely</w>
r ors</w>
o- no-
kil omet
j or
it age</w>
half- brother</w>
er ings</w>
e- no-
distingu ish</w>
cost umes</w>
comman ders</w>
b er
appear ing</w>
ab sol
ab b
Yoshit sugu</w>
Wh at</w>
U. S
Shim on
Horik awa</w>
G og
Def ense</w>
188 2</w>
187 6</w>
with drew</w>
t act
struc tures</w>
ste am</w>
repe ated</w>
rem ov
pro mul
por k</w>
p oll
p it
on omiya</w>
ok an
if une</w>
hom et
grow th</w>
f ud
ef ul
coun ting</w>
conven tional</w>
confisc ated</w>
class ification</w>
cl usion</w>
ca using</w>
b ringing</w>
b ath
as es</w>
ac hiro</w>
Si x</w>
Sho en</w>
Sakur ai</w>
SA I</w>
S up
S oseki</w>
On na</w>
Od awara</w>
O y
KATSU RA</w>
In d
Gun ma</w>
E cchu</w>
5 ,000</w>
194 9</w>
shi fted</w>
pe ak</w>
let s</w>
l otus</w>
l od
iv al</w>
int ell
hun g</w>
fre ight</w>
det ail</w>
del iver
comp lex</w>
celebr ation</w>
att end</w>
am a-cho</w>
Tr ad
S acred</w>
O hara</w>
Li eutenant</w>
Kei fuku</w>
K an</w>
Curr ently</w>
Am ag
ASA NO</w>
195 0</w>
un k</w>
spe aking</w>
shi t
season al</w>
preserv ation</w>
p ure</w>
og ami</w>
ob j
hi tsu</w>
hand le</w>
gath ering</w>
f alls</w>
en h
earth enware</w>
e es</w>
ab dicated</w>
Yor iyuki</w>
To shin
Shogo inoge</w>
Sh ojo</w>
Reg arding</w>
N ew
MAKI NO</w>
Ku w
Kitak inki</w>
E ra</w>
Dan juro</w>
Chiku zen</w>
B ingo</w>
189 5</w>
1 12
1 10
squ ad</w>
sei zed</w>
r ace</w>
promul g
promot e</w>
pro -
paral le
paralle l</w>
no suke</w>
master less</w>
maj ority</w>
jo int</w>
j iri</w>
ho ly</w>
gr ain</w>
ep tion</w>
de pl
chim ikado</w>
ch u-
c anc
ban ned</w>
aut onom
attend ants</w>
aristocr ats</w>
architec tural</w>
an jo</w>
ac cur
a hito</w>
W AMURA</w>
U ME
Ten no
SU ZUKI</w>
Rus so-
Kor e
K oto</w>
E ight</w>
ur i-
ub a</w>
to yo</w>
ti les</w>
t all</w>
so il</w>
s ightseeing</w>
s al</w>
rum or</w>
r enga</w>
promin ent</w>
moun ds</w>
l ore</w>
ir u</w>
hor se
honor ific</w>
hol e-shaped</w>
hib ition</w>
e ums</w>
c ut
ar ose</w>
ang ry</w>
adv ice</w>
ac ity</w>
a hime</w>
a fu</w>
Yorim asa</w>
YANA GI
WA DA</w>
Tr ain</w>
Su i</w>
S im
Ok ura</w>
Miy agi</w>
Kag etoki</w>
Atag o-
19 26</w>
118 5</w>
work ers</w>
tog e</w>
ti er</w>
res ol
og ue</w>
oc ation</w>
mon op
m athemat
j ing</w>
is him
in ations</w>
far m</w>
em une</w>
det eri
den ied</w>
cre di
collap se</w>
achi y
Yasut oki</w>
Shin to
On ce</w>
Gradu ate</w>
Eng ineering</w>
E k
Cou p</w>
6 00</w>
2 ,
199 6</w>
19 11</w>
v ana</w>
sour ces</w>
se em</w>
ro ot</w>
regul ation</w>
quest ion
prog ress</w>
pre p
pat ernal</w>
m ok
j un</w>
hon zon</w>
homet own</w>
holid ays</w>
hand led</w>
guar an
g yo
fal se</w>
excep tion</w>
elev ated</w>
e- jo</w>
c am
awa- dori</w>
ast ron
arri val</w>
ang e</w>
acqu ired</w>
Treas ures</w>
Tei ka</w>
Shim ane</w>
Shi rak
P i
z an
wr ong</w>
thin king</w>
swe et
st ic</w>
spirit ual</w>
spec ifically</w>
sh ell</w>
re conc
prep are</w>
premis es</w>
min or</w>
lit ers</w>
it em</w>
i shu</w>
fr ame</w>
f ro
ey ard</w>
er oku</w>
con serv
ch en</w>
be ar
as sume</w>
accompan ying</w>
a g</w>
a c</w>
Z E
Um ako</w>
Tok uso</w>
Sh uk
S oj
Nobut aka</w>
Moton ari</w>
Contro ller</w>
yo in</w>
war s</w>
w ild</w>
to ji</w>
thir ty</w>
stat ement</w>
st -
son -in-law</w>
s am
r ain
ou ji</w>
or oku</w>
man sion</w>
m .</w>
istr ation</w>
ir vana</w>
hou se
for b
del ic
conv ey
c esses</w>
at e
ail ing</w>
Yorim ori</w>
V ar
Ten shu</w>
T eac
S usan
P A
Int erior</w>
D ai</w>
198 9</w>
18 th</w>
z ai
tour ist</w>
sent ence</w>
sem i-
ry ori</w>
ref ined</w>
p ir
n al</w>
mo di
mission ary</w>
leg s</w>
l der</w>
kan- ke</w>
inu shi</w>
institu tions</w>
hou sing</w>
gar ment</w>
design s</w>
cou p</w>
circul ar</w>
Y ang</w>
WA TANABE</w>
T ea</w>
Suk eroku</w>
Stat ue</w>
S oz
S ojo</w>
Russo- Japanese</w>
Mem orial</w>
In oue</w>
I enari</w>
Har un
Govern or-
B ri
Agricul ture</w>
8 9
1 000</w>
w ant</w>
tat ami</w>
sof t</w>
sepp uku</w>
season ing</w>
g one</w>
g in</w>
f iscal</w>
experi enced</w>
every day</w>
ear ed</w>
e up</w>
contemp orary</w>
ch ok
bas in</w>
at to</w>
arti sts</w>
ancell or</w>
ad jacent</w>
ZU MI</w>
W ei</w>
Tak an
TSU CHI
Su iko</w>
Shak yamuni</w>
S us
Nor inaga</w>
IMA GAWA</w>
Honno ji</w>
D okyo</w>
Com man
Chap ter</w>
- like</w>
wor ld
tell s</w>
serv es</w>
pill ars</w>
lin ing</w>
lead ership</w>
gam es</w>
fab ric</w>
encour aged</w>
el ings</w>
chi g
cap ture</w>
cap it
b oku</w>
b loc
ang ible</w>
ak yo</w>
a un
a its</w>
Treas ury</w>
Transp ortation</w>
Shochi ku</w>
On jo-ji</w>
Ko ho</w>
Ju stice</w>
I II</w>
HON DA</w>
B ar
194 7</w>
188 5</w>
187 5</w>
yi elds</w>
umul i</w>
tsuk asa</w>
trigg ered</w>
th or
s es
passeng er</w>
key hole-shaped</w>
kan rei</w>
independ ence</w>
ich in
he at</w>
disp utes</w>
describ ing</w>
cultiv ated</w>
comm od
anc y</w>
am ochi</w>
after wards</w>
ad es</w>
achiev e</w>
V ic
Sin o-Japanese</w>
Sai in</w>
SA TO</w>
S ite</w>
Ma hay
Kei han
He av
HO RI
G ar
F re
187 4</w>
vol un
tend ency</w>
shin -ji</w>
o es</w>
mer ely</w>
los s</w>
k um
k od
in formed</w>
comp l
bi ography</w>
ap par
an al
ad d</w>
Tada oki</w>
SU GI
S il
S cen
RO K
P ub
Ninn a-ji</w>
Nag ahama</w>
Mas ayoshi</w>
Mar u
Mahay ana</w>
Kiyom asa</w>
KA KU</w>
Hon cho</w>
virt ually</w>
ushi ki</w>
ul sion</w>
sent enced</w>
scatt ered</w>
s earch</w>
out standing</w>
o u</w>
man age</w>
kag ura</w>
fail ure</w>
en- do</w>
e el</w>
c e
am ing</w>
aku ji</w>
Tam e
Tai shi</w>
T ag
Suk e
S utoku</w>
S ake</w>
Po ets</w>
No t</w>
MI KADO</w>
M ibu</w>
Kom yo</w>
J it
Ho t</w>
Hat ak
H om
Brit ish</w>
199 3</w>
z aka</w>
tribu te</w>
sy mp
speci alized</w>
scen ery</w>
ro be</w>
resp ective</w>
rec tang
re present</w>
pup pet</w>
pro pag
plan ning</w>
own ers</w>
of usa</w>
luc k</w>
l ements</w>
ig aku</w>
h em
fri ends</w>
fe elings</w>
en shrines</w>
continu es</w>
a house</w>
Teng u</w>
Tak ayoshi</w>
ROK KAKU</w>
P ass
Om ikami</w>
Kok en</w>
Kan p
Kan azawa</w>
Heijo- kyo</w>
Daijo- daijin</w>
Coun selor</w>
Ceremon y</w>
Bet to</w>
An n
6 72</w>
189 7</w>
wat er
un usual</w>
th ous
sup press</w>
suff ering</w>
s ick</w>
resign ation</w>
reg n
phys ical</w>
o ch
new s</w>
m o</w>
is l
er- in-
engr aved</w>
conqu est</w>
cer am
brew eries</w>
b atsu</w>
ad mitted</w>
Yoshi akira</w>
Takar azuka</w>
T end
Sum iyoshi</w>
Som e
Shin p
SAKA I</w>
Ord inance</w>
Okun inushi</w>
Nor iyori</w>
Mon jo</w>
M r
Lib eral</w>
Iz anagi</w>
I chim
Hiro bumi</w>
H oki</w>
Ear ly</w>
Dep uty</w>
Are a</w>
AKA MATSU</w>
20 ,000</w>
199 8</w>
ur al</w>
uk i-
ug oro</w>
u- jo</w>
sp on
s ave</w>
s aku</w>
pup il</w>
pr aying</w>
pos edly</w>
per former</w>
oshi yori</w>
or ts</w>
od ori</w>
negoti ation</w>
mot su</w>
min ted</w>
manufac tured</w>
mak eup</w>
k a-
j ime</w>
in ary</w>
horse back</w>
hol der</w>
gro w</w>
gr ass</w>
ex it</w>
d ough</w>
collec tions</w>
chi ken</w>
big gest</w>
b ai
as pec
am ent</w>
a shes</w>
Yaw ata</w>
Tokit ada</w>
Takam ori</w>
Tad amasa</w>
TSUKA SA</w>
Sev enth</w>
Rit sum
OT A
O ji</w>
Kir itsubo</w>
J ig
J U
Isl ands</w>
G eng
B E
199 5</w>
199 0</w>
wal king</w>
view ed</w>
timet able</w>
ten ance</w>
t ell</w>
sp ite</w>
qu i
oh ara</w>
multi ple</w>
minist ers</w>
me als</w>
lay out</w>
l it</w>
inher it
impro ve</w>
im ina</w>
h achi
great est</w>
f udai</w>
exclus ively</w>
ent ers</w>
det ached</w>
de emed</w>
d og
cros s</w>
ch est
aspec ts</w>
ar rest</w>
ain t</w>
Y ears</w>
Shim ous
Sar ugaku</w>
Rec ently</w>
P r
O ki</w>
Nit ta</w>
Nag ato</w>
N ig
Mit sum
Kong o</w>
Keihan shin</w>
Kan o</w>
Ind ustri
Hig her</w>
G ang
19 12</w>
19 00</w>
188 7</w>
118 4</w>
w isdom</w>
w ed</w>
syllab ary</w>
syll ables</w>
stit utes</w>
sh un
seri ously</w>
s ojo</w>
pat ron
oo th</w>
on sen</w>
mis cellaneous</w>
loy al</w>
le ase</w>
l ots</w>
k et
ishi -
inj ured</w>
in -ji</w>
fall ing</w>
en g</w>
ed om</w>
conqu ered</w>
conc ret
comm entary</w>
cil ors</w>
bureaucr ats</w>
bl ind</w>
aristocr acy</w>
an kyo</w>
ak ur
ak um
ad min
YAMA GATA</w>
YA SU
R yo</w>
Nob ushige</w>
L eg
K ebiishi</w>
J us
Ex hibition</w>
ug en</w>
u d</w>
surv iving</w>
sk ir
s and</w>
pill ar</w>
ment ion</w>
gif t</w>
et ings</w>
elec tri
compos ition</w>
comp licated</w>
comman d
c ub
be ef</w>
b acked</w>
am ono</w>
air i</w>
TAKA TSUKASA</w>
S aburo</w>
Ritsum eikan</w>
M ok
Kit a-
Hatak eyama</w>
H izen</w>
G U
D oji</w>
3 0
199 4</w>
17 th</w>
train -
them e</w>
suppres sion</w>
st ages</w>
sec ure</w>
om ichi</w>
mor eover</w>
mid- Heian</w>
mach ine</w>
k er</w>
instruc tion</w>
industri al</w>
in ser
hi er
ext inc
exper t</w>
cont act</w>
con sec
chair man</w>
categ ories</w>
bre ak
ay am
apprec iated</w>
Sai goku</w>
Mov ement</w>
Miy ak
Har u
Dem achiy
Ceremon ial</w>
Bri ef</w>
Administr ation</w>
th es
su -
sh aved</w>
remn ants</w>
re h
pl ease</w>
perman ent</w>
p on
om oto</w>
lun ch</w>
lo in
j ok
ist ers</w>
ho le</w>
enc ies</w>
ek iyo</w>
dre am</w>
aw anomiya</w>
arri er</w>
al ities</w>
U ta
Tom on
NA ITO</w>
Katsu yori</w>
KI NO
Hak us
Gom iz
Gen pei</w>
B .C.</w>
188 8</w>
vis its</w>
u tr
troub le</w>
ti g
thoug h
sup posedly</w>
sho chu</w>
ro ku
pub lication</w>
promot ing</w>
origin s</w>
natur ally</w>
man ju</w>
l av
hou sed</w>
fe at
evalu ated</w>
ev ol
estern -style</w>
eful ly</w>
e- kyo</w>
e ived</w>
de ed</w>
contro lling</w>
b rid
att acking</w>
ai ming</w>
To ei</w>
Tak e</w>
Ta o
Susan oo</w>
San n
Nijo- jo</w>
Ko yo</w>
In ari</w>
Gak ko</w>
Construc tion</w>
BA TAKE</w>
199 9</w>
ul ations</w>
r ush</w>
proc ession</w>
pot tery</w>
p age</w>
oku in</w>
neng u</w>
leg ends</w>
l asted</w>
it ama</w>
instruc tor</w>
i eg
hi e</w>
fo ot
dor mit
diam eter</w>
design ation</w>
dec is
cav al
cap acity</w>
birth day</w>
as ak
Yor o</w>
Var ious</w>
Tok i</w>
To yo</w>
Ten sho</w>
T etsu
R oju</w>
Pop ular</w>
O GI
Moron ao</w>
Kos ei</w>
Kom ei</w>
Demachiy anagi</w>
B ir
var ies</w>
un a</w>
tot ally</w>
termin al</w>
su spec
ste ward</w>
spec ies</w>
spe ople</w>
spe ech</w>
sk ill</w>
s par
s ounds</w>
rok u-
r ation</w>
no h</w>
mun icip
man ship</w>
individ uals</w>
g ot
feat uring</w>
exten sion</w>
every thing</w>
er ated</w>
equip ment</w>
en forcement</w>
el p</w>
deb ate</w>
de pos
Yoshi chika</w>
Y uki</w>
Sei wa</w>
Sai gu</w>
SHI TA</w>
S an</w>
S ah
Om i-
N ic
Jo i</w>
G ofuk
Foun dation</w>
For mer</w>
Daig aku-
Ben kei</w>
B iw
A ge</w>
th -
sur pris
strength ened</w>
stit uted</w>
saf ety</w>
s aved</w>
ram en</w>
prin ts</w>
oug h
om atsu</w>
n y
m iyatsuko</w>
li fe
le an
in ous</w>
hand ling</w>
go sho</w>
expl o
exp ulsion</w>
exp enses</w>
exec utive</w>
ex changed</w>
est ates</w>
ec tions</w>
cop ies</w>
comman ded</w>
br ush</w>
bir ds</w>
bir d</w>
av erage</w>
author ities</w>
aut omatic</w>
arm ies</w>
agricul ture</w>
admin istered</w>
ab bot</w>
U pon</w>
Tai ka</w>
Nan to</w>
Man chur
Fil m</w>
Eigh th</w>
D ance</w>
Bo oks</w>
189 1</w>
z an-
z ama</w>
y ear
w it
virt ue</w>
t ast
sud den</w>
strugg le</w>
shi r
purch ased</w>
pre ached</w>
mod eled</w>
mis sing</w>
mar ked</w>
le ather</w>
l ose</w>
iri -
ing- of-
ide as</w>
id ai</w>
ic i
gard ens</w>
for ty-
exclus ive</w>
ed eration</w>
difficul ty</w>
deep -
commun ic
cl ub</w>
char coal</w>
ac id</w>
V er
Tok imasa</w>
T et
SA KU
Person al</w>
Pe ace</w>
P ond</w>
O ut
O p
Na ot
N aval</w>
In v
Har umoto</w>
Gu ard</w>
G ir
19 30</w>
ushi -
ur u</w>
tsu ji</w>
trav eling</w>
trans formed</w>
t ob
speci alty</w>
rep air</w>
occas ionally</w>
o- kyo</w>
mon jo</w>
manag ing</w>
k ings</w>
ion -
i ate</w>
honor ary</w>
h yo</w>
h yo
four teenth</w>
fe e</w>
et ane</w>
en ke</w>
ek ing</w>
depar ture</w>
battle field</w>
am es</w>
ai- do</w>
acc umul
W ater</w>
U.S .</w>
U su
Tad azane</w>
TE I</w>
Shin bun</w>
SE GAWA</w>
Prin ces</w>
Kur anosuke</w>
KITA BATAKE</w>
In dian</w>
Comman der</w>
ti qu
th at
subordin ate</w>
resp ond</w>
rem ove</w>
r yoshu</w>
om achi</w>
inc idents</w>
gu id
et a</w>
ess ential</w>
disci pl
del eg
contr ary</w>
commission er</w>
co ast
cl ay</w>
as hig
a- do</w>
Yuk ichi</w>
Yoshin ari</w>
Tad amichi</w>
TAKA HASHI</w>
Sane suke</w>
S oto</w>
Rel ig
Re igen</w>
Mochi hito</w>
Me di
MATSU MOTO</w>
M yok
Ke ishin</w>
Honno -ji</w>
197 0</w>
196 0</w>
19 19</w>
188 6</w>
yam a-jo</w>
ur ies</w>
u subi</w>
tri but
trad itions</w>
sel ection</w>
ro ll</w>
rec ip
por table</w>
particip ants</w>
own ia</w>
os u</w>
mom ent</w>
is lands</w>
im mig
g y</w>
eg gs</w>
e di
concret e</w>
bo ys</w>
best owed</w>
aul ownia</w>
aku sho</w>
accord ingly</w>
T oc
Shi ro
Sei shi</w>
Pri ze</w>
Ot ok
O YAMA</w>
G oddess</w>
D ynasties</w>
Ap pointed</w>
194 3</w>
190 4</w>
187 9</w>
. m.</w>
r ailroad</w>
nov els</w>
north -
nor mally</w>
med itation</w>
mar ks</w>
mar kets</w>
init ial</w>
in in</w>
illustr ated</w>
h op
g agaku</w>
exec ution</w>
excav ation</w>
earth ed</w>
de aling</w>
cl e
c eased</w>
brew ed</w>
bl ood
aj iro</w>
ai -ji</w>
af ts</w>
add ress</w>
ab led</w>
Yug iri</w>
Stud y</w>
Shimous a</w>
Sad ak
SAKA MOTO</w>
P re
O h
NAKA YAMA</w>
Mim asaka</w>
Mas ayuki</w>
MATSU NAGA</w>
Le aves</w>
K ubo</w>
J itsu
J O
HI RO
Ger man</w>
G ai
G AMI</w>
E iga</w>
C ha
190 5</w>
189 6</w>
16 15</w>
wh ale</w>
v ered</w>
un oo</w>
ti p</w>
ter n</w>
tact ics</w>
str aw</w>
shou lder</w>
pris on</w>
pre ad</w>
ok imi</w>
loy alty</w>
er ate</w>
emphas ized</w>
dri ve</w>
des ire</w>
cris is</w>
coun ter</w>
construc ting</w>
be l</w>
b ath</w>
as uke</w>
appro ach</w>
anecd otes</w>
Toshi zo</w>
T un
Sek kan-ke</w>
San jo-
Onmyo do</w>
O har
Masa hiro</w>
L ike</w>
Koy asan</w>
Kon in</w>
KI RA</w>
Hyak unin</w>
High way</w>
G olden</w>
Fu hito</w>
190 1</w>
19 th</w>
186 5</w>
wor th</w>
wi shed</w>
weap on</w>
subst anti
spec tive</w>
sp ear</w>
si ege</w>
shin o</w>
seas ons</w>
reli ef</w>
pre -
origin ates</w>
ok ed</w>
life time</w>
koku jin</w>
kok yu</w>
king dom</w>
ji ju</w>
ferment ation</w>
ext rem
en or
dis crimin
dem anded</w>
bes ides</w>
az aki-
ar ly</w>
add y</w>
U s
U TSU
Sho in</w>
Shig etada</w>
O ita</w>
K ub
Gen ko</w>
C r
19 20</w>
uk an</w>
stor age</w>
stip ulated</w>
sh om
sh are</w>
reven ge</w>
repor ts</w>
ren ov
r aku</w>
pul led</w>
pri mary</w>
plan ted</w>
par don
onom iyaki</w>
ol d-
off erings</w>
o- do</w>
k uro
k not</w>
ishi ge</w>
ingredi ent</w>
hair style</w>
f umi</w>
f it
ex cluding</w>
ent ation</w>
dr agon</w>
div ination</w>
deliver y</w>
d ly</w>
d er
crip t</w>
con solid
arg ument</w>
any thing</w>
ag s</w>
a ichi</w>
Yoshi yasu</w>
Tran s
Ten man
Sen ju</w>
Mon on
Let ters</w>
Kit a
Hy uga</w>
Hon do</w>
HI GA
H ang
B ish
199 1</w>
197 6</w>
189 9</w>
187 8</w>
z en-
yor yo</w>
wid es
vari eties</w>
trad itionally</w>
thir d-
t ations</w>
stor ied</w>
sib ly</w>
s ex
res sive</w>
pain ters</w>
kilomet ers</w>
kan jo</w>
it oku</w>
inspec tion</w>
ik a</w>
holid ay</w>
hi ding</w>
fif ty</w>
fashi on</w>
ei -ji</w>
dom s</w>
discus sion</w>
d anc
cou ldn</w>
cont ribution</w>
cont est</w>
con stitution</w>
compar able</w>
collec ting</w>
cir cles</w>
ca p</w>
busin esses</w>
ap art</w>
a sh
Yaman ashi</w>
W rit
Tsu chimikado</w>
Toc higi</w>
Tam ak
T ek
Suz aku</w>
Shot en</w>
OKU MA</w>
M ain
Kyotan abe</w>
Kin ema</w>
Katsu ie</w>
Iw ate</w>
H ime</w>
Com mentary</w>
Ban koku</w>
200 9</w>
y om
wides pread</w>
we ek
war m</w>
ut aro</w>
uk i
uc k</w>
u ous</w>
stu dio</w>
struc k</w>
simp lified</w>
se aw
schedu led</w>
s car
ri vers</w>
progr ams</w>
mix ture</w>
mag n
lead s</w>
k os
jour ney</w>
increas ingly</w>
g ather</w>
fund s</w>
f ear</w>
f actors</w>
eleg ant</w>
dest ruc
col on
ch ain</w>
bo ards</w>
al ists</w>
adop t</w>
ZA I</w>
Wak oku</w>
Ten po</w>
Shim abara</w>
Se ig
R oyal</w>
Pro moted</w>
O per
Nobu yori</w>
N oto</w>
Mus ic</w>
Mor ot
M OTO
INA BA</w>
C are
ASA KURA</w>
197 2</w>
19 25</w>
118 3</w>
y ang</w>
tsub one</w>
t ext
succ eeding</w>
retre at</w>
real m</w>
re aching</w>
por ted</w>
perf ect</w>
mer ger</w>
k elp</w>
inter ests</w>
inherit ance</w>
id an</w>
fundam ental</w>
fu -
fif ty-
f ans</w>
er als</w>
environ ment</w>
ear ned</w>
e- gawa</w>
du mp
difficul ties</w>
d ressed</w>
bud get</w>
b y
az uke</w>
a shed</w>
Z ai
Yoshi ko</w>
Uz umasa</w>
Ut sunomiya</w>
St yle</w>
Shi ro</w>
S und
Nobu yoshi</w>
Nik katsu</w>
Nar it
N ote</w>
Mas anobu</w>
L u
Kaz un
Kan sei</w>
KI KU
Him iko</w>
Com mit
Chin ese-
Chi ten</w>
B ound</w>
Az uchi</w>
5 .
198 8</w>
195 1</w>
w in</w>
un ification</w>
un earthed</w>
tour nam
syll able</w>
sugg est</w>
shi chi</w>
rin ged</w>
ri m
rev ival</w>
re igns</w>
promulg ated</w>
on ing</w>
not ice</w>
n aval</w>
k yo-
just ice</w>
it or</w>
hi l
head ship</w>
fath er-
f ast</w>
f ai
ext ending</w>
en shrine</w>
depic ting</w>
d ig
concentr ated</w>
cl ean</w>
certi fic
bes ieg
b os
aw are</w>
appe al</w>
and en</w>
ak awa</w>
affil iated</w>
Y usai</w>
Toshim ichi</w>
Tom omi</w>
To ji</w>
Nobu katsu</w>
Med ic
Kiyom izu-
K yokai</w>
Init ially</w>
H oku
Exam ples</w>
Ch ur
Ch ang
B or
198 5</w>
ug u</w>
t ut
t umuli</w>
su z
s om</w>
qu oted</w>
pri est
pick led</w>
nyo go</w>
no tic
mil k</w>
is an</w>
inter section</w>
ing yo</w>
h ur
g ov
fur n
fic tion</w>
est y</w>
east -
e ously</w>
dic tionary</w>
coff ee</w>
bor ro
as suming</w>
anim al</w>
Y at
Tob a-
Tam etomo</w>
S ab
Provinc ial</w>
Port ug
Nakag yo</w>
Kasug a-
KO GA</w>
J iro</w>
Imad egawa</w>
I pp
Hid a</w>
Gomiz unoo</w>
B r
Aut umn</w>
19 27</w>
wh el
vineg ar</w>
trans mitted</w>
tr ust</w>
tiqu ette</w>
ti ll</w>
though ts</w>
t eg
sub sid
seas oned</w>
s ets</w>
s ale</w>
s ad
ru ined</w>
rel ating</w>
r ated</w>
prof it</w>
origin ator</w>
or al</w>
ok onomiyaki</w>
og uchi</w>
ob en</w>
mal t</w>
main stream</w>
lu x
liqu or</w>
is n</w>
is ing</w>
instruc tions</w>
i ji</w>
hon zan</w>
gri lled</w>
end er</w>
down fall</w>
direc tions</w>
destro y</w>
depl oy
commit tee</w>
chan ting</w>
c rem
br av
att ained</w>
as a-
acc used</w>
a us
Yoshi o</w>
Tok ai</w>
So on</w>
Sak amoto</w>
R ed</w>
P lease</w>
On i</w>
Nak at
NO BE</w>
Michit aka</w>
Kuro da</w>
Kono efu</w>
Katsur agi</w>
JI KATA</w>
I emochi</w>
Hot el</w>
HI JIKATA</w>
H ag
H E
Governor- General</w>
En shu</w>
D et
B O
AM A</w>
198 0</w>
188 0</w>
15 0</w>
we ather</w>
w ait</w>
vo ice</w>
ur ak
step s</w>
signific antly</w>
shi -
shar ed</w>
resour ces</w>
remar k
proced ure</w>
priv ately</w>
phot ograp
oy uki</w>
ok ing</w>
lec tures</w>
ji uta</w>
j itsu</w>
independ ently</w>
gu arding</w>
g .</w>
extr a
co at</w>
cl imate</w>
ch op
ca uses</w>
bro wn</w>
ast ers</w>
an th
an sho</w>
aff air</w>
a- jingu</w>
Yoshim ura</w>
Tok iyori</w>
Techn ology</w>
Sou n</w>
Shin sen
S ection</w>
Pro t
Mong ol
Matsu yama</w>
M E</w>
Kik ugoro</w>
KA MO</w>
K ug
J uro
Histor ic</w>
Hat amoto</w>
H atsu
E con
Commit tee</w>
Ak iko</w>
A ct
194 8</w>
-g umi</w>
v ac
usol eums</w>
univer sities</w>
un g</w>
stor ey</w>
states man</w>
sp reading</w>
sing ing</w>
ro ots</w>
ro lled</w>
reco vered</w>
proc essed</w>
pos it
pl e
pl ans</w>
person ality</w>
pardon ed</w>
over whel
ot ion</w>
n un</w>
n ations</w>
monop ol
main tenance</w>
m in</w>
l ake</w>
kit chen</w>
g o-
fu ji</w>
friend ship</w>
fl ag</w>
enshrin ing</w>
ec tion
div or
distinc tion</w>
de dic
de aths</w>
d ances</w>
clos er</w>
bro ther
appl ication</w>
Y i</w>
Tok ushima</w>
Tei shi</w>
Shim bun</w>
Par tic
P a</w>
O- oku</w>
Mr .</w>
Mar ut
G oh
G ent
E ik
Care er</w>
B l
Am a</w>
Ad vis
196 5</w>
195 5</w>
194 4</w>
19 15</w>
town speople</w>
tour ists</w>
thre w</w>
tai l</w>
t edly</w>
sou ls</w>
rein forc
p aying</w>
n atto</w>
m at</w>
ld ers</w>
int angible</w>
inc ar
for ests</w>
ex posed</w>
er as</w>
bes ide</w>
ay ama-
an ok
an k
a- kofun</w>
Y U</w>
W i
V ol</w>
Tok a</w>
Th rough</w>
Ten jin</w>
TO KI</w>
Sim il
Shog un
Shigen obu</w>
SHI BATA</w>
S HO
Re forms</w>
N um
KA TSU</w>
K ait
Hor ses</w>
G oro</w>
FU RU
Conc ern
Bu zen</w>
Bish am
20 th</w>
194 0</w>
13 33</w>
v oc
sist ers</w>
sec hie</w>
se eking</w>
pr ayed</w>
oun ded</w>
numb ered</w>
moun ted</w>
ment -
m iy
m ei
is u</w>
int end
init i
ing-of- age</w>
in shu</w>
imp ris
ik ata</w>
g os
g aining</w>
flo at</w>
farm er</w>
er ted</w>
enor mous</w>
doub t</w>
diff er</w>
deteri or
d w
coun cillor</w>
argu ed</w>
an try</w>
acc ess
Tsur uga</w>
Tan ab
St ory</w>
Some times</w>
Sein an</w>
Ok ami</w>
Off ic
Mur ak
Mi roku</w>
Medi eval</w>
Kor echika</w>
Kom achi</w>
Ko shi</w>
Ko ji</w>
Kag awa</w>
K ay
K aro</w>
Japan -
D on
C hig
C an
Bun ko</w>
B re
An thology</w>
After ward</w>
190 2</w>
ud ed</w>
star ch</w>
sleev e</w>
se ek</w>
s ence</w>
reg istration</w>
pos itioned</w>
po ured</w>
po is
pass es</w>
par li
p es</w>
k ik
house holds</w>
grav eyard</w>
fol ded</w>
enti f
defin ition</w>
de eds</w>
cub ic</w>
au chi</w>
attrac ted</w>
af raid</w>
a- g
Yoshit ane</w>
Tr aining</w>
Son no</w>
Shige hira</w>
Sh us
On myo</w>
O thers</w>
NA KA</w>
MO NO
Kag e
Jor uri</w>
Ji ju</w>
Ik ki</w>
Hos pital</w>
D ogen</w>
B ei
Ak amatsu</w>
A oi</w>
A j
worshi ped</w>
th eless</w>
t ears</w>
sub stitute</w>
st ar</w>
shaku hachi</w>
r ural</w>
ot a</w>
mon in</w>
medi um</w>
medi ation</w>
medi a</w>
mand ala</w>
kyo gen</w>
jo ining</w>
ik awa</w>
hand -
gif ts</w>
fru it</w>
fall en</w>
ever theless</w>
et ary</w>
em ari</w>
e .
develop ing</w>
dai ri</w>
continu ously</w>
comm erce</w>
coll ective</w>
c arri
bure au</w>
be ar</w>
ay ama-jo</w>
ancest ral</w>
ad just
absor bed</w>
Yuk inaga</w>
Yoshin aga</w>
Yoshim ori</w>
Tak atsuki</w>
Ta Pa</w>
Sum imoto</w>
Pi TaPa</w>
Ko z
Kaw an
Jushi inojo</w>
Gor yo-
Chinese- style</w>
Aman oh
Ak it
7 .
3 0,000</w>
198 6</w>
yor i
y outh</w>
ware house</w>
tun nel</w>
t our</w>
suspec ted</w>
s ob
s ama</w>
roc ks</w>
ri ot</w>
re min
re l</w>
or ous</w>
nur se</w>
k ichi</w>
it en</w>
is es</w>
i us</w>
i en</w>
hom yo</w>
gov ern</w>
e shi</w>
diff ers</w>
coun ts</w>
cons ci
class ic</w>
circul ated</w>
b all
aw a-cho</w>
att ributed</w>
ast ically</w>
apprent ice</w>
Takam atsu</w>
SHI NA</w>
O GA
Miz u
Medic ine</w>
Kot o
Ko h
HA TA</w>
G yok
G oto</w>
F inance</w>
En yu</w>
Daig aku</w>
Chi chi
CHI BA</w>
A omori</w>
6 .
196 8</w>
ut ing</w>
tur ns</w>
train- cars</w>
thous ands</w>
th od
scen ic</w>
satis fied</w>
ric e-
ri f
pur ification</w>
pow dered</w>
p regn
oo p</w>
om aro</w>
mut ual</w>
mun icipal</w>
mat ches</w>
main taining</w>
lacqu ered</w>
jud gment</w>
in h
i emoto</w>
he ated</w>
h und
govern ments</w>
foc used</w>
fif teenth</w>
expres sions</w>
e. g.</w>
dec ide</w>
cy cle</w>
craftsm en</w>
ch o-
bre aking</w>
az ura</w>
avo ided</w>
assist ed</w>
all owing</w>
The ory</w>
Shug odai</w>
Shinto ism</w>
Sai dai
Manchur ia</w>
Hik one</w>
H iy
Gok ur
Fuk ei</w>
Estab lished</w>
Con sort</w>
Chi ld
Bro ad
Am e</w>
190 6</w>
z ing</w>
z aki</w>
vis count</w>
us i
t opped</w>
t ended</w>
sp ired</w>
ro -
prov ision</w>
pri ze</w>
pir ates</w>
ov en</w>
o k</w>
ma p</w>
m m</w>
m i
m erit</w>
lay er</w>
larg ely</w>
job s</w>
jo int
impres sion</w>
hid den</w>
heav enly</w>
g est
ex tra</w>
est ry</w>
er ary</w>
em aki</w>
eed s</w>
e tiquette</w>
coff in</w>
clo ister</w>
at ically</w>
an o
ai sha</w>
acqu ain
a hiko</w>
Yoshi oki</w>
Yorit suna</w>
Yas ak
U jin
T ath
Shim a</w>
Se to</w>
Or gan
Ob ama</w>
Mochi uji</w>
Med ical</w>
K ib
J oh
Him emiko</w>
D ok
Comp let
Az um
Amanoh ashi
2 ,000</w>
195 4</w>
194 1</w>
189 4</w>
zu i</w>
un osuke</w>
un certain</w>
tur ning</w>
teach ers</w>
tal ented</w>
sp ear
sign s</w>
sanc tuary</w>
ru in</w>
relig ions</w>
r yu-ji</w>
pres sion</w>
p i</w>
ou n</w>
oppos ing</w>
no -ji</w>
neighbor hood</w>
narr ative</w>
luc ky</w>
l am
invest iture</w>
han- chiken</w>
eri ous</w>
end ary</w>
em is
eff ectively</w>
dom inated</w>
do g</w>
diplom acy</w>
cros sed</w>
cou ple</w>
compris ed</w>
bo iling</w>
be at</w>
act ly</w>
acc ess</w>
Yod o-
Yam ana</w>
UTSU NOMIYA</w>
Tam eyoshi</w>
Su preme</w>
SHI GE
SA NA
Produc tions</w>
On m
Mor osuke</w>
Mong ol</w>
Min ami-
Mi ura</w>
Met ropolitan</w>
I TA
Him eji</w>
H og
G ongen</w>
F ire</w>
F in
D a
Chur ch</w>
Ch rysanthemum</w>
Atsut ane</w>
Atago- yama</w>
190 8</w>
189 2</w>
157 3</w>
uni form</w>
un less</w>
uc c
ub en</w>
the tic</w>
su its</w>
sl ope</w>
secon d-
ron in</w>
ro mis
rectang ular</w>
r hy
pref ix</w>
pr ices</w>
polit ician</w>
over ty</w>
n an
myo jin</w>
mot ion</w>
min istry</w>
leg isl
inv ocation</w>
industri es</w>
im achi</w>
ich u</w>
gu ide</w>
grad ed</w>
foll ower</w>
favor able</w>
e boshi</w>
doub le-
dist urbance</w>
con clusion</w>
commun ities</w>
com ing-of-age</w>
circul ation</w>
c akes</w>
bor e</w>
asc et
answ ered</w>
alleg edly</w>
To ho</w>
Shoz o</w>
Shin zei</w>
SA WARA</w>
P ilgrimage</w>
OGA SAWARA</w>
Myo shin-ji</w>
Motot sune</w>
Mor it
Kag et
Jin ja</w>
Is shu</w>
Industri al</w>
Hei zei</w>
F ol
Concern ing</w>
Buil ding</w>
B ORI</w>
Amag asaki</w>
Al ong</w>
8 00</w>
195 3</w>
158 5</w>
thir teenth</w>
st ringed</w>
rin k
refl ected</w>
pro jects</w>
n owadays</w>
mour ning</w>
jo sho</w>
happ iness</w>
gr ac
fur thermore</w>
father- in-law</w>
es ato</w>
en ge</w>
dis gu
deal t</w>
d o-
cro w
con stitutional</w>
con spiracy</w>
commun ication</w>
co very</w>
boun dary</w>
be half</w>
az uk
author ized</w>
ashin o</w>
arri ve</w>
Yorim itsu</w>
V is
Toshi t
Sho shu</w>
Shin sho</w>
Sh oko</w>
S ch
N umber</w>
Monon obe</w>
Mitsu t
Kam on</w>
I tal
H ashim
Gofuk akusa</w>
Fuk akusa</w>
F ine</w>
C amp</w>
B U</w>
Az ai</w>
7 00</w>
197 4</w>
193 4</w>
190 9</w>
190 3</w>
19 23</w>
ure r</w>
um on
tur ers</w>
supervis ed</w>
streng then</w>
som en</w>
sever ely</w>
scre ens</w>
princi ples</w>
pleas ure</w>
per forms</w>
og re</w>
magistr ates</w>
lim it</w>
ic ing</w>
i ju</w>
h ann
ex actly</w>
eas ier</w>
d ain
c ited</w>
att ain</w>
an z
am ong
ad m
Yoshik age</w>
Wor ks</w>
Ta x</w>
Shon agon</w>
Roku j
O jin</w>
Na osuke</w>
Miy ako</w>
M y</w>
Ky udo</w>
Kai do</w>
Iz anami</w>
Fushim i-jo</w>
BA RA</w>
198 1</w>
197 9</w>
193 2</w>
youn gest</w>
year -
thro wing</w>
thes is</w>
story tell
st alls</w>
seaw eed</w>
s ight</w>
reinforc ements</w>
re ts</w>
pup ils</w>
pub lishing</w>
pe l</w>
oy aki</w>
os on</w>
ordin ance</w>
nin et
ma usoleums</w>
m ere</w>
m aki</w>
low est</w>
leg endary</w>
keep er</w>
k ud
jo- in</w>
ist ics</w>
h o-
fir st-
exc elled</w>
dw elling</w>
dri v
dep icts</w>
dem ise</w>
dai kon</w>
d ata</w>
d a-
contrac t</w>
consid erable</w>
conqu er</w>
comp ound</w>
ch ose</w>
ce iling</w>
beg un</w>
ass ign
announc ement</w>
ang er</w>
am ot
aj in</w>
ai shi</w>
adop tion</w>
ac knowled
Z h
Y us
W afuku</w>
U emon</w>
Toyo oka</w>
Ten m
Son obe</w>
Shimon oseki</w>
RA I</w>
Om ot
OGI MA
Mon ju</w>
Miy azaki</w>
Mik kyo</w>
M ine</w>
Ko an</w>
Kat amachi</w>
K oki</w>
Go yo
Dain ichi</w>
Bas in</w>
B on</w>
196 9</w>
194 2</w>
- -</w>
was n</w>
uk u-ji</w>
te ahouse</w>
shap es</w>
rap h</w>
pr ise</w>
pol ishing</w>
peac eful</w>
p overty</w>
on able</w>
n ori</w>
me etings</w>
inh erit</w>
idd en</w>
hun t</w>
horizon tal</w>
hier archy</w>
et oshi</w>
er ably</w>
eng aku</w>
ec han
dormit ory</w>
comp romis
ch or
ch a
answ er</w>
advis ers</w>
Yakushi -ji</w>
WA KA</w>
V ice</w>
Tak em
Tak ashima</w>
T sum
Sai gyo</w>
Off icial</w>
MO RI
Kud ara</w>
Is ami</w>
I i</w>
Hik o
Han a</w>
F ederation</w>
Chin ju-
Amanohashi date</w>
196 7</w>
186 6</w>
185 8</w>
159 2</w>
ub u</w>
u- gawa</w>
ti ally</w>
stab il
pos sibly</w>
n one</w>
men tions</w>
land -
ir ing</w>
inaugur ated</w>
il legitimate</w>
govern ment-
ex -
es el</w>
enth usi
ear then</w>
dis cre
contro vers
compar ison</w>
bel t</w>
aun t</w>
ae shi</w>
ae ological</w>
a- kaido</w>
Yoshi shige</w>
Yoshi fusa</w>
Ten ri</w>
Tath agata</w>
Tadat sune</w>
TSU KI</w>
Sug awara</w>
R ei</w>
NO KOJI</w>
K yok
Jing i</w>
HO RI</w>
F low
E hime</w>
Char act
An sei</w>
199 2</w>
19 14</w>
we alth</w>
w and
ultim ately</w>
tow ers</w>
tom bs</w>
ter ing</w>
swe ets</w>
sun g</w>
se als</w>
roof s</w>
re location</w>
pic ked</w>
ok ai</w>
n ishi
m idd
m as
inf erior</w>
im ura</w>
im aro</w>
ig awa</w>
ide al</w>
ickn ess</w>
fl ying</w>
extra ordinary</w>
ex trac
ens emb
emer gency</w>
driv en</w>
don ation</w>
differ enti
cy press</w>
conven ient</w>
con sumption</w>
comp reh
comp on
clai ms</w>
cl ock</w>
chronic le</w>
banqu et</w>
b ers</w>
attemp ts</w>
appoin t</w>
am ai</w>
a head</w>
Yoshik ane</w>
Vill a</w>
Teac h
TSU JI</w>
T ur
Su wa</w>
Sen n
P ag
Nan zen-ji</w>
Nan tan</w>
Myo jin</w>
MONO NOBE</w>
Kiyomizu- dera</w>
Ki shi</w>
Ke itai</w>
K id
Jun na</w>
Hei ankyo</w>
H ow</w>
G E</w>
F ran
Ear th
Christ ians</w>
An toku</w>
u an</w>
treat ies</w>
surv ey
stu ff
rit su</w>
ri de</w>
privileg ed</w>
pract ically</w>
ol es
oj o-ji</w>
oblig ed</w>
n ai</w>
mu sh
k is
it es</w>
in o
ill ow</w>
ign ored</w>
i- gawa</w>
head ing</w>
gre ater</w>
gran t</w>
g on
fic ial</w>
ep ing</w>
enti ally</w>
east- west</w>
e enth</w>
do jo</w>
d oll</w>
ch ant</w>
cent ering</w>
cal m</w>
blos som</w>
az uki</w>
aw an</w>
at ama</w>
ak ari</w>
accomp lished</w>
ab us
a- machi</w>
Yoshim ochi</w>
Yoshim i</w>
Y otsu
Y in</w>
Tom ot
Shichi jo</w>
SHI MOTO</w>
S ports</w>
S aku
Ret ain
NAGA I</w>
N G</w>
Ko fu</w>
Kaz u
I esada</w>
HA SHIBA</w>
D re
193 3</w>
19 22</w>
19 21</w>
z uki</w>
tal k</w>
sovere ign</w>
sign ature</w>
s aki</w>
rit e</w>
reserv ed</w>
pro claimed</w>
prin cesses</w>
pe pper</w>
p ion
p eninsula</w>
m es</w>
m atsu</w>
inst all
im ichi</w>
ic ha</w>
hear ing</w>
fi res</w>
ff er
f ing
exhib ited</w>
entif ic</w>
dri ving</w>
dep th</w>
conf used</w>
con trad
chop sticks</w>
c up</w>
b oom</w>
atur al</w>
appl ic
ak ura-
a ud
Yom ei</w>
W as
Tok imune</w>
Tak eru</w>
Sho sho</w>
Sh i</w>
Sad aie</w>
S asaki</w>
Origin al</w>
Orig in</w>
I ZE
Ho sho</w>
Hiro moto</w>
H um
C ar
Biw ako</w>
196 6</w>
195 9</w>
193 5</w>
14 0
z asu</w>
wat ch</w>
w on
w inning</w>
swit ched</w>
story telling</w>
ris ing</w>
prov ides</w>
prohib ition</w>
pro per</w>
per spective</w>
pen alty</w>
par ade</w>
ot om
on- do</w>
oc ks</w>
no c
myst erious</w>
locomo tives</w>
k yu
k im
invol vement</w>
ind en</w>
hol es</w>
heav ily</w>
flav ored</w>
er t</w>
enc ing</w>
dis emb
decreas e</w>
cros s-
courtes y</w>
cour ses</w>
confron ted</w>
conf idence</w>
c ave</w>
ba g</w>
assemb ly</w>
appro ached</w>
ak uni</w>
Yas uk
Um ay
Ty pe</w>
Tsuk ushi</w>
Tadat aka</w>
St ar
Shu i</w>
SHI KI</w>
S ucc
Rev ol
O shik
Noh gaku</w>
Nag anori</w>
Kin mochi</w>
KU RO
KO BORI</w>
KI K
K ings</w>
I SE</w>
Hai han-chiken</w>
De pot</w>
Ak ira</w>
Administr ative</w>
5 0
, 00
us ers</w>
under went</w>
ti fication</w>
thro wn</w>
thir teen</w>
shi chi
sh ell
s ac
re bel</w>
prin t</w>
pract ition
portr aits</w>
oy asu</w>
on ment</w>
od o-
no bl
l ying</w>
l a</w>
ji- jo</w>
introduc ing</w>
inom iyatsuko</w>
fact ory</w>
f ying</w>
en er
e u
doct ors</w>
co operated</w>
clos ing</w>
caval ry</w>
c ord</w>
bow ls</w>
bo x
bl ack
ar ai</w>
ai de</w>
advoc ating</w>
acc ession</w>
a is</w>
YAM ASHI
Uk on</w>
Uk ifune</w>
UME WAKA</w>
T amur
Sum mer</w>
SA WAMURA</w>
R ice</w>
Prot ection</w>
Par is</w>
P ast</w>
O sumi</w>
Nak as
NAKA GAWA</w>
Mor iya</w>
Koku fu</w>
KO I
KIK KAWA</w>
K en</w>
J omei</w>
J iz
I tsuk
Heav en</w>
E ki</w>
Dar uma</w>
Dai ei</w>
Dai -
Brit ain</w>
Bor n</w>
197 3</w>
196 3</w>
195 2</w>
w ara</w>
ul tan
tor ii</w>
tor a</w>
theat rical</w>
techn ical</w>
te eth</w>
suspic ion</w>
subordin ates</w>
subjug ation</w>
small -
shu in</w>
shi te</w>
se eds</w>
quest ions</w>
quar ter</w>
pres erve</w>
pref ace</w>
p hon
ou ts</w>
ochi ka</w>
n ery</w>
manufac turers</w>
it or
inter ested</w>
int ens
imp act</w>
ik oto</w>
ific ations</w>
h all
f air</w>
exper ts</w>
dro pped</w>
ch all
bur den</w>
altern ative</w>
agon al</w>
ab oko</w>
Tai fu</w>
Sanet aka</w>
S em
S aw
Ret ained</w>
R yot
R i
NAKA HARA</w>
M ay
K T
In land</w>
IS SHIKI</w>
Hon zon</w>
H en
Fushim i-
F ort
Daik aku-ji</w>
Daigaku- ryo</w>
DA CHI</w>
D o</w>
Child ren</w>
B uses</w>
B el
5 0,000</w>
188 3</w>
z ashi</w>
y os
ver sions</w>
vehi cles</w>
tsu -
tr ained</w>
tou ch</w>
ti e</w>
that ched</w>
t ek
success ors</w>
spon s
so chi</w>
shu i</w>
sh okan</w>
reli able</w>
pu shed</w>
proc eeded</w>
p ac
out bound</w>
om itted</w>
occup ation</w>
n un
kan paku</w>
in hab
ic ism</w>
i be</w>
hon jo</w>
gr ains</w>
gen ce</w>
fac ulty</w>
exp and</w>
es sel</w>
el ded</w>
ek uni</w>
deploy ed</w>
decis ive</w>
co sts</w>
c he</w>
as king</w>
as ing</w>
abbrevi ated</w>
a hi
Yorit sune</w>
TO RI
T i
S akura</w>
Pic ture</w>
P ost</w>
NU MA</w>
N os
L ist</w>
Kashi hara</w>
Kan emichi</w>
In c</w>
Ichin omiya</w>
Higashi- Maizuru</w>
Hashim oto</w>
As akusa</w>
A ne
189 3</w>
12 21</w>
z ation</w>
wood block</w>
w ai
v ary</w>
ub un
trans ition</w>
tal ked</w>
t each</w>
she et</w>
set su
se ly</w>
ru shed</w>
pl ates</w>
phenomen on</w>
p addy</w>
nood le</w>
net work</w>
mur dered</w>
mur der</w>
mon zeki</w>
minist ries</w>
loin cloth</w>
kn ife</w>
k aku-ji</w>
it ated</w>
ig en
ib en</w>
histor ies</w>
gen puku</w>
folk lore</w>
fl ood</w>
f it</w>
ev ed</w>
emon o</w>
ed ing</w>
descend ents</w>
cour tier</w>
cor mor
connec tions</w>
con sum
co pe</w>
ced ar</w>
capit als</w>
bear ing</w>
b ought</w>
anth ologies</w>
ang a</w>
am oun
altern ate</w>
ac hig
ab sence</w>
YU KI</w>
Tun nel</w>
Tamak azura</w>
T our
T im
Shik in
Set su
Retain ers</w>
RE IZE
Pro f
Priv ate</w>
P rec
Onm yoryo</w>
Ok ura-
Ok azaki</w>
Ku j
Kon jaku</w>
I ki</w>
Gos aga</w>
Doc uments</w>
Broad casting</w>
Amen o
197 8</w>
197 5</w>
195 6</w>
sup ern
s op
s aku
pol ished</w>
om itsu</w>
neg ative</w>
nam ing</w>
modern ization</w>
mathemat ics</w>
main land</w>
m ask</w>
m achi-
lish ment</w>
lab or
k iri
iv en</w>
ic ity</w>
ho stage</w>
g ent</w>
fu yu</w>
frequ ent</w>
expl ains</w>
e- ryu</w>
d ynasties</w>
d il
connec ts</w>
conc epts</w>
comm ent
cho ice</w>
ch -
bu y</w>
b alls</w>
ar ashi</w>
ap parent</w>
an qu
a b</w>
YA KAWA</w>
W estern-style</w>
Uj imasa</w>
U S</w>
Tsub one</w>
Tak echi</w>
TSU DA</w>
Shug endo</w>
Shon ai</w>
Sek kan</w>
San eyori</w>
SAN JO
SANJO NISHI</w>
S en</w>
REIZE I</w>
R yok
P a
N D
Moton aga</w>
Kun it
Kob o</w>
Kam atari</w>
Iw ashim
HIGA SHI
Econ om
D harma</w>
D .</w>
Con sid
ARA KI</w>
70 1</w>
19 13</w>
159 0</w>
12 0</w>
var ied</w>
v essel</w>
v ation</w>
un ited</w>
u li
tex tile</w>
t ally</w>
sh ut
sh os
se ki-
s aka</w>
real istic</w>
rad ical</w>
qu is</w>
prov ed</w>
pro of</w>
patri arch</w>
par tially</w>
p ig
ord on</w>
o- Confucianism</w>
midd le-
mach ines</w>
l ind
k ug
k oz
jor uri</w>
joint ly</w>
ishi w
intend ent</w>
il iation</w>
ig uchi</w>
guaran te
f ron
et sune</w>
est -
emphas is</w>
dr ums</w>
div isions</w>
dis asters</w>
cor rid
ceram ic</w>
aw s</w>
arti stic</w>
appoin ting</w>
an ism</w>
abdic ation</w>
WA KI
W ang</w>
Uki yoe</w>
To shi</w>
TOKU DAI
TOKUDAI JI</w>
T ofuku-ji</w>
Sot an</w>
Shige ko</w>
Sai to</w>
S m
S ep
S atur
Ok uma</w>
Off ices</w>
OTA NI</w>
Nak an
M ichim
Kog on</w>
KI DO</w>
Ik eda</w>
H ata</w>
Com mand
Ch os
BA NDO</w>
As s
Arit omo</w>
Agricul tural</w>
198 4</w>
196 4</w>
195 7</w>
19 24</w>
yo- ku</w>
utili zed</w>
up e</w>
u jo</w>
sol ar</w>
ro asted</w>
reven ue</w>
ref lec
pursu ed</w>
privileg es</w>
pre aching</w>
prai se</w>
p referred</w>
oh aru</w>
od as</w>
ocr atic</w>
nin ja</w>
myo cho</w>
m ly</w>
ly rics</w>
ju jutsu</w>
hon ored</w>
h ope</w>
gen re</w>
fr ame
for t</w>
fle et</w>
ex cluded</w>
elev ision</w>
el even</w>
ek yo</w>
de er</w>
cor ps</w>
con j
chi gyo</w>
ch est</w>
car p
bl ing</w>
beg in</w>
aw ard</w>
arri ving</w>
an do</w>
am e-
am aru</w>
al ties</w>
ak us
ag eous</w>
ag ent</w>
acc ept
Yoshi zumi</w>
W isdom</w>
W ay</w>
Vi et
Transp ort</w>
Tor u</w>
T ower</w>
T ama</w>
Sund ay</w>
Sou theast</w>
Shin sen</w>
Scen ic</w>
SANA DA</w>
S eki</w>
S ci
Ris ing</w>
Pres ent</w>
Os hima</w>
Ob aku</w>
Nak a
Nag ao</w>
NI KAI
NIKAI DO</w>
N owadays</w>
M ount</w>
Kan ji</w>
I C</w>
Her itage</w>
E NO
Des pite</w>
A NDO</w>
supp lied</w>
sum mon
stor m</w>
sh uku</w>
sh oot</w>
sex ual</w>
secon dary</w>
purch ase</w>
portr ayed</w>
pec uli
p ilgri
oth er
ob un
mor tal</w>
may or</w>
m iz
m itsu</w>
l ings</w>
int erior</w>
gu il
gre es</w>
friend ly</w>
forb idden</w>
ei t</w>
dis aster</w>
destruc tion</w>
de grees</w>
cr aft</w>
cor rup
comp ens
clai ming</w>
br ave</w>
be d
aus pic
at i</w>
as aki-
TA GAWA</w>
T omo</w>
St anding</w>
S word</w>
P ower</w>
O KI</w>
Nobu hide</w>
Kin mei</w>
K uge</w>
In tangible</w>
Hon jo</w>
Gor yeo</w>
G iven</w>
Fu y
193 6</w>
zur yo</w>
wor se</w>
val ues</w>
ti re</w>
thor ough
surpris ed</w>
strong er</w>
so le</w>
sent ences</w>
s ear
rhy th
res c
ran e</w>
priv at
pres cribed</w>
pre st
ow ak
ou se</w>
on ari</w>
no on</w>
need s</w>
mus icians</w>
m a-
li d</w>
kor yo</w>
k ido</w>
inter f
inst ance</w>
in qu
ig rap
hi d</w>
hem p</w>
hard ly</w>
g at
frame work</w>
evalu ation</w>
dr astically</w>
depar tments</w>
dai kan</w>
coun cilors</w>
cle an
cl ar
cent uries</w>
camp us</w>
bi to</w>
ben to</w>
b ones</w>
ast s</w>
ass ets</w>
ar ian</w>
W ada</w>
Tsug aru</w>
Tsu tsu
Tad amori</w>
Soz en</w>
Ori ental</w>
N irvana</w>
Mon zeki</w>
Mitsu yoshi</w>
Mat sun
Ma eda</w>
MI TSU
Loc ation</w>
Jos eon</w>
Jing ikan</w>
HA SEGAWA</w>
H ol
Gos anjo</w>
G old</w>
Em aki</w>
Conf erence</w>
Archi ves</w>
2 1st</w>
z um
ys is</w>
xim um</w>
wrest ler</w>
viol ent</w>
ul l</w>
u- kyo</w>
trav el
supervis ion</w>
struc tural</w>
restric ted</w>
recru ited</w>
ran ts</w>
ran t</w>
rad ish</w>
protec ting</w>
pres ently</w>
pre text</w>
pl us</w>
pan el</w>
oz ono</w>
nobl em
n en</w>
my th</w>
mo il</w>
k oban</w>
initi ative</w>
ho st
histor ically</w>
gen -
fre ely</w>
foc us</w>
ferment ed</w>
f ut
f ate</w>
f actor</w>
ey a</w>
engr aving</w>
ed y</w>
eas es</w>
cur se</w>
crip tion</w>
craftsm an</w>
bon ito</w>
ay al</w>
aut a</w>
ass ad
ashim i</w>
appar ently</w>
am iya</w>
ab ilities</w>
Yor inobu</w>
Vic e-
S overe
S ocial</w>
Pol it
Ot a</w>
O chi
Kok uga</w>
Kit ashi
Kam ik
KT R</w>
KINO SHITA</w>
KIKU CHI</w>
K odo</w>
JU JI</w>
Iw ami</w>
Gun ji</w>
E lev
Cour se</w>
Cl ass</w>
C ordon</w>
Arisug awanomiya</w>
Acc ess</w>
193 7</w>
115 6</w>
yo- in</w>
wel com
wed ding</w>
w ake</w>
ver ses</w>
tex ture</w>
str y</w>
six -
shin den</w>
s ozu</w>
s killed</w>
ro lling</w>
resid e</w>
rend ered</w>
ren owned</w>
ow ns</w>
on y</w>
nec k</w>
mean ings</w>
m ilit
li eutenant</w>
lan tern</w>
issu ing</w>
in formal</w>
har mon
happ y</w>
gener als</w>
g ent
f ood
f f</w>
expres ses</w>
ec e</w>
e ong
do shi</w>
de part</w>
d iver
d ign
d harma</w>
coun ties</w>
ch rysanthemum</w>
br and</w>
beli efs</w>
be ads</w>
b in
b ak
atur ed</w>
at ag
ar a-
an abe</w>
Yori yoshi</w>
Y ASHI
Tsur ug
Tsuk ig
Toki hira</w>
TSUCHI MIKADO</w>
TO RI</w>
T ree</w>
Rak ugo</w>
P ur
P al
Nagaok akyo</w>
Mitsu kuni</w>
Kok yu</w>
Ko bun</w>
Kar a
Kan pei</w>
Kaget ora</w>
KA JUJI</w>
J ust</w>
In ar
Hiro shi</w>
Goz an</w>
Gok omatsu</w>
Goj o-
Fud oki</w>
F e
Com mission
Ch amber</w>
3 ,
y a-
wrest lers</w>
welcom ed</w>
ure ment</w>
u ya</w>
tax ation</w>
sw im
subsid iary</w>
sh oyu</w>
sh ad
schedu le</w>
s manship</w>
s amur
persu aded</w>
ous ness</w>
ot ani</w>
on ers</w>
odi ac</w>
occ ur</w>
nor theast</w>
no tion</w>
n ative</w>
mir rors</w>
l ion</w>
k og
j iku</w>
intell ect
in bound</w>
ik ane</w>
hi t
h ut</w>
ge ographical</w>
fe ud</w>
dr unk</w>
di aries</w>
decor ations</w>
de but</w>
contribu tions</w>
contin ent</w>
candid ate</w>
assist ance</w>
app ly</w>
an ag
ag ashi</w>
Yoshi hira</w>
Tsune hisa</w>
Tend ai-
Shigen ari</w>
Shi shi
S oke</w>
Pag oda</w>
L iving</w>
Kob un
Ko shu</w>
Ko sho</w>
Kei ko</w>
KI MURA</w>
K ibi</w>
Is shiki</w>
I SO
Hos so</w>
Ed ict</w>
D osan</w>
Chinju- fu</w>
Ch ogin</w>
An do</w>
197 1</w>
writ ers</w>
wor sen
wi shes</w>
thod ox</w>
t est</w>
st amp</w>
sp rink
sim ultan
sign al</w>
sh into</w>
ro t
rever ence</w>
reduc tion</w>
pun itive</w>
prosper ous</w>
promis ed</w>
post -
ped est
p aulownia</w>
over l
ographi es</w>
newsp apers</w>
mountain ous</w>
mix ing</w>
line ages</w>
kaz oku</w>
k oshi</w>
k oki</w>
jud ging</w>
iz a</w>
ichi jo</w>
i hon</w>
high way</w>
go al</w>
gl ut
gl ass</w>
f inger</w>
f eared</w>
f at</w>
excep tional</w>
et e</w>
ess ive</w>
ep h
el d
deep- fried</w>
d ust</w>
conn ect</w>
compil ing</w>
ch em
certific ate</w>
certi fied</w>
calligrap her</w>
bu- sho</w>
be er</w>
aut om
aku chi</w>
ad ium</w>
absol ute</w>
Yoshin ao</w>
Tak ashi</w>
T ang
St one</w>
Shok oku-ji</w>
Shi bu
Pro gr
O hashi</w>
Nag ak
NAGA O</w>
Min ato</w>
K ido</w>
J id
Ik ed
I ll
H aj
Gy oki</w>
Goz oku</w>
Fu chu</w>
Ed o-
Earth quake</w>
C all
Azuchi- jo</w>
A DACHI</w>
160 1</w>
y ukai</w>
where upon</w>
w oven</w>
w er</w>
ure -
um aru</w>
u wa</w>
tur moil</w>
short ly</w>
sho jo</w>
sen ti
repor tedly</w>
reas onable</w>
ran ging</w>
prepar ing</w>
pregn ant</w>
pre war</w>
plac ement</w>
p uku-ji</w>
p t</w>
ot sub
on ten</w>
mu d</w>
m asu</w>
li mit
l att
k ake</w>
is hiro</w>
in fl
he ar</w>
g a
earth quake</w>
distinc tive</w>
dial ect</w>
custom ary</w>
cro ps</w>
coun selor</w>
clou ds</w>
chec k</w>
bo ats</w>
b ows</w>
b arrier</w>
aw ari</w>
aw ak
av il
at -
astron omy</w>
alleg i
Yur yaku</w>
Yoshi suke</w>
Y ang
Tam ura</w>
Tak ing</w>
T aku
Sus ano</w>
Shi z
Rok uro</w>
Produc tion</w>
NO UCHI</w>
Matsu e</w>
MURA TA</w>
Loc ated</w>
Ko i</w>
Kit ayama</w>
KIYO HARA</w>
Iw anami</w>
In sei</w>
HA SHIMOTO</w>
Fam ous</w>
Chik ugo</w>
Budd has</w>
Bet ween</w>
A bur
18 0</w>
yo do</w>
ud aka</w>
symp ath
su i-
stor e
star ring</w>
sop hi
sn ake</w>
shin ko</w>
saf e</w>
s a
requ i
re igned</w>
pro pri
on wards</w>
on a</w>
north- south</w>
multi -
kar a
kan zashi</w>
jud ged</w>
iz aemon</w>
init iated</w>
in n</w>
fi le</w>
exp ed
ensemb le</w>
eng ine
en sion</w>
ek che</w>
ek ane</w>
ear n
dang er</w>
corpor ation</w>
cor respond</w>
co ol
civil ization</w>
b ayashi</w>
as u-
as ide</w>
aku- in</w>
adop tive</w>
Yoshi toshi</w>
YO KO
W ad
Tom omasa</w>
Tai sei</w>
Sun pu</w>
Sei ryo
SHI BU
SE RI
S amur
Ryo o</w>
Pa ekche</w>
Nak am
N og
Kum ano-
Kok ug
Kei shi</w>
Kei o</w>
I etsugu</w>
I enobu</w>
H ere</w>
Ak echi</w>
197 7</w>
yag ura</w>
tsu ho</w>
tr ay</w>
t led</w>
su ji</w>
south west</w>
sett lements</w>
sanc tion</w>
r ub
patron age</w>
os aki</w>
nov el
nom inal</w>
man hood</w>
l in</w>
illustr ations</w>
him aro</w>
guid ance</w>
fe atured</w>
f ence</w>
eb all</w>
e- dera</w>
dro p</w>
deri ves</w>
continu ing</w>
conf ection
con cer
comment aries</w>
cat ch</w>
bl oom</w>
besieg ed</w>
bal ance</w>
atsu mi</w>
Z hou</w>
V ow</w>
Uta emon</w>
To sho-
TA KI
Shi jo-
San jo-dori</w>
Sah yoe</w>
S oku
R om
O chi</w>
O NO
NI WA</w>
NI N</w>
Min eyama</w>
Masam ori</w>
Kyo -
Kot oku</w>
Ki ri
Kat sun
Kam it
Kam in
I tsu
His amitsu</w>
Hachim angu</w>
G reg
F lower</w>
Ek iben</w>
E b
C re
5 9
118 1</w>
v ess
tri ang
tournam ent</w>
ten s</w>
t end</w>
s po
ro pe</w>
ris on</w>
res ign</w>
privil ege</w>
ok oji</w>
ok ata</w>
o hime</w>
necess ity</w>
n ose</w>
mo ti
messeng ers</w>
mak er</w>
m im
j odai</w>
in land</w>
imp ressed</w>
h ers</w>
gr aves</w>
gr ap
flo ating</w>
extinc t</w>
ext ant</w>
exerc ise</w>
ess ence</w>
eld erly</w>
ear ning</w>
dist ant</w>
depos ited</w>
d ani</w>
cy lind
bureaucr at</w>
bath ing</w>
b ori</w>
az uchi</w>
autonom y</w>
anc ement</w>
adul ts</w>
act ress</w>
ab an</w>
Yoshi hide</w>
YAMA UCHI</w>
Tsur ugi</w>
Tim es</w>
Tat sun
Tan aka</w>
Tamur amaro</w>
Takat oki</w>
Sak on</w>
SA E
S culp
Prin ci
On sen</w>
Nan ba</w>
Mit sub
Kog o</w>
Katsur a-gawa</w>
KA JI
K ent
Ir uka</w>
Ik ar
I etsuna</w>
Hok o-ji</w>
Harun obu</w>
H u
Gok enin</w>
GA KI</w>
G AM
En chin</w>
Cl ub</w>
Ch air
C al
2 50</w>
y cl
wor ried</w>
was abi</w>
wa shed</w>
vess els</w>
u sh
tig h
thre at
t ent
sub- temple</w>
ste el</w>
sou theast</w>
sl iced</w>
sh opping</w>
sci entific</w>
s li
restor ing</w>
remov ing</w>
qu ant
peas ant</w>
pat ron</w>
oz an</w>
or ian</w>
on oe</w>
on kai</w>
ol ished</w>
o- gun</w>
mist ake</w>
meas uring</w>
m yaku</w>
m echan
lev els</w>
lean ings</w>
kos ode</w>
kam aboko</w>
im usubi</w>
ik iyo</w>
id s</w>
hat to</w>
grat itude</w>
gr ud
gor ge
go shi</w>
fre edom</w>
fl owing</w>
fit tings</w>
fab rics</w>
eth n
enjoy ing</w>
ei shi</w>
dy eing</w>
deterior ated</w>
descend ent</w>
d ying</w>
cur ved</w>
crimin als</w>
chron ological</w>
att a</w>
among st</w>
ali as</w>
Yoshi katsu</w>
Yoshi kata</w>
Yasum ori</w>
W a
Uj it
Tsuk asa</w>
Tak atsuk
T AMURA</w>
Shin no</w>
Sen ke</w>
Sat ake</w>
San zan</w>
S el
S and
Ru le</w>
Re form</w>
Pro g
Partic ularly</w>
NAKA TOMI</w>
Mon mu</w>
Mar o</w>
M aki</w>
King doms</w>
Kan ei</w>
KOBA YAKAWA</w>
KA ZA
K endo</w>
Iwashim izu</w>
I NU
G ou
Fu jin
Call igrap
Buil t</w>
At t
At sum
Ap pro
196 1</w>
186 0</w>
157 5</w>
z hou</w>
yo g
un changed</w>
th ly</w>
termin ated</w>
tast es</w>
t ac
sword play</w>
surv ive</w>
sm an</w>
sal ted</w>
s an-
rin -ji</w>
reco ver</w>
quant ity</w>
po uring</w>
peculi ar</w>
modi fied</w>
mik oshi</w>
mean time</w>
lat est</w>
kn owing</w>
ju mp
jin ya</w>
in ox</w>
ig ation</w>
hon -
h ana</w>
for em
fo x</w>
fif teen</w>
fai th
f ly</w>
ext ends</w>
explo its</w>
ep p
electri fied</w>
el abor
ed ed</w>
earli est</w>
dy ed</w>
dro ve</w>
dismis sal</w>
dev ast
conduc ting</w>
common ers</w>
cal ls</w>
be aten</w>
b at
b ad
b act
az ana</w>
aw a-jo</w>
any one</w>
ans ai</w>
an x
ad vert
ad mir
Yoshit suna</w>
W e
Usu ally</w>
U kai</w>
To sh
Ten ka</w>
Tak ed
Tak ako</w>
TO MI
St ories</w>
Shiten no</w>
SHI MI
SERI ZAWA</w>
Pass eng
Mov ie</w>
L angu
Kok aku</w>
Kazun omiya</w>
Kaw ab
Karas uma-
Ju ei</w>
Hok e-kyo</w>
HIRA TA</w>
Goz en</w>
Gog ur
Cro s
Cor ps</w>
Archi tec
4 0
z z
weak ened</w>
v ig
us an</w>
tro upe</w>
th i
st range</w>
sol id</w>
sm ell</w>
six ty-
shing ura</w>
shar p</w>
sh oshi
res sing</w>
r aku
qui et</w>
pro ve</w>
particip ation</w>
pal anqu
pain t</w>
pag odas</w>
other wise</w>
ok uden</w>
oc k
ob an
n y</w>
m ol
m ei-
koj itsu</w>
k aku-
ju in</w>
invol ving</w>
instruc ted</w>
inser ted</w>
ic ked</w>
hai kai</w>
func tioned</w>
exp ect
every one</w>
es h</w>
em et
el ig
eigh t-
dang erous</w>
d owager</w>
d awn</w>
cons ist</w>
conf er
car eful</w>
bu ke</w>
bo arding</w>
b or</w>
b ime</w>
auspic ious</w>
as i-
an ushi</w>
after ward</w>
add ressed</w>
adap ted</w>
abus ame</w>
a hi</w>
Yon ez
Y aku
Ter umoto</w>
Tai ko</w>
T ab
Sum iy
Stat ues</w>
Shi j
Sh odo</w>
S oshi</w>
S on</w>
Nobu tora</w>
Nin myo</w>
N evertheless</w>
My thology</w>
MIYA KE</w>
M iwa</w>
Le gend</w>
Kor in</w>
I N
Hon shu</w>
Gogur yeo</w>
Do yo</w>
Dai bu</w>
Coun try</w>
Commission er</w>
A inu</w>
thirty- one</w>
stri ke</w>
st om
secl usion</w>
s ato</w>
remark able</w>
pot ato</w>
pos itive</w>
po etic</w>
mon ster</w>
ligh ts</w>
ke shu</w>
k ado</w>
intro duce</w>
if f</w>
ic ted</w>
i hara</w>
i hai</w>
i ents</w>
ho sts</w>
ho shi</w>
hi ki</w>
f ill</w>
ev ity</w>
ev e</w>
er ity</w>
el se</w>
du stry</w>
dram atic</w>
disemb ow
dest ination</w>
commemor ate</w>
chan ted</w>
benef its</w>
at tire</w>
as sumption</w>
am o-jinja</w>
allegi ance</w>
aj u</w>
ag aru</w>
acknowled ged</w>
abbrevi ation</w>
a- awase</w>
Zen ji</w>
Yum iya</w>
Y oun
Shor oku
Sag a-
Sad anobu</w>
SAE KI</w>
Res igned</w>
RA DA</w>
R ek
N uk
N izaemon</w>
Mur ashige</w>
Min at
Michi chika</w>
Kuw ana</w>
Kok um
Kiz ugawa</w>
KU MA
KAZA NIN</w>
In dustry</w>
Ill ustr
I V</w>
Greg orian</w>
G uk
As omi</w>
193 9</w>
13 36</w>
117 9</w>
um p</w>
tri als</w>
ten ed</w>
t ant</w>
st ro
sk et
short age</w>
shin shi</w>
sh onin</w>
sev en-
s ively</w>
requ ires</w>
regul ated</w>
re sumed</w>
r yok
pro stitute</w>
p a</w>
ot ei</w>
or acle</w>
oc curr
ma ximum</w>
m aid</w>
leg ally</w>
l ov
katsu don</w>
hum ans</w>
h oll
grud ge</w>
go od
fish er
f ond</w>
ex act</w>
direc tors</w>
dev ised</w>
def end</w>
cust ody</w>
co ol</w>
chur ch</w>
ban ks</w>
ast ery</w>
as aburo</w>
al istic</w>
ai- cho</w>
adm ired</w>
acc ident</w>
Y et</w>
Trad itional</w>
Tak ada</w>
Sp ain</w>
Shinsen -gumi</w>
Shin den</w>
Sh obo</w>
Rokuj izo</w>
O yama</w>
Ny udo</w>
NA N
Moto hiro</w>
Miz uno</w>
M erit</w>
M an</w>
M achi
Kas ag
K aya</w>
In formation</w>
Hok usai</w>
Han shin</w>
GA I</w>
Ex c
Bun ka</w>
Al liance</w>
Aj ari</w>
A ges</w>
159 5</w>
x il
ur ation</w>
un i-jinja</w>
t subo</w>
ste ep</w>
stand point</w>
sophi stic
sm en</w>
set tle</w>
s h</w>
s cor
s ashimi</w>
rem ote</w>
qu est</w>
occur s</w>
o ods</w>
mai den</w>
mag ic</w>
m oku
lower- ranking</w>
legit im
j ishi</w>
interv ention</w>
hos pital</w>
h yoe</w>
h es
glut inous</w>
gi ant</w>
gen u
gak ari</w>
g inger</w>
fort ress</w>
figh ts</w>
f illing</w>
expl ain</w>
er o</w>
epis odes</w>
elec tr
el eph
el ders</w>
depend ent</w>
da m</w>
d ating</w>
con stitu
chest n
car efully</w>
bran ched</w>
be ha
b ere
assad or</w>
all ow
ak ki</w>
ai ko</w>
advis ed</w>
a ok
Yasum aro</w>
Tak en
TO DA</w>
T it
T ah
T ada</w>
Shi zuka</w>
Sh uri</w>
SHI NO
S ei</w>
Ok it
Og ai</w>
O z
Nari hira</w>
N ext</w>
N ab
Mor o
Michi ie</w>
Kyo ho</w>
KO NO</w>
KAN SAI</w>
It agaki</w>
Ichin otani</w>
I chi</w>
Han n
H agi</w>
Goyo zei</w>
Gou da</w>
Gir ls</w>
Des ign
Budd ha
Bei jing</w>
A ir</w>
A ZAI</w>
. D.</w>
w arm
v end
un ion</w>
u yama</w>
tr ag
ton sure</w>
t etsu</w>
sub way</w>
sub mit</w>
sm ooth
shi ft</w>
sequ ence</w>
sculp tor</w>
ri d</w>
re pl
prosper ed</w>
pro mp
pract icing</w>
ped d
oshi ge</w>
onom a</w>
on ushi</w>
on ori</w>
ob taining</w>
o hashi</w>
mel ody</w>
man if
man eu
k aku
iy ama-
issu ance</w>
ish es</w>
ir atsume</w>
inv ade</w>
inter rup
inn omiya</w>
histor ian</w>
him emiko</w>
hi red</w>
hi -
guarante ed</w>
g akushi</w>
fir m</w>
fin ish</w>
f ue</w>
ex agg
enti rely</w>
depar ting</w>
coun tered</w>
consist ent</w>
be headed</w>
az umi</w>
associ ate</w>
aristocr atic</w>
appe aled</w>
ap por
am oto-
am ine</w>
adop ting</w>
Yamat ai</w>
Y O</w>
Wak an</w>
V al
St e
Shin pei</w>
SHIMI ZU</w>
S ob
Rik u
O i</w>
Nar ichika</w>
N om
Moun tains</w>
Mor e</w>
He ight</w>
Hay ato</w>
H ell</w>
ENO MOTO</w>
Con spiracy</w>
Chichi bu</w>
B ugyo</w>
A ir
2 9
198 3</w>
198 2</w>
156 8</w>
z ure</w>
wor thy</w>
trans cribed</w>
tor in
t age</w>
sur prise</w>
ses ame</w>
sec rets</w>
s oku
s in</w>
s ation</w>
ri val</w>
resemb les</w>
reg ency</w>
re duce</w>
prot est</w>
organ izing</w>
on o
on ic</w>
on es
myo ji</w>
mon arch</w>
mat s</w>
m atsu
lod ging</w>
liter ati</w>
le f
k uji</w>
j iz
ident ical</w>
hot el</w>
hand writing</w>
fore father</w>
for ty</w>
fac tions</w>
ess ay</w>
er am
emet ery</w>
el ment</w>
eb i</w>
e els</w>
disembow elment</w>
dis eases</w>
di r
deb t</w>
cut let</w>
consid erably</w>
compromis e</w>
comb ining</w>
com ment</w>
co ok</w>
chec king</w>
bere aved</w>
benef it</w>
beg ins</w>
be ach</w>
b ru
b one</w>
apprec iation</w>
app o</w>
am entary</w>
al izing</w>
acc el
Yodo- dono</w>
Yam ad
Tw ent
Toshin ari</w>
Tom iko</w>
Tok ai-do</w>
Ten p
Tai suke</w>
Tada hira</w>
TAKA SHINA</w>
Suz uki</w>
Su e
S anda</w>
S al
Nishi kyo</w>
Nag ar
Kon par
Kik uchi</w>
Kan jo</w>
Kam akura-
KU TSUKI</w>
K odai
Jo yo</w>
J is
J i</w>
I son
Hok an</w>
He isei</w>
Han iwa</w>
H ous
Go hojo</w>
Fuku yama</w>
Az echi</w>
At ago</w>
Add ress</w>
ARA I</w>
AM I
19 17</w>
159 8</w>
157 0</w>
xil iary</w>
wr apping</w>
vehi cle</w>
v eri
us eful</w>
umb rel
to il
theat ers</w>
ten -
tab let</w>
st ance</w>
sophistic ated</w>
simultan eously</w>
shi so</w>
sh on
righ t-
rel ev
rein forced</w>
reg ards</w>
re appointed</w>
r aces</w>
proc essing</w>
pro te
plan ting</w>
palanqu in</w>
ord ering</w>
oku- fu</w>
oj iro</w>
obu e</w>
ob st
o on</w>
north west</w>
no tation</w>
n am</w>
mor al</w>
mon etary</w>
mir in</w>
m ic
long evity</w>
l or
kai sho</w>
kai san</w>
is ato</w>
inten tionally</w>
inaugur ation</w>
in osuke</w>
imp lies</w>
im oku</w>
ik ai</w>
i shin
hi to
han g</w>
fe et</w>
f eit</w>
f air
er-in- chief</w>
en abled</w>
desc ent</w>
des ired</w>
del ib
d ei
coast al</w>
bur n</w>
buk uro</w>
bri l
aw ashi</w>
at eral</w>
ass aul
as shi</w>
arti ficial</w>
alco hol
ac commod
a sha</w>
Yorit ada</w>
YAMA ZAKI</w>
Wi thin</w>
W el
Vi ew
Ume da</w>
Ten mei</w>
Tadak uni</w>
TA DA</w>
Sho ichii</w>
SHI M
S appor
S ach
Pub lishing</w>
Priv y</w>
O ban</w>
Ne o-Confucianism</w>
L ove</w>
Kiz okuin</w>
Kaw ag
KOBA YASHI</w>
J uro</w>
Ishi yam
Hy aku
Hon den</w>
His at
H oshi</w>
H and
H O</w>
F i
Chu shingura</w>
Bas ically</w>
Ar ticles</w>
A KI
195 8</w>
193 8</w>
16 14</w>
14 67</w>
z u-
whe el</w>
was h</w>
w ears</w>
w aves</w>
v ast</w>
upris ings</w>
um onin</w>
tim ber</w>
the astern</w>
t ful</w>
summon ed</w>
strength ening</w>
she ets</w>
sh a-
ro ws</w>
represent atives</w>
real ize</w>
re wards</w>
re clamation</w>
re assigned</w>
ou chi-
ot o
origin ating</w>
organ ize</w>
oku shi</w>
ok or
ographi c</w>
og an</w>
n ingyo</w>
man ga</w>
m ori</w>
li p
k etsu</w>
ir yo</w>
ind igen
histor ians</w>
ha ya</w>
h et
g as
g able</w>
fu suma</w>
f uda</w>
f ellow</w>
f ame</w>
ext ernal</w>
est er</w>
equ ally</w>
eng ineering</w>
emb ro
dr ying</w>
dog s</w>
contrad ic
commission ed</w>
co w</w>
cler ical</w>
ch un
ch ancellor</w>
bus y</w>
b right</w>
b ly</w>
b ill</w>
az u-
az o</w>
avil ion</w>
ashin a</w>
ashig aru</w>
ashi r
all -
ai s
accumul ated</w>
ac counts</w>
ab ushi</w>
Tsukig ase</w>
Tsu chi
Tok uko</w>
Toba- Fushimi</w>
Tenno ji</w>
Tar uhito</w>
Sum a</w>
Sh ur
Sei ka</w>
Se it
San ada</w>
S er
Prefec tures</w>
New sp
Mur yo
Min oru</w>
Matsu moto</w>
MOTO ORI</w>
Kin ug
KO N
J aku
In stead</w>
Hi b
G ods</w>
G leanings</w>
F ood</w>
E lders</w>
Dai jin</w>
B it
Ar ch
z odiac</w>
ynast ic</w>
wh oles
vert ical</w>
thro w</w>
th read</w>
t ask</w>
sur u</w>
step ped</w>
spons ored</w>
scrip tions</w>
s quar
rec eption</w>
r yu
produc es</w>
pri ority</w>
pl ane</w>
p ack
os etsu</w>
os ak
orig ami</w>
ok en</w>
og u</w>
of uku</w>
mon uments</w>
mit ting</w>
mem ory</w>
mem or
medi ate</w>
mat ch
m asa</w>
m achi
kot oba</w>
kaz e</w>
k uri</w>
k ub
k ers</w>
itsu -
is ans</w>
ir in</w>
in stitute</w>
ill ion</w>
id ity</w>
hor sem
h ob
grand mother</w>
gent le</w>
fing ers</w>
ep ic</w>
en e</w>
ei rei</w>
e al</w>
don ations</w>
dist ribu
cri mes</w>
confin ement</w>
clud e</w>
cl ique</w>
cho ose</w>
cand y</w>
brother -in-law</w>
brew ery</w>
b od
ar en</w>
ad ise</w>
acqu ire</w>
ac e
Tr ains</w>
Th anks</w>
Sum o</w>
St aff</w>
Sot oku-fu</w>
Se is
Sappor o</w>
S oba</w>
S l
R itsu</w>
Organ ization</w>
Okin a</w>
Ok ur
O ishi</w>
Nyo go</w>
Nishi- Maizuru</w>
Nakatsuk as
ND L</w>
N ame</w>
Mon toku</w>
Matsu i</w>
M en</w>
L oop</w>
Kor iyama</w>
Kor etada</w>
Kok us
Kok ura</w>
Kok o</w>
Ken nyo</w>
Hon maru</w>
Fre ight</w>
E n</w>
Consid ering</w>
Con stitutional</w>
Class ics</w>
C op
Bo x
AMA TSU</w>
8 .
- gu</w>
y on
we igh
trans mission</w>
thre at</w>
t sumi</w>
t ons</w>
surround ings</w>
super intendent</w>
sev ered</w>
sec ured</w>
samur ais</w>
ro e</w>
ris k</w>
rel uc
reg ularly</w>
reg ained</w>
red- light</w>
reconc iliation</w>
question ed</w>
pro se</w>
prec ious</w>
par ishi
ot oba</w>
os is</w>
on aga</w>
ocr acy</w>
nob ody</w>
ne utr
myo den</w>
my ths</w>
mobil ized</w>
lay ered</w>
k ebiishi</w>
ji- cho</w>
is hima</w>
her o</w>
h o-ji</w>
h achim
gradu ation</w>
gl ue</w>
em atic</w>
e- kata</w>
dr af
discus sions</w>
d an-
co ated</w>
cler k</w>
busin ess
borro wed</w>
b ai</w>
ay aki</w>
aw ate</w>
ann ex
accur ate</w>
abol ishment</w>
U ji
U hyoe</w>
Techn ical</w>
Shoshi dai</w>
Sh ang
S oji</w>
S ato</w>
Reg ional</w>
Qu ar
Ot sugu</w>
Kon -do</w>
Koj iro</w>
Kod ama</w>
Kaz umasa</w>
IS B
He alth</w>
G un</w>
Fin ally</w>
Ch osen</w>
Ben kan</w>
0- koku</w>
y ed</w>
wat ching</w>
wai st</w>
w est
ur able</w>
um yo</w>
um -
uk awa</w>
troub les</w>
tic ally</w>
thorough ly</w>
t ends</w>
sol ely</w>
sm ooth</w>
se ki
san kyoku</w>
rul ers</w>
ri ki</w>
rev ive</w>
rev ered</w>
rai l</w>
p ap
oc ean</w>
observ ation</w>
n ishiki</w>
n arro
magaz ines</w>
lit .</w>
li b
land ed</w>
kil n</w>
k iri</w>
k ad
in tim
il legal</w>
i age</w>
ha jime</w>
h s</w>
gun ji</w>
gradu ates</w>
gen eric</w>
g ashira</w>
fre sh
fr ast
frast ruc
for ged</w>
ex pel</w>
ep po</w>
en sho</w>
e ks</w>
dai myo
cul tures</w>
c in
c end
bril li
bl ings</w>
betr ayal</w>
b on-
b aked</w>
att ending</w>
at oes</w>
ast ro
ang aku</w>
all otted</w>
ak e-
ak abe</w>
ai- dokoro</w>
accep ting</w>
abol ish</w>
Yuki ie</w>
YAMA GUCHI</w>
Umay ado</w>
Uj itsuna</w>
T ayu</w>
Son pi</w>
San mon</w>
SHI MO
SAKU MA</w>
S ol
S ign
S ai</w>
R oshi
R an</w>
Qu een</w>
Nor izane</w>
Nin igi</w>
N od
N asu</w>
Mo on</w>
Le ague</w>
Kur ama-
Kun iyoshi</w>
Kis o</w>
Jun nin</w>
Jitsu roku</w>
J ot
Hoz onkai</w>
Hir ano</w>
Ham amatsu</w>
Hakus eki</w>
FUKU ZAWA</w>
Ch ogen</w>
Ch erry</w>
An a
Am ity</w>
196 2</w>
z ume</w>
war time</w>
volun te
volun t
vi su
v ul
trac es</w>
torin oko</w>
te a-
t ub
sword smanship</w>
sugg esting</w>
sugg est
stri ps</w>
st uck</w>
spec ter</w>
skir t</w>
signific ance</w>
rin g
respon ded</w>
re w
r ag
p apers</w>
oy a-
os ada</w>
ones el
onesel f</w>
mid night</w>
magn ific
kun inomiyatsuko</w>
j e
iz umi</w>
is ode</w>
integr ation</w>
in- waiting</w>
in ata</w>
in ao</w>
immig rants</w>
ic hig
h yak
g a-
fuk u
fir mly</w>
fic tional</w>
ez umi</w>
extrem e</w>
excep tions</w>
en- faced</w>
en sure</w>
employ ees</w>
em o
e ath</w>
depend s</w>
def ensive</w>
d emon</w>
coun tr
chi ef
ch ased</w>
carri es</w>
as en</w>
ar di
a e-
Yonez awa</w>
Yamat oji</w>
Y og
Tsuk uba</w>
Tak anobu</w>
Tadak atsu</w>
Tad ayuki</w>
TO DO</w>
Sh um
Sak ai
OGIMA CHI
OGIMACHI SANJO</w>
O r</w>
O den</w>
Mot ochika</w>
Mi i-dera</w>
Mak oto</w>
MATSU O</w>
MA SU
Kaj uji</w>
Kai shu</w>
K ut
K ai-
Je sus</w>
Iw at
Ik ai</w>
ISB N</w>
H oll
G id
Fuj i
Dom ains</w>
Bun myaku</w>
B ack
Am atsu
Aki ie</w>
A ob
2 5th</w>
y ar
we l</w>
veget able</w>
ut an</w>
uro -
unc tion</w>
un stable</w>
um en</w>
tsu ki</w>
ti l
ten no</w>
t asks</w>
sy ch
stand ards</w>
st up
st am
sp orts</w>
shor ter</w>
sho shi</w>
sh o-in</w>
sar ugaku</w>
restric tions</w>
rep lied</w>
reco very</w>
re lied</w>
re ds</w>
rad es</w>
qual ified</w>
qu it</w>
public ly</w>
protec tive</w>
ph ase</w>
p uts</w>
o ath</w>
mov es</w>
mit age</w>
mir ac
men u</w>
ligh t
legitim acy</w>
la ugh
k u-
incorpor ating</w>
identi fy</w>
ian g</w>
hi n</w>
gu ild</w>
grand children</w>
g ek
fur ious</w>
full- scale</w>
for given</w>
exten sive</w>
ext end</w>
expres sing</w>
exp elling</w>
exemp tion</w>
ethn ic</w>
emp ty</w>
elim inate</w>
drin ks</w>
divor ced</w>
differ ently</w>
dec isions</w>
concub ines</w>
compet ed</w>
command er-in-chief</w>
cloth s</w>
candid ates</w>
bos atsu</w>
ban ashi</w>
b rings</w>
am on</w>
air o</w>
ai ki</w>
advant ageous</w>
Z uryo</w>
Z a
Yam amoto</w>
Uji- gawa</w>
Uj iyasu</w>
Taka akira</w>
T su</w>
T aj
Shinp achi</w>
Sek ke</w>
San z
Progr am</w>
P hilosop
OKA MOTO</w>
Nar amaro</w>
Nagat oshi</w>
Mongol ian</w>
Kasuga- taisha</w>
Kashiw agi</w>
Kam ey
Kab ane</w>
I go</w>
Hyak ki</w>
Hong w
Ho shu</w>
G od
Fuku hara</w>
F u</w>
Econom ics</w>
D or
D E</w>
Ch ancellor</w>
Ban do</w>
158 4</w>
yori ai</w>
val ley</w>
utsu ki</w>
us able</w>
um ns</w>
tut el
ti fied</w>
ten mon</w>
sum ably</w>
su ki</w>
star s</w>
soy bean</w>
sl ices</w>
six teenth</w>
sh ot
s ail
ro g
ref uge</w>
pub lish
prev ented</w>
por tions</w>
pick les</w>
p ast
ot ak
my th
mom ent
mist ress</w>
mist ak
locomo tive</w>
lish ments</w>
le g</w>
it am
incar nation</w>
in er</w>
il ies</w>
ig inu</w>
head man</w>
har a-
gorge ous</w>
ge igi</w>
form at</w>
fer tili
est one</w>
en tioned</w>
elig ible</w>
el ding</w>
ed icts</w>
e- zukuri</w>
e- gun</w>
discipl ine</w>
dem ands</w>
dan jiri</w>
d en-
d ayu</w>
custom er</w>
cros s
compreh ensive</w>
comp ass
col leg
cast ell
bot tle</w>
bl o
big ger</w>
b ic
b ay</w>
az ed</w>
au xiliary</w>
ain ts</w>
ag ers</w>
adv ancing</w>
ac company</w>
Zen shu</w>
Yoshik azu</w>
U w
U g
U RA
Tsuk uy
Ten kai</w>
Takat sune</w>
Taka hashi</w>
Star ting</w>
St or
Shos oin</w>
Sann omiya</w>
Sanj us
S oshi
S andai</w>
Rem ains</w>
Relig ious</w>
Reg ulations</w>
R usu
N ing
Mun etaka</w>
Miy afuku</w>
Masat sune</w>
Mas anaga</w>
M il
L ate</w>
Ken ky
Kan eyoshi</w>
K usu
K obu</w>
K n
Jim yoin</w>
J on
J iy
In spec
Hokke- kyo</w>
Hit otsub
Hid esato</w>
Har ut
Haj ime</w>
H achiro</w>
G ion-
Fuj itsubo</w>
Dre am</w>
Daig ak
19 16</w>
158 6</w>
12 00</w>
1. 8</w>
z one</w>
yu jo</w>
yu an</w>
year- old</w>
vari ations</w>
v eng
ut ei</w>
us ur
tw enti
symbol ic</w>
sur ed</w>
supp lies</w>
subjug ate</w>
stri king</w>
smooth ly</w>
sk ill
sh an</w>
s ai-
resid ing</w>
rep aired</w>
rem emb
reg isters</w>
re str
prov oked</w>
pre val
pl otted</w>
pic k</w>
pen et
p ip
ong side</w>
on o-
og y</w>
od d</w>
oc t
min i
m asks</w>
lay ers</w>
l over</w>
ju- kyo</w>
j uk
ivers al</w>
it ting</w>
is ms</w>
im o</w>
ik en</w>
gl ory</w>
g ong
g as</w>
et ernal</w>
emp resses</w>
elim inated</w>
dem es
delic ate</w>
credi t</w>
col umn</w>
c os
c arriage</w>
bun ko</w>
brid ges</w>
ban k
b ar</w>
an tic
ak asa</w>
ai son</w>
ag ana</w>
Yuk inari</w>
Wel fare</w>
W inter</w>
U CHI
Tw el
Trans f
Tom omori</w>
Tanb abashi</w>
Tak afusa</w>
TO MO</w>
T ofuk
SE N
Pain tings</w>
Onmyo ji</w>
Me ishin</w>
M ait
Kog en</w>
Kiyo hara</w>
Karasuma- dori</w>
KA RA
KA BE</w>
K oka</w>
Jog an</w>
J oko</w>
Hid emasa</w>
Hachi jo</w>
Guk ansho</w>
Gen sho</w>
Gen ealog
GAM O</w>
En vir
E ig
Con quest</w>
Chi yo
Chi on-in</w>
B y
B uke</w>
158 7</w>
100 ,000</w>
10 3</w>
tok onoma</w>
tal ks</w>
stri p</w>
st opping</w>
st al
spe ak</w>
some what</w>
sl ow
sh oben</w>
sch eme</w>
s ession</w>
s ash</w>
ry u-
resc ue</w>
res ort</w>
rel ics</w>
rebel led</w>
pur sue</w>
par king</w>
out line</w>
ot y
or omo</w>
oper ative</w>
om ai</w>
obe y</w>
o tic</w>
n u
mat ure</w>
man ned</w>
ition ary</w>
isol ated</w>
indigen ous</w>
in ev
if uk
i uri</w>
ho sted</w>
hand ic
h aps</w>
great- grandson</w>
f old</w>
ex port</w>
dri ver</w>
di min
defe ating</w>
craf ts</w>
consolid ated</w>
compet e</w>
cat al
cap able</w>
betr ayed</w>
ascet icism</w>
arti facts</w>
arg uments</w>
an ohara</w>
an o-jinja</w>
all y-
alcohol ic</w>
ak a-
ai des</w>
ach in
Yoshi kiyo</w>
Yoshi ki</w>
Yas uko</w>
Y o</w>
Tan e
Tak ao</w>
Tak anori</w>
Sm all</w>
Shiten no-ji</w>
Shig eru</w>
Sci ences</w>
Sanjus ang
Re al
Oyam azaki</w>
Ok agami</w>
Nakatsuk asa</w>
Nak amura</w>
Nag aya</w>
NOMI KADO</w>
Mot ofusa</w>
M atsu</w>
M am
L on
L ight</w>
Kus akabe</w>
Kor eyoshi</w>
Ken nin
Kan in</w>
Kan a</w>
Kam o-jinja</w>
Kam o-
Kai dan</w>
KO SE</w>
K yor
K imono</w>
J our
ITA GAKI</w>
I ro
I ZUMI</w>
Hir ata</w>
F ri
DO I</w>
Ch u</w>
Ch em
Buil dings</w>
Bl ue</w>
A SU
A .D.</w>
158 3</w>
158 0</w>
117 7</w>
116 0</w>
115 9</w>
00 ,000</w>
z ab
ware houses</w>
ul es</w>
uchi- jinja</w>
text books</w>
t ayu</w>
sp end</w>
si blings</w>
shi p
shar p
sel dom</w>
requ ests</w>
relev ant</w>
re pose</w>
post war</w>
n aked</w>
mis sions</w>
mat o</w>
master pieces</w>
mar ine</w>
m yo-
le ap</w>
kan mon</w>
kan jin</w>
kag ami</w>
jo ji</w>
j am</w>
interv als</w>
increas es</w>
in spired</w>
ic y</w>
her b
gun nery</w>
gradu ate</w>
genu ine</w>
forc ing</w>
for fe
def ended</w>
dec lining</w>
de ad
d y</w>
conserv ative</w>
concentr ation</w>
comm odate</w>
coll ateral</w>
coll ar</w>
cer tain
car to
bit ter</w>
bas es</w>
b ility</w>
assemb led</w>
ar bit
appl ying</w>
am ag
ag encies</w>
ac commodate</w>
a- ryu</w>
Yas hima</w>
Tao ism</w>
Sil ver</w>
Shig eyoshi</w>
Sh ob
Sad afusa</w>
SH U
S ay
Pri or</w>
Passeng er</w>
P or
O u</w>
O GAWA</w>
Nor ito</w>
Newsp aper</w>
Neg or
Naga hide</w>
N int
Mak ibi</w>
MI YA</w>
M other</w>
M ad
Kyo bashi</w>
Kog yo</w>
Kam i
KO NISHI</w>
KAJI WARA</w>
Iw ao</w>
Ipp en</w>
Ichi kawa</w>
HA T
HA NA
H en</w>
For estry</w>
En nin</w>
Design ated</w>
Comp ared</w>
Chik ur
Chik afusa</w>
Ch us
Bisham onten</w>
Bi g</w>
Appro ximately</w>
A ik
160 3</w>
- up</w>
w in
w aki</w>
ur iya</w>
ur ged</w>
tour ism</w>
to co
toco l</w>
tax is</w>
t ango</w>
st all</w>
soy beans</w>
sing le-
seki- ji</w>
sec tor</w>
ri ver
ri ots</w>
reg ain</w>
ran g
r s</w>
present ing</w>
preced ent</w>
pp o</w>
post ure</w>
op pose</w>
obe di
o- ryu</w>
no table</w>
min ing</w>
mik an</w>
medi ately</w>
master piece</w>
mar ch</w>
lic en
l iv
kon bu</w>
ko en</w>
high- quality</w>
h atsu
h ama</w>
grad es</w>
frastruc ture</w>
fortun es</w>
fe ast</w>
exped itionary</w>
ess ions</w>
ess entially</w>
eng o</w>
eigh teen</w>
east s</w>
dis man
dep ict</w>
dec ap
credi bility</w>
correspon ded</w>
com rades</w>
col le
ch ugu</w>
c at</w>
c ade</w>
bu do</w>
bo ok
b it</w>
ar r
amoun ts</w>
al ongside</w>
ak ai</w>
ag ree</w>
ag at
a- bugyo</w>
ZU KA</w>
Viet nam</w>
Tok iw
Tendai- zasu</w>
Ten ryu-ji</w>
Tak et
Tad atsugu</w>
St op</w>
Shu ho</w>
Sho ji</w>
Sh ar
Sel f-
Sadat oki</w>
SE KI</w>
S eri
Portug u
O to</w>
N ine</w>
Mot ozane</w>
Miy uki</w>
M en
Kum ag
Kan no</w>
KAWA KAMI</w>
K ato</w>
Im mediately</w>
HAT TORI</w>
H i</w>
Gang o-ji</w>
Gaku shuin</w>
G ei
G amo</w>
Fuy ut
E N</w>
Dai ri</w>
Dai myojin</w>
DE NOKOJI</w>
Com mission</w>
Bar on</w>
BA SHI</w>
B lack</w>
Ari ma</w>
Ad achi</w>
AMA GO</w>
3 9
2 4th</w>
185 9</w>
159 9</w>
yak ata</w>
wel come</w>
wal ked</w>
w inner</w>
un preced
umbrel la</w>
um ental</w>
ub an</w>
third- ranked</w>
them es</w>
th reads</w>
t ei
sup eri
sum mary</w>
shoshi dai</w>
sculp tures</w>
scrip ts</w>
s av
ref er
proc esses</w>
pot atoes</w>
po le</w>
parli amentary</w>
or gan</w>
on er</w>
og yo</w>
moment um</w>
modern -day</w>
mod els</w>
manufac ture</w>
m u-
m ack
langu ages</w>
j it
j eal
insist ing</w>
in nov
in bo</w>
ig iri</w>
ic h</w>
i- e</w>
i uchi</w>
hund reds</w>
hard -
fl ows</w>
f un</w>
exist ent</w>
et ed</w>
es cor
en ka</w>
en ao</w>
eigh ty-
du g</w>
dissol ution</w>
dial ogue</w>
deter mine</w>
des per
demonstr ation</w>
de pot</w>
d ot
cre d
conc ern</w>
comb at</w>
ci ally</w>
ch opped</w>
c ere
bureaucr acy</w>
bin ding</w>
b om
b ever
b ang
att ain
as ada</w>
ar -
am u</w>
al located</w>
ak in</w>
ai ke</w>
adv ancement</w>
Yam ashi
Whi te</w>
Was eda</w>
V oc
Ur as
Un kei</w>
Tsukuy omi</w>
Tsu re
Tog ether</w>
Teng uto</w>
Tak eo</w>
Tai seki-ji</w>
Shim izu</w>
Shi jo-dori</w>
Sh uten</w>
Sep puku</w>
Sen shi</w>
Sanet omi</w>
Sad amasa</w>
R ights</w>
Portugu ese</w>
Om ura</w>
Nobum ori</w>
Nobum asa</w>
Nam es</w>
N u
N ight</w>
Murak ami-
Miy as
Mer cy</w>
Man agement</w>
L E
Kus atsu</w>
Koku zo</w>
Kita oji</w>
Kin p
KU RA
Ji sho</w>
J ur
Ishiyam a-dera</w>
Hyo busho</w>
Hirot sugu</w>
Hann ya</w>
GI RI</w>
G YU</w>
Complet e</w>
Bun roku</w>
20 -
184 8</w>
- type</w>
wind ow</w>
war lords</w>
ver tically</w>
us en-ji</w>
un an</w>
u sho</w>
tribut es</w>
travel ers</w>
subst ance</w>
st ole</w>
sle ep</w>
six teen</w>
shug odai</w>
se af
ry aku</w>
ri val
rac ing</w>
r av
qu ick</w>
prof its</w>
prepar atory</w>
phr ases</w>
person ally</w>
os ei
notic ed</w>
mini ature</w>
m aps</w>
l acked</w>
kai ki</w>
jo i</w>
j odo</w>
isol ation</w>
inter esting</w>
in scriptions</w>
ici ency</w>
h ell</w>
great- grandchild</w>
fir ed</w>
fi erc
eri b
ere l</w>
en countered</w>
em i</w>
educ ated</w>
ed ges</w>
cur tain</w>
cre sts</w>
comp ile</w>
comm ents</w>
chi ku</w>
ch aya</w>
celebr ating</w>
calcul ated</w>
c abb
box es</w>
b oku
ar ity</w>
an ke</w>
an i-
ak at
ab uchi</w>
ab outs</w>
Yok o
W il
Uz um
Uras enke</w>
U ta</w>
Tak umi</w>
Tak ayama</w>
Tadat eru</w>
Sor in</w>
Shin ko</w>
Sen ch
San mi</w>
Samur ai-dokoro</w>
Represent ative</w>
Rep ort</w>
R oshi</w>
Quar ters</w>
Prog ressive</w>
Pain ting</w>
P os
O tow
O no-
Nag ayasu</w>
Nag ara</w>
N ot
Maru yama</w>
Ma hito</w>
L ines</w>
Kad okawa</w>
K oku</w>
J uk
Iked aya</w>
Hit o
H ear
Go i</w>
Dr ama</w>
Dep ending</w>
Dai butsu-
B ok
ARI MA</w>
4 ,
185 4</w>
184 2</w>
yor iki</w>
yo shino</w>
y i</w>
worsen ed</w>
with draw</w>
with draw
war lord</w>
wa shing</w>
wa ited</w>
ust er</w>
top ography</w>
survey s</w>
sang i</w>
rhyth m</w>
resist ed</w>
rep ly</w>
ren ew
r age</w>
promis e</w>
privat ization</w>
post ed</w>
po x</w>
pl eased</w>
p ical</w>
p el
o ichi</w>
o bushi</w>
noblem an</w>
ni ece</w>
mon thly</w>
ment or</w>
meas ured</w>
man zai</w>
list en</w>
liqu id</w>
lec t
k es</w>
k emari</w>
iy a-jinja</w>
ill us</w>
ig aoka</w>
i ously</w>
her mitage</w>
ha st
h okan</w>
h ec
g hosts</w>
fun erals</w>
frag rance</w>
foun d
f at
exp ense</w>
etsu ki</w>
eram ikoto</w>
enti c</w>
en z
embro id
discus s</w>
dev ice</w>
demonstr ated</w>
cr uc
corrid or</w>
confection ery</w>
comm uter</w>
com ics</w>
car ving</w>
c up
brilli ant</w>
bri ef</w>
b orders</w>
associ ations</w>
ass ist</w>
ashi ki-
arro whe
am at
ait en</w>
air an</w>
ai kyo</w>
accomp lishments</w>
ab und
a- go</w>
Un ion</w>
U dai
Tsur u
Tom b</w>
To a</w>
The at
Takam asa</w>
Tad anobu</w>
Tad achika</w>
T ori</w>
T achi</w>
Shin taro</w>
Shin juku</w>
Sen ji</w>
Sei kan
Se iga</w>
Sak hal
Sad ayoshi</w>
SA TAKE</w>
Ru ins</w>
Rik ken</w>
Og ura-
OKA DA</w>
Nag am
NAKA JIMA</w>
Mis sion</w>
Keg on</w>
Kaw asaki</w>
KATA GIRI</w>
Imad eg
Hit omaro</w>
Ham a
Gen mei</w>
G l
Exc ept</w>
Den to</w>
D anno
Class ic</w>
10 -
un iqu
u- no-
trac ed</w>
tr unk</w>
to zama</w>
tit ude</w>
t une</w>
sub due</w>
stri f
stret ched</w>
stre am
strateg ic</w>
ste aming</w>
shit e-kata</w>
shin tai</w>
sen ke</w>
s it</w>
round ed</w>
reti re</w>
rec ording</w>
proper ly</w>
prev ailing</w>
ov al</w>
off ers</w>
occup ying</w>
o- machi</w>
novel ist</w>
n ickn
mus ician</w>
municip alities</w>
moti f</w>
mis asagi</w>
mar ched</w>
li min
lect urer</w>
land- tax</w>
kuro do</w>
koku -ji</w>
k ie</w>
k en-
iy aku</w>
ins ist</w>
in disp
ih ama</w>
ig ree</w>
her itage</w>
gr ated</w>
got ten</w>
for ci
fl esh</w>
fin ishing</w>
ent r
ei han</w>
e or
distinc t</w>
dispat ching</w>
di os</w>
del iver</w>
danc ers</w>
daimyo s</w>
cylind rical</w>
co -
ch oku</w>
calcul ation</w>
batt al
bar k</w>
b und
as o</w>
are well</w>
arch aeological</w>
ann ually</w>
al lies</w>
Z O
Yasun ori</w>
Yasak a-jinja</w>
Tsur ayuki</w>
Tenman -gu</w>
Tei mei</w>
Takam anohara</w>
Tai ga</w>
Tadak iyo</w>
Sumiy oshi-
St ore</w>
Simil ar</w>
Sil k</w>
Shoz an</w>
Sh aku
Sai k
Ru iju</w>
Res idence</w>
Pl ace</w>
Og imachi</w>
O nam
O dori</w>
Nobu yuki</w>
Nobu hiro</w>
Nak ayama</w>
Nai to</w>
N et
Murakami- Genji</w>
Mur ata</w>
Motot ada</w>
Mitsum asa</w>
Mas anari</w>
Man or</w>
Kennin -ji</w>
Kan jin</w>
Kag ura</w>
K ushi
Jugo i</w>
Ji en</w>
It ami</w>
Ir atsume</w>
Hon mon</w>
Hashi ba</w>
Har um
Hama otsu</w>
Gre en</w>
Gen paku</w>
F ront</w>
Elev en-faced</w>
E qu
Chok usen</w>
Bus iness</w>
Bec ame</w>
Ak asaka</w>
ARI WARA</w>
3 000</w>
185 7</w>
184 3</w>
160 2</w>
119 0</w>
yo- e</w>
wrest ling</w>
we ek</w>
w ave</w>
viol ation</w>
v angu
utsu -
us u</w>
transf erring</w>
t elevision</w>
sou ven
sor ts</w>
short ened</w>
shi ro
sel ect</w>
rele ase</w>
recip e</w>
re place</w>
propri et
prev enting</w>
overthro wn</w>
ot tery</w>
oo ji</w>
om ing</w>
om en</w>
ob serve</w>
near est</w>
min ting</w>
mid- Edo</w>
mar ily</w>
mak ers</w>
mai ko</w>
mack erel</w>
lo ad</w>
ligh tly</w>
li sts</w>
kan n
jing awa</w>
itor ious</w>
intens ified</w>
ind ai</w>
in sur
in sei</w>
implem entation</w>
id atsu</w>
he ating</w>
h ated</w>
g our
fud oki</w>
f use</w>
exam inations</w>
escap ing</w>
er-in- Chief</w>
emer gence</w>
ei kaz
ei ji</w>
dump lings</w>
dis covery</w>
den s</w>
cr ack
convey ed</w>
communic ated</w>
col or
co inc
clos ure</w>
chec k
c ad
butsu dan</w>
bell s</w>
bar rel</w>
auth ors</w>
assass inate</w>
appoin tments</w>
ang i</w>
am way</w>
alco ve</w>
Yoshi kuni</w>
Wat anabe</w>
Voc ational</w>
U tsu
Twent y-
Toy ok
Tao ist</w>
Taka hito</w>
Su jin</w>
Su inin</w>
Shin agawa</w>
Shig emasa</w>
Sas ayama</w>
San po</w>
Sakhal in</w>
S ent
Rep airs</w>
Om uro</w>
Nobu yasu</w>
Nan iw
Nakam ikado</w>
Mot oharu</w>
Mitsun aka</w>
Mik i</w>
MATSU I</w>
M eg
M eas
Kog yoku</w>
K ori</w>
K -
J -
I ppon</w>
Hongw an-ji</w>
HA RADA</w>
H aw
Gan jiro</w>
G agaku</w>
F ather</w>
Ex p
Educ ational</w>
Det ails</w>
De ities</w>
Command er-in-Chief</w>
Chair man</w>
C odes</w>
C el
Byo d
Bun jin</w>
Ag ainst</w>
118 9</w>
y ug
y ose</w>
where abouts</w>
w ned</w>
w ako</w>
vineg ared</w>
vac ant</w>
ut ely</w>
ur red</w>
un yo</w>
u ated</w>
u ality</w>
th ickness</w>
tar es</w>
t rem
t abi</w>
swim ming</w>
suppor ter</w>
su m</w>
strif e</w>
store house</w>
sei shu</w>
season ings</w>
sculp ture</w>
ro shi</w>
rec iting</w>
rec ited</w>
re placement</w>
r yo-
r ent</w>
prote in</w>
prev ention</w>
premis e</w>
pre limin
pl edge</w>
particip ating</w>
otsu ki</w>
ordin ances</w>
or ting</w>
op e
od okoro</w>
o sha</w>
o cho</w>
no jo</w>
mon astery</w>
mission aries</w>
magnific ent</w>
m -
l ute</w>
k id
is ition</w>
inv ite</w>
inten tions</w>
ho en
h achiro</w>
govern or-
fl ow
fam ine</w>
f us
f ast
exhib itions</w>
ex changes</w>
en aka</w>
emphas ize</w>
el ite</w>
dr ag
div iding</w>
des ires</w>
deb ts</w>
continu ous</w>
continu ation</w>
chig yo-
chi go</w>
chall eng
cast ed</w>
bre ad</w>
ban ishment</w>
b ags</w>
av ier</w>
attend ance</w>
atsu- jo</w>
astron om
asser ted</w>
an a-
amot o-jo</w>
am us
am end
ai- sha</w>
Yuk io</w>
Yoshi zane</w>
Yod oy
W u</w>
Tr ade</w>
Tot suk
Toshi aki</w>
Tom i
TAKE UCHI</w>
So en</w>
Shun kan</w>
Shim osa</w>
Saidai -ji</w>
S pan
Philosop hy</w>
Out line</w>
OI NOMIKADO</w>
O sho</w>
Nihon -
NA BE
Miy atsuko</w>
Masam ichi</w>
Mai bara</w>
MA RU
M ah
Lon don</w>
Kor emori</w>
Kong obu
Kon an</w>
Kob ay
Kiyom aro</w>
Ken shi</w>
Kat amori</w>
Kam i-
KU KI</w>
K into</w>
Jun toku</w>
Jin myocho</w>
J A
I eyoshi</w>
Hyo bukyo</w>
Hyo bu</w>
Hid enaga</w>
H att
Gre ater</w>
G isho</w>
Ev entually</w>
Dai z
Dai an-ji</w>
D ou
Chin zei</w>
B att
Ashi hara</w>
Arisug awa</w>
Aob y
7 64</w>
7 37</w>
6 ,000</w>
199 0s</w>
157 8</w>
,00 0-koku</w>
zen ji</w>
z es</w>
yo in-
wit n
week days</w>
vari ation</w>
unpreced ented</w>
under wear</w>
un ity</w>
ud okoro</w>
ud o-
u mp
tion ing</w>
t sur
t oro</w>
t orial</w>
suff er</w>
st ir
st ers</w>
sol ution</w>
small pox</w>
sl ow</w>
s ary</w>
ri an</w>
res cu
re ins</w>
preced ing</w>
prai sing</w>
posit ory</w>
poll ution</w>
pl astic</w>
phenomen a</w>
ph arm
p ages</w>
out break</w>
ornam ental</w>
or ange</w>
opportun ities</w>
oppon ents</w>
on yo</w>
ok a-jo</w>
mit ive</w>
mer itorious</w>
m old</w>
long est</w>
law suits</w>
kot ai
kaz ari</w>
k in-
k g</w>
inv itation</w>
intell ig
impro ving</w>
i th
her o
hec tares</w>
gran ting</w>
fru its</w>
foc using</w>
fl ight</w>
fl at
fire arms</w>
en de
el ement</w>
e en-
draw ings</w>
devast ated</w>
dep ended</w>
controvers y</w>
con dem
compos er</w>
coll abor
clim bed</w>
civil ian</w>
castell an</w>
c ann
bu g
autonom ous</w>
at ai</w>
asc end</w>
ap le</w>
amb assador</w>
ag raph</w>
acc o</w>
a ho</w>
Z oku</w>
Yor ifusa</w>
X X</w>
W he
Tsun emoto</w>
Tok iwa</w>
Tog o</w>
TSU TSU
T odo</w>
Su per
Su i
So h</w>
Shor en-in</w>
Senn yu-ji</w>
Se ated</w>
SHIMA DA</w>
S ing
S ama</w>
P art</w>
Ori be</w>
Norit sune</w>
Nam u</w>
Nag ashima</w>
Mitsu i</w>
Mas aharu</w>
MI Y
MATSU KATA</w>
Kin mon</w>
Ken ji</w>
Kaz um
Kab uki-
In f
Hiro ko</w>
Gen ro
Gaku en</w>
Fam ilies</w>
FUKU SHIMA</w>
Des ign</w>
Col on
Ch ron
Camp aign</w>
Bun sei</w>
A so</w>
80 6</w>
185 3</w>
159 1</w>
z ake</w>
y easts</w>
y ard</w>
withdraw al</w>
war fare</w>
vill agers</w>
vangu ard</w>
v ow
ur akami</w>
un equal</w>
tre at</w>
trav elled</w>
t sum
t i</w>
sm oke</w>
six ty</w>
sim m
short -
sho ens</w>
sh ur
secl uded</w>
s in
ro man
re formed</w>
r yokan</w>
r ail
play w
ped igree</w>
pat ro
over all</w>
or ship</w>
on do</w>
odai jin</w>
ob al</w>
nyo bo</w>
n yaku</w>
n av
municip ality</w>
mis fortune</w>
lan es</w>
k ori</w>
je wel</w>
iw ara</w>
ingu ished</w>
in- zukuri</w>
in noc
in jo</w>
im onin</w>
im ae</w>
il t</w>
ig un</w>
ident ity</w>
he althy</w>
g rin
flo ors</w>
fac ilit
exp anding</w>
et ics</w>
et ake</w>
enter taining</w>
en a</w>
ek age</w>
eg ami</w>
eb a</w>
e aves</w>
dram atically</w>
doct rines</w>
dis order</w>
diff ered</w>
det ected</w>
destro ying</w>
cul t</w>
countr y
cop ying</w>
confir m</w>
concer t</w>
compon ents</w>
ch awan</w>
cap turing</w>
c uc
boun d
bod y
bas eball</w>
bar ley</w>
b illion</w>
auth ored</w>
anal ysis</w>
am an
all ows</w>
ak oya</w>
ak ana</w>
ai j
acquain ted</w>
a forem
Youn g</w>
Yodoy abashi</w>
Y un
X avier</w>
Tak asaki</w>
Tai to</w>
Shi ran
Seri zawa</w>
Sculp ted</w>
S ut
S o-
Roshi gumi</w>
R oom</w>
P hy
NABE SHIMA</w>
N atural</w>
N YA</w>
Mei sho</w>
MIY AMOTO</w>
M aj
Langu age</w>
Kyo tango</w>
Koku jin</w>
K es
Jud ging</w>
IMA I</w>
Hiro shige</w>
Hide hira</w>
Hid enobu</w>
H al
Gom urakami</w>
Gin za</w>
Fuku zawa</w>
Fu yo</w>
F rag
Ex it</w>
E r
De ity</w>
Coll ected</w>
Chu sho
C HOSO
Bit chu</w>
Back ground</w>
B od
B idatsu</w>
158 8</w>
13 38</w>
13 31</w>
0 7
' m</w>
z akura</w>
wat ched</w>
war ships</w>
vis ible</w>
ur aji</w>
um in
u j
tr ace</w>
toil et</w>
ti eth</w>
t achi
sweet ened</w>
suspic ious</w>
suggest ion</w>
substanti al</w>
subdu ed</w>
st ick
st ems</w>
sn ow
sl aves</w>
sec ution</w>
seaf ood</w>
satis faction</w>
s ann
round -
rim p</w>
re aches</w>
propag ation</w>
prog ressed</w>
prelimin ary</w>
prec ise</w>
post p
po ison</w>
p in
oy aku</w>
overn ight</w>
ou miya</w>
ou d</w>
ot suk
ok ko</w>
og ak
o e-
nom inated</w>
mon archy</w>
min al</w>
manag ers</w>
lux ury</w>
lux ur
ligh ting</w>
l asting</w>
k ob
j ir
impris oned</w>
imp lement</w>
i ography</w>
hom es</w>
he m</w>
h oko</w>
gy udon</w>
grac eful</w>
governor- general</w>
go zoku</w>
genealog ical</w>
fro zen</w>
for get</w>
far ce</w>
f ushin</w>
f ooth
f arewell</w>
exc eeded</w>
erib eri</w>
er ine</w>
en did</w>
e- dori</w>
do hyo</w>
del ayed</w>
d well
consum ers</w>
consid ers</w>
con sumed</w>
cent ers</w>
car p</w>
bro iled</w>
brav ely</w>
b acking</w>
auth entic</w>
ar ship</w>
am ate
ai kido</w>
ag n
ag ar
aforem entioned</w>
ad ori</w>
ab o</w>
W arri
U TAGAWA</w>
Tsurug aoka</w>
Takem ik
Shu ei</w>
Shogun al</w>
Shin jo</w>
Satur day</w>
San b
Sai ga</w>
Otok un
O ik
Nobum itsu</w>
Nishi kyo
Nin ko</w>
Ni oumiya</w>
Myo h
Masak azu</w>
MA DENOKOJI</w>
L ong
L i</w>
Kiz oku</w>
Kiyot aka</w>
Kinug asa</w>
Ki yoshi</w>
Kat ata</w>
KO KU
KAWA I</w>
Jo an</w>
Jish o-
G es
For th</w>
En shrin
Chusho jima</w>
Cho ja</w>
Ch an
Ceremon ies</w>
Calligrap hy</w>
CHOSO KABE</w>
B ug
Ass emb
Aki hito</w>
8 ,000</w>
197 0s</w>
196 0s</w>
157 9</w>
z oshi</w>
ut on</w>
ure i</w>
ul ous</w>
temp ura</w>
syst emat
stand ardi
spear head</w>
sk ew
sel ler</w>
sc and
sad aijin</w>
s inc
recogn ize</w>
rec ap
rebel s</w>
ran ged</w>
rad io</w>
pro found</w>
pri marily</w>
prev ailed</w>
per mit</w>
pan els</w>
ori ented</w>
oku- in</w>
ochi -
oc top
new ly-
mon s</w>
mil let</w>
mic ro
met ropolitan</w>
meas urement</w>
mast ered</w>
m ust
log y</w>
li e</w>
li aison</w>
lef t-
le es</w>
l umber</w>
kne ading</w>
ka sho</w>
k end
jud ges</w>
j ish
instr umental</w>
influ ences</w>
inf antry</w>
inc ant
imp licated</w>
imit ating</w>
ichim en</w>
ib ility</w>
ho be</w>
hel met</w>
harv ested</w>
hand ing</w>
gr ams</w>
fierc ely</w>
fair ly</w>
exc essive</w>
eri shed</w>
er up
ent om
ener gy</w>
end ers</w>
en n
emer ging</w>
deep ened</w>
declar ation</w>
d ressing</w>
d ango</w>
crem ated</w>
cre am</w>
complet ing</w>
compens ation</w>
chun agon</w>
char m</w>
beli ever</w>
be ating</w>
b eriberi</w>
asser ts</w>
ass en</w>
ar aki</w>
ak er</w>
ai- no-
accept ance</w>
a shore</w>
a es
a .m.</w>
Yoshi wara</w>
Yasu yuki</w>
WA KA
Tor ii</w>
Ton eri</w>
Tok yo-
Ten ji</w>
Takas ue</w>
Taka oka</w>
TORI I</w>
T ai</w>
T able</w>
Str uc
SHI RA
S qu
S our
S C
Ryo ge</w>
P lain</w>
Os aki</w>
Nor imori</w>
Nis him
Ni in
Naka hira</w>
Nak agawa</w>
N AMI</w>
Mom oy
Mis hima</w>
Matsu o</w>
L aws</w>
Kusu ko</w>
Konpar u</w>
Kobay akawa</w>
Kichi emon</w>
Ke age</w>
KAN E
Juro ku
Jing o-ji</w>
J uko</w>
Ital y</w>
Horik awa-dori</w>
Ho in</w>
Hak one</w>
H iki</w>
H OT
Gi en</w>
G eki</w>
F ugen</w>
Ed ition</w>
Danno ura</w>
D engaku</w>
D am</w>
Confuc ius</w>
C ir
C ast
Bun roku-
Ana hobe</w>
186 1</w>
16 12</w>
yuk ata</w>
y us
wid er</w>
virt ues</w>
ver sed</w>
v ious</w>
us ato</w>
un ve
tutel ary</w>
tribut ary</w>
trans cription</w>
t os
stuff s</w>
stom ach</w>
st aged</w>
sil ent</w>
shog i</w>
shin -in</w>
sh rimp</w>
s izes</w>
s at</w>
ryok e</w>
retain ing</w>
rem ents</w>
rein forcement</w>
reconc iled</w>
pre sumably</w>
pp ers</w>
pel ago</w>
p in</w>
ong o</w>
om i-
oc ked</w>
oblig ation</w>
o ir
min es</w>
mast er-
m ud
m aro</w>
lif est
kot ai</w>
kas en</w>
kara oke</w>
k engyo</w>
jour nal</w>
ji in</w>
it a-
ishi tsu</w>
in cl
if ies</w>
id ated</w>
ich okan
i ating</w>
hi lls</w>
ha ori</w>
h u
h atsu-
h aku
gradu ating</w>
g ear</w>
found ations</w>
exemp t</w>
exec ute</w>
ev ac
enh anced</w>
eg aki</w>
e bro
e au</w>
e able</w>
dist urb
dai shi</w>
cont ext</w>
commemor ating</w>
comm ented</w>
col umns</w>
col lege</w>
clos est</w>
bu ki</w>
bank rup
b ales</w>
at o-
as set</w>
art isans</w>
am in
air ing</w>
ah ata</w>
ag awa-
ack et</w>
ab oration</w>
Yuk it
Yasuk uni-jinja</w>
YAMASHI NA</w>
Uj isato</w>
Udai ben</w>
U l
Toy okuni</w>
Tada fuyu</w>
Tad anori</w>
TO IN</w>
TAKI GAWA</w>
TA NI
T ro
Suk un
Sot atsu</w>
Shug akuin</w>
Shige uji</w>
Sen su</w>
Sen ko</w>
Pro motion</w>
Ok aru</w>
Og aki</w>
Offic er</w>
O tog
O c
O GATA</w>
Net work</w>
Nar imasa</w>
N un
N otes</w>
Mur asak
Mori oka</w>
Mitsub ishi</w>
Min bu</w>
Michi kane</w>
Mei ji-
Matsu ura</w>
Mar ket</w>
Mait re
Let ter</w>
L o
Kot ai
Kiz u-gawa</w>
Kik u
Kan shi</w>
Kan innomiya</w>
Kait ai</w>
Kai ki</w>
J ugo</w>
Inspec tor</w>
Hitotsub ashi</w>
Hid eyasu</w>
Hei jo</w>
Gan jin</w>
G on-
Fur u
F all</w>
Estab lishment</w>
Enshrin ed</w>
E ve</w>
E l
Dai sho</w>
D ojo</w>
Cur ry</w>
B eg
Ad v
A u
A rin
5 ,
2 6th</w>
159 6</w>
157 6</w>
yor ishiro</w>
yo ji</w>
y ou
v ending</w>
ushi do</w>
un -
um eboshi</w>
ud ai
tru ly</w>
t es</w>
sp ect</w>
soci eties</w>
sevent een</w>
sec uring</w>
sal mon</w>
sak an</w>
s oson</w>
s --
rever se</w>
remov al</w>
re view</w>
re placing</w>
pul l</w>
prot agon
produc er</w>
practition ers</w>
phys ician</w>
per sim
p itaka</w>
p ain</w>
ou ke</w>
okan pu</w>
ob vious</w>
o- mon</w>
negoti ated</w>
n irvana</w>
mur al</w>
min im
min ded</w>
m ales</w>
low- level</w>
koku shu</w>
kai kan</w>
k us
ju- in</w>
j udo</w>
is awa</w>
investig ated</w>
individ ually</w>
in ent</w>
in direct</w>
im on</w>
ib a</w>
hy po
half- sister</w>
h ex
h ad
gro ws</w>
ga uge</w>
frequ ency</w>
fin ances</w>
excep tionally</w>
ex erted</w>
evol ved</w>
est ation</w>
engine er</w>
en o-
disman tled</w>
di esel</w>
de ported</w>
d ashi</w>
d aka</w>
conv inc
contribu ting</w>
contain ers</w>
con stituted</w>
commit ting</w>
clim bing</w>
char ges</w>
car bon</w>
c rane</w>
c ial</w>
bound aries</w>
bar on</w>
b es</w>
ay a-
ant erns</w>
am ul
am al
al tered</w>
al ia</w>
ail and</w>
advoc ates</w>
ad ono</w>
act ment</w>
acad em
ab utsu</w>
ab e-
a x</w>
Yo zei</w>
Yasut suna</w>
YA GI</w>
Ur ban</w>
Ur ashima</w>
U e</w>
Tsu shinshi</w>
Th ailand</w>
Tak i</w>
Tak aie</w>
Ta x
T ext</w>
T es
Sum id
Su shi</w>
Su ica</w>
St and
Sho hei</w>
Shig ekatsu</w>
Sai g
SHIM OTSU
S oh
Roku on-ji</w>
Pr act
P et
Ok inaga</w>
Nyo irin</w>
Nishi jin</w>
Nin omaru</w>
Nin ja</w>
Nic hir
Ne ther
Mus o</w>
Mot omasa</w>
Mor ozane</w>
Mochi t
Mitsu yuki</w>
Matsu g
Masat omo</w>
M ig
M al
M akura</w>
Koh echi</w>
Kint etsu-
Ken zo</w>
Kei suke</w>
Kas agi</w>
KUMA GAI</w>
KU ZE</w>
KOI DE</w>
K anda</w>
Jushi i</w>
Jisho- Juei</w>
J oshi</w>
Ise- Heishi</w>
Ik uno</w>
Hon inbo</w>
Hok ekyo</w>
HI R
HA CHI
Gen shin</w>
Foun der</w>
For est</w>
E very</w>
Dec ree</w>
Charact eri
An gl
Advis er</w>
9 -
170 3</w>
16 19</w>
16 16</w>
116 6</w>
z i
yak uryo</w>
y in</w>
wh ales</w>
ut erine</w>
us eki</w>
under took</w>
un ifying</w>
ul t</w>
ul i</w>
ti ers</w>
thum b</w>
tak oyaki</w>
t ated</w>
symb ols</w>
substanti ally</w>
sol ved</w>
sol o</w>
sl ogan</w>
shik imoku</w>
sevent y-
sen -
s aving</w>
rum ors</w>
rum ored</w>
ro me</w>
rem ember</w>
rel ax
r ating</w>
r ai</w>
pursu it</w>
pul ling</w>
pri mitive</w>
pl ec
overthro wing</w>
oshi ta</w>
ordin ation</w>
oper ates</w>
on myoji</w>
om yo</w>
om une</w>
oj ima</w>
o i-
no shi</w>
nishi ki-
mor omi</w>
less ons</w>
l aying</w>
kok uten</w>
kar iginu</w>
kai eki</w>
k aro</w>
ist ed</w>
indisp ens
imp eri
ide ology</w>
ic als</w>
hol ders</w>
ho in</w>
high- class</w>
hig ashi</w>
her -
grav estone</w>
ful filled</w>
fle e</w>
exemp ted</w>
eth ics</w>
el y-
el et</w>
dr astic</w>
dis per
den om
cormor ant</w>
co ating</w>
canc elled</w>
bu ku</w>
bu b
bic y
az an</w>
audi ences</w>
attain ment</w>
ar u-
aku- gun</w>
aku sha</w>
ag e-
ad mon
Yon ago</w>
YAMA NAKA</w>
WA TA</w>
W al
Un eme</w>
Uchi wa</w>
U chim
Tosh odai-ji</w>
Soshi tsu</w>
Shos o-in</w>
Shim o</w>
Sh od
Set a</w>
SU E</w>
Revol ution</w>
R oku</w>
Nyo in</w>
Mun eko</w>
Mor oe</w>
Mor imasa</w>
Miyas udokoro</w>
Min busho</w>
Mas atsugu</w>
Main ichi</w>
Mag istr
MATSU DA</w>
M abuchi</w>
L ong</w>
L iqu
Kor yu-ji</w>
Kon oh
Kok inshu</w>
KURO SAWA</w>
KU NI</w>
Ju ichimen</w>
Ishik aw
Ik en
Ichi ro</w>
Hi yoshi</w>
Hachi oji</w>
HOT TA</w>
Gen ro</w>
Fujiw ar
Fran c
FUJI TA</w>
Ex peri
Daig okuden</w>
D ojo-ji</w>
Commun ity</w>
Commer cial</w>
Can al</w>
Bunroku- Keicho</w>
BA YASHI</w>
B ifuk
B amboo</w>
Architec ture</w>
Air port</w>
ASU KAI</w>
A part</w>
A oyama</w>
7 57</w>
198 0s</w>
- based</w>
' clock</w>
x x</w>
world s</w>
virt ual</w>
vic tim
ug ui</w>
ty ing</w>
tri ps</w>
tri be</w>
ti ered</w>
threat ened</w>
theat re</w>
t ones</w>
t eppo</w>
t ato</w>
t as
storytell er</w>
sp here</w>
shin no</w>
shi zoku</w>
shell s</w>
sen ji</w>
schol arship</w>
san jo</w>
s awa</w>
rescu ed</w>
res cript</w>
requ ire</w>
read ers</w>
prot oty
profess ion</w>
proc eed</w>
prest ige</w>
pre dic
pot ential</w>
pedest al</w>
pal aces</w>
p ots</w>
oshi t
oshi ro</w>
organiz ational</w>
or it
ony mous</w>
on- kyo</w>
ok age</w>
occurr ence</w>
obj ective</w>
mur als</w>
mer cy</w>
mag atama</w>
lib eral</w>
jik ata</w>
inj ury</w>
im itation</w>
ik yo</w>
ig ay
ic ks</w>
hos pit
ho on</w>
hito e</w>
hann a</w>
ha w
h u</w>
go han</w>
genealog ies</w>
gan a</w>
flo ats</w>
f ind
ey ebro
exam ined</w>
et oyo</w>
ek azu</w>
ei zan</w>
edit or</w>
doub tful</w>
dis liked</w>
di men
defin ite</w>
d ok
cre ative</w>
ch ogin</w>
calligrap hers</w>
bu ying</w>
b yo
atsu ji</w>
at aro</w>
as ions</w>
ar k</w>
an in</w>
amp ion
ak ama</w>
ak ajima</w>
ad oshiyori</w>
ad e
achim an</w>
achiev ing</w>
abdic ate</w>
Writ ten</w>
U ch
Tsun etaka</w>
To juro</w>
Theat re</w>
Ten mon
Takar ag
Tak ayori</w>
Tai ro</w>
Tada aki</w>
Tad amune</w>
TO YAMA</w>
TAKA NO</w>
Span ish</w>
Soj uro</w>
Shoj iro</w>
Sho an</w>
Shink eihan</w>
Shi sho</w>
Shang hai</w>
Sh ushi</w>
Sh aku</w>
San -
Sam aryo</w>
Sad ayori</w>
Sad amori</w>
Sad achika</w>
Rom an</w>
Rak ug
Portug al</w>
Om ine</w>
Om ih
O ei</w>
Nobun ori</w>
Nishikyo goku</w>
Nint oku</w>
Nan kai</w>
NAKA NO
Mun etada</w>
Me ig
Mas ayasu</w>
Marut amachi</w>
Mak im
Maitre ya</w>
Mai ko</w>
M uko</w>
Kyoto- go</w>
Koshi ro</w>
Kawan akajima</w>
Kar oku</w>
K yak
K atsu</w>
Illustr ated</w>
INU KAI</w>
I shi</w>
Hum an</w>
Hak ase</w>
HIRA GA</w>
H ong</w>
Go ichijo</w>
Genro in</w>
G ran
G en</w>
G eb
Fus asaki</w>
Fum i
Fre edom</w>
Flow ers</w>
Fac ilities</w>
F em
Ex pl
C ave</w>
Al lied</w>
ASA I</w>
6 ,
185 5</w>
184 9</w>
168 8</w>
157 4</w>
15 ,000</w>
115 8</w>
-- -</w>
y early</w>
y abusame</w>
wind ows</w>
we b
v ol</w>
up graded</w>
unve iled</w>
um erary</w>
ugo shoku</w>
u ji-
trans lat
tor ious</w>
ter ri
tab oo</w>
t in</w>
suppor ts</w>
str ated</w>
sprink led</w>
spl endid</w>
sp oken</w>
some where</w>
slow ly</w>
sl op
sen cha</w>
scap e</w>
s .</w>
reg ret
re production</w>
re ed</w>
post erity</w>
por ridge</w>
photograp h</w>
pat ients</w>
oy a-jo</w>
od ama</w>
octop us</w>
o fu</w>
nag inata</w>
m ix</w>
less er</w>
koku -
kod an</w>
ken chi</w>
keep s</w>
k ara</w>
j us
iy am
indispens able</w>
im aru</w>
ig ashira</w>
id er</w>
ich o-
ho sho</w>
hir agana</w>
han iwa</w>
h ere
h en
h at</w>
g ob
g isho</w>
ffer fish</w>
fact ories</w>
et ical</w>
ess ays</w>
es cal
ep it
ep id
enh ance</w>
en actment</w>
elabor ate</w>
eki- mae</w>
eb ana</w>
dump ling</w>
domin ance</w>
div ide</w>
dis charged</w>
di um</w>
dain agon</w>
d oso</w>
conver sation</w>
con scription</w>
cas h</w>
c ancell
but ter
bro cade</w>
br ick</w>
bl amed</w>
bas ket</w>
bact eria</w>
b o-
b erry</w>
attrac t</w>
associ ates</w>
ar oma</w>
appro ve</w>
antic ip
ant agon
amal gam
al ize</w>
ak an</w>
ai- gun</w>
ag ents</w>
after noon</w>
advoc ate</w>
Yatsu hashi</w>
Y outh</w>
Y agi</w>
Ume koji</w>
Thir ty-
Tam eie</w>
TAKA YAMA</w>
T odo-
St .</w>
Sovere ign</w>
Sign al</w>
Shij on
Sh oku
Set tsu-
Sch ools</w>
San no</w>
Sada aki</w>
Q in</w>
P hi
P avilion</w>
P at
Ok u
Nobut suna</w>
Nihon bashi</w>
Nag ashino</w>
Moku ami</w>
Miy am
Mitsu suke</w>
Mas anao</w>
Mas achika</w>
MA TA</w>
L ar
Kongobu -ji</w>
Kok ei</w>
Kit ano-
Kis shoin</w>
Kat ab
Kanz e-ryu</w>
Kam ogawa</w>
Kai kei</w>
KATA YAMA</w>
K oshin</w>
Jim mu</w>
In u
In be</w>
Im mortal</w>
Hos sho-ji</w>
HON JO</w>
H Q</w>
G ood</w>
G eisha</w>
E t
E p
E mon
Be auty</w>
B ent
An al
AM U
A zuk
A T
18 40</w>
159 3</w>
157 2</w>
156 9</w>
13 0</w>
' re</w>
yo ur
we ights</w>
was an</w>
w ound</w>
uki yoe</w>
u- in</w>
u jig
top knot</w>
ti de</w>
tal king</w>
t ong
t les</w>
sun yo</w>
storytell ers</w>
ste wards</w>
ste ad
states men</w>
stat e-
squ id</w>
sp ending</w>
south ward</w>
sol ve</w>
sle eping</w>
si l</w>
shi tsu</w>
se x</w>
se wn</w>
scrip ture</w>
san g</w>
s ins</w>
s auc
roc ana</w>
rew arded</w>
research er</w>
repor ting</w>
rain y</w>
r up</w>
r u</w>
profess ors</w>
pref er
pol y
pois oning</w>
persu ade</w>
per sist
parishi oners</w>
p asted</w>
p .m.</w>
p -
oz aemon</w>
ot aro</w>
ordin arily</w>
ope dia</w>
on ica</w>
occup y</w>
ne gl
monopol ized</w>
luxur ious</w>
lic ity</w>
libr aries</w>
ko in</w>
ju ice</w>
j ukyo</w>
it ori</w>
it ime</w>
ir rig
in sufficient</w>
hum an
horizon tally</w>
hoen ix</w>
high est-
hig aku</w>
hay ashi</w>
gin joshu</w>
gest ure</w>
g ata</w>
fle w</w>
fi x</w>
fe wer</w>
faith ful</w>
fac to</w>
extinc tion</w>
exerc ised</w>
eng i</w>
eng age</w>
ell ow
eigh ty</w>
ed ity</w>
ec ture</w>
docum entary</w>
dign ity</w>
den y</w>
cor ners</w>
con sent</w>
coll aboration</w>
clus ive</w>
chu- gumi</w>
camp aig
cabb age</w>
bel oved</w>
banqu ets</w>
b ai-
auth ent
at ak
argu es</w>
aff ection</w>
acquain t
achi yo</w>
accur acy</w>
ab alone</w>
Yoshi oka</w>
Yom iuri</w>
YASU DA</w>
Wat ar
W ho</w>
View s</w>
Un iver
U sa</w>
Tsun emune</w>
Tsun a</w>
Tsu w
Tr ams</w>
Ter amachi-dori</w>
Ter ad
Tenman gu</w>
Ten n
Tak atsugu</w>
T odai
Sum eramikoto</w>
Shit okan</w>
Shijon awate</w>
Shi kan
Sanj on
SHI N
S end
S S</w>
R aku</w>
Prof essor</w>
P ro</w>
Omih achiman</w>
O min
O SHIMA</w>
Nether lands</w>
Nan bu</w>
Miz oguchi</w>
Marut amachi-dori</w>
M ichi</w>
Kokum in</w>
K o-
K ishiw
K ado</w>
Jushi chi
Ju hachi
Ikar ug
IMA DE
IMADE GAWA</w>
I no
Hon da</w>
Hig ashin
Hide aki</w>
Hid eo</w>
Har uk
Hai ku</w>
H a
G HQ</w>
Fuk u</w>
Fuk agawa</w>
Fol k</w>
F udai</w>
Dan jo</w>
Dai kokuten</w>
D okan</w>
D oh
Ak iyoshi</w>
Ad jacent</w>
4 0,000</w>
18 50</w>
168 9</w>
13 35</w>
119 9</w>
115 5</w>
100 th</w>
zab uton</w>
z ok
yam akasa</w>
wi shing</w>
w ill
veng eful</w>
ushim i</w>
us sion</w>
univer se</w>
un expected</w>
ujig ami</w>
ugo sho</w>
u ch
typ ically</w>
tob acco</w>
t opp
sy rup</w>
sp y</w>
so aked</w>
sei -
se ido</w>
ro ut
ro ll
ro ad
resid es</w>
res erve</w>
requi rements</w>
renov ated</w>
rem arried</w>
rec itation</w>
prot ested</w>
pro mo
prepar ations</w>
polit ically</w>
p led</w>
oz en</w>
overwhel med</w>
out a</w>
oc cult</w>
o qu
nun s</w>
ninet eenth</w>
nickn amed</w>
memb ership</w>
ly mp
ki sha</w>
k un</w>
k otsu
j id
j a-
ition ing</w>
ist eria</w>
interrup ted</w>
inher iting</w>
ichokan jin</w>
ic tionary</w>
ic ket</w>
i- mura</w>
hum orous</w>
horsem en</w>
ha zama</w>
gri ef</w>
gr as
gr ace</w>
gong yo</w>
forci bly</w>
farm land</w>
exc use</w>
ex ported</w>
er ror</w>
entom bed</w>
eleph one</w>
ek a</w>
e igaku</w>
dot aku</w>
discrimin ation</w>
demes ne</w>
cur ve</w>
contro ls</w>
contro ller</w>
consul ted</w>
compos ing</w>
compar atively</w>
co ined</w>
clean ing</w>
chronic les</w>
cas u
c af
bo ar</w>
bloc ks</w>
be -
b une</w>
b old</w>
att aining</w>
arro g
ap olog
all ery</w>
ak atsu</w>
ai i</w>
advis ors</w>
Zai batsu</w>
YOSHI MURA</w>
Twel ve</w>
Tsu ho</w>
Todo- za</w>
Th re
St re
Sok ei</w>
Sl ope</w>
Simil arly</w>
Shus higaku</w>
Shoshi i</w>
Shing u</w>
Shim ok
Shi shi</w>
Seiryo den</w>
Sat omi</w>
Sak onoe</w>
Sadak atsu</w>
S ozu</w>
S elected</w>
S cro
Omot es
Okit sugu</w>
O lymp
O KURA</w>
Nao yoshi</w>
Nag oya-jo</w>
NAKA MIKADO</w>
Mun eyoshi</w>
Mor inaga</w>
Min bukyo</w>
Min ak
L A
Kur ik
Kodai in</w>
Kob an</w>
Kin osaki</w>
Katsu toyo</w>
Jo etsu</w>
Inv est
I emoto</w>
Hin in</w>
F l
Ex change</w>
E isho</w>
Dai ichi</w>
D ot
D ictionary</w>
Cr afts</w>
Cap e</w>
Cal end
CHI KA
C ar</w>
Byo bu</w>
By pass</w>
B ot
B an</w>
Asuk a-dera</w>
As ai</w>
Amid a-do</w>
AM ORI</w>
A sh
7 49</w>
185 6</w>
16 33</w>
16 11</w>
159 4</w>
wh aling</w>
w aste</w>
victim s</w>
ur ities</w>
um i-
ul ating</w>
u in</w>
twenti eth</w>
tun n
tun a</w>
the or
th ron
te ki</w>
t et
t andai</w>
supern umerary</w>
stret ching</w>
shin bun</w>
shi pping</w>
seng oku</w>
sei ze</w>
se aled</w>
sak aya</w>
s oku</w>
retur ns</w>
ret ism</w>
resemb ling</w>
rem od
rel ate</w>
re started</w>
pur ify</w>
pu fferfish</w>
prototy pe</w>
post- war</w>
poll en</w>
per haps</w>
par don</w>
p il
ox ide</w>
ornam ent</w>
orig oe</w>
ord ained</w>
om aki</w>
o ly</w>
o ing</w>
n utr
n esty</w>
mis sed</w>
met ap
medi um-
match lock</w>
m uk
loc ally</w>
lo an</w>
k ajin</w>
j ew
it ake</w>
install ation</w>
in tr
in ating</w>
imp ort</w>
ig ar
i hisa</w>
i hime</w>
hid ari</w>
her edity</w>
happ en</w>
hai den</w>
g ery</w>
g ap</w>
forfe ited</w>
fal con
f und</w>
f umyo</w>
eyebro ws</w>
ever al</w>
enter tain</w>
en ji</w>
edit ing</w>
e- line</w>
do fu</w>
dis satisfied</w>
dis plays</w>
dis playing</w>
d oshin</w>
cur d</w>
crem ation</w>
cour ts</w>
con version</w>
con di
compar ing</w>
common er</w>
comm er
co operative</w>
cha os</w>
can ned</w>
c ry</w>
c retism</w>
broad cast</w>
bl ow</w>
bar ely</w>
bad ly</w>
b y-
b an-
b ab
aw a-jinja</w>
amate ur</w>
allow ance</w>
ai rocana</w>
a ith</w>
a icho</w>
Yuk imori</w>
Yoshi kawa</w>
Yas umasa</w>
Y u</w>
W aki</w>
V aj
UE DA</w>
Ten chu-gumi</w>
St ations</w>
Shiz ug
Shin- Osaka</w>
Shin ji</w>
Sh oyuki</w>
Sar ashina</w>
Sak ata</w>
Sad ai
SA NO</w>
S oma</w>
S everal</w>
S awara</w>
Rest aur
Rak unan</w>
PA RU</w>
P ress</w>
P erry</w>
Otsu -
Osak a-
Or thodox</w>
Ok u</w>
Ok amoto</w>
Nar a-
Na ozane</w>
NA GAWA</w>
N on
N em
Mun enori</w>
Motot suna</w>
Min isters</w>
Mid -
Masat aka</w>
Mas uda</w>
L earning</w>
Kyo g
Kore ans</w>
Kid endo</w>
Kei han-
Kan zan</w>
Ishikaw amaro</w>
His amasa</w>
Hir ai
Hay ashi</w>
H od
H o</w>
H ek
Gos ei
Gor ei
Genealog y</w>
G of
G ik
G eta</w>
Dr agon</w>
Des cend
D ONO</w>
Coun cillor</w>
Ch uk
Ch or
CHIKA MATSU</w>
C higi</w>
Byod o-in</w>
Bus an</w>
Buddha hood</w>
B ushido</w>
B I</w>
Assemb ly</w>
A pp
A no</w>
8 10</w>
184 7</w>
184 1</w>
18 39</w>
18 35</w>
18 30</w>
160 5</w>
12 -
- and-
yoin- to</w>
yo- do</w>
y onin</w>
water fall</w>
wan ese</w>
w illing</w>
ven ue</w>
v est
ul ate</w>
u- ryu</w>
tit ious</w>
ten ure</w>
ten sion</w>
tab lets</w>
syn cre
sum mar
suk une</w>
sol ic
sok utai</w>
sho es</w>
sci ences</w>
sal vation</w>
reduc ing</w>
real ms</w>
re formation</w>
re build</w>
re born</w>
rak ug
pro stitutes</w>
priest ess</w>
poss ess</w>
plat oon</w>
part ner</w>
p sych
p anc
oz una</w>
ot ting</w>
os aku</w>
ornam ents</w>
oper ator</w>
on ion</w>
nation alized</w>
mon to</w>
mer ging</w>
meas urable</w>
mar quis</w>
m ation</w>
light ning</w>
lif ted</w>
latt ice</w>
l anterns</w>
kar akami</w>
k ent
iy ama-cho</w>
inst all</w>
inc or
in y</w>
in sects</w>
ig ayo</w>
ib bon</w>
i jima</w>
hy akusho</w>
hon do</w>
hon den</w>
hel ping</w>
hal o</w>
ha -
h are</w>
gor yo</w>
good -
get a</w>
ge ography</w>
g oto</w>
g -
fu jin</w>
for ef
fic titious</w>
ex ha
ev es</w>
environ mental</w>
ent ran
en shu</w>
en able</w>
emb ank
em ak
electri fication</w>
eg i</w>
e hazama</w>
e ag
discre tion</w>
dis inherited</w>
dai -
d ynastic</w>
counter feit</w>
con grat
col oring</w>
ch o-ji</w>
certi fication</w>
broad casting</w>
bl u
bl essed</w>
bl an
be ars</w>
b yo</w>
b ery</w>
ar at
amus ement</w>
ach o-
ac counting</w>
ab on</w>
a- in</w>
Z ushi</w>
Y ao</w>
Y ama</w>
Uzum asa-
U ma</w>
Tsu ki</w>
Tri pitaka</w>
Tok us
Ter u
Teach ing</w>
Takam imusubi</w>
Tai wanese</w>
TSUTSU I</w>
TE RA
T ono</w>
T H
Suk o</w>
St adium</w>
Sog o</w>
Shon i</w>
Ses shu</w>
Saidai ji</w>
Sad an
SUGI TA</w>
SHIGE YAMA</w>
S ango</w>
R on</w>
P illow</w>
O ut</w>
O ike</w>
No be
Nagak ute</w>
NISHI MURA</w>
NI I
Myoh o-in</w>
Muk ai
M yor
L at
Kun inomiya</w>
Ko sho-ji</w>
Kiy ouji</w>
Ki m</w>
Kaz ur
Kawag oe</w>
Kanz aki</w>
Kam iy
Kak itsu</w>
KON PARU</w>
K ume</w>
K uki</w>
Is shi</w>
Inf antry</w>
In ari-
In a</w>
I enaga</w>
Haw aii</w>
Han ny
H ab
F und
En tering</w>
Ei roku</w>
E ir
Di esel</w>
D ates</w>
Chok ei</w>
Chiyo da</w>
Chi kan
Charact ers</w>
BO JO</w>
B utsu
B ep
Az a</w>
Ak ik
185 2</w>
18 37</w>
160 6</w>
157 1</w>
156 5</w>
120 3</w>
00 -
yu ji</w>
west ward</w>
war ship</w>
wand ering</w>
w ag
v ention</w>
v ain</w>
us ada</w>
un likely</w>
ultim ate</w>
u- cho</w>
tu be</w>
treas ured</w>
trad ed</w>
tr acked</w>
ti ger</w>
suppres sing</w>
suppl ement</w>
su st
son ae</w>
sevent eenth</w>
s ard
roof ed</w>
restric tion</w>
resol ved</w>
r ust</w>
r us</w>
qual ification</w>
pion eer</w>
pion e
patro l</w>
part ition</w>
p ink</w>
p acked</w>
our a</w>
ou tw
ony ms</w>
on ward</w>
ol ith
olith ic</w>
ok ur
obe yed</w>
n os
myo -ji</w>
mod e</w>
men oto</w>
mass ive</w>
m ai-
low- ranking</w>
lifest yle</w>
le tic</w>
landscap es</w>
l es
l acking</w>
ku yo</w>
koku fu</w>
k ish
k azu</w>
j u-ji</w>
is ely</w>
irrig ation</w>
ir ical</w>
investig ate</w>
interpre tations</w>
inter val</w>
in oe</w>
impris onment</w>
id eo</w>
i bushi</w>
honor able</w>
har sh</w>
h ence</w>
h atsu</w>
gl azed</w>
gam bling</w>
g el
frag ments</w>
four teen</w>
foun ders</w>
fortun e-
form ality</w>
fl ex
ext erior</w>
explan ations</w>
er en</w>
er ately</w>
enthusi astic</w>
ende av
encour age</w>
en r
em atsu</w>
ed itions</w>
ed ged</w>
dri vers</w>
disc ord</w>
dimin ished</w>
decreas ing</w>
dam ages</w>
contrac ted</w>
confl icted</w>
conf ig
con clude</w>
command ments</w>
com for
co operate</w>
ch ants</w>
cap ability</w>
c k</w>
bi ographies</w>
b ha</w>
awar eness</w>
atsu kuni</w>
ath ers</w>
at a-jo</w>
as e-gawa</w>
amb ition</w>
am nesty</w>
aku to</w>
aj a</w>
ai- mon</w>
ag ues</w>
aes thetic</w>
ad ai</w>
acqu isition</w>
acad emy</w>
Z ojo-ji</w>
Yasu hito</w>
YAMA OKA</w>
Y asu</w>
V ir
U sing</w>
Tsutsu i</w>
Tsun efusa</w>
Tor okko</w>
Tanab e-jo</w>
Take aki</w>
Tak ano</w>
Tad anaga</w>
Su zuka</w>
Sour ce</w>
Sho yo</w>
Shin suke</w>
Shin machi</w>
Shi kan</w>
Sek ien</w>
Seikan ron</w>
Satsu ma-
Sad amichi</w>
Ryo shun</w>
Reng a</w>
Reg iment</w>
Raku chu</w>
R ise</w>
R angaku</w>
Por tr
Pl ant</w>
Phy s
Ot agi</w>
On shi</w>
Ok ehazama</w>
O MURA</w>
Nor imichi</w>
Nakas en-do</w>
Nai ku</w>
N ose</w>
N ir
N at
Mat erials</w>
M ut
M ogami</w>
M aking</w>
L et</w>
Kok iden</w>
Ko en</w>
Kei hanna</w>
KO JIMA</w>
KI RI
K ong</w>
K ig
In tro
Hous es</w>
Hirot sune</w>
Hir ado</w>
Higashi oji-dori</w>
Hid eie</w>
Gojo- dori</w>
Gen puku</w>
GO E</w>
G if
FURU TA</w>
F estivals</w>
Emon fu</w>
Di ffer
Commun ication</w>
Cho bei</w>
Chik at
Chi dori</w>
Characteri st
C in
Bre wing</w>
Atsu yasu</w>
An im
A min
18 17</w>
160 9</w>
157 7</w>
15 00</w>
139 2</w>
120 5</w>
118 2</w>
yok aku</w>
yi elded</w>
work er</w>
wi elded</w>
v ow</w>
ut to</w>
urb s</w>
ur uma</w>
un broken</w>
tunn els</w>
top ic</w>
through -
th under</w>
th ri
text book</w>
ten shu</w>
suz aku</w>
sub urbs</w>
sub mission</w>
su i
strong est</w>
stri pped</w>
sho ots</w>
shel ter</w>
shak uten</w>
sen -ji</w>
se ed</w>
sal ty</w>
rob bers</w>
requ esting</w>
renov ation</w>
remar k</w>
re loc
pur ged</w>
protagon ist</w>
p ath
ov i
oun ding</w>
ou sted</w>
ot og
om ot
om in</w>
om ed</w>
ok uma</w>
off ensive</w>
o g</w>
n an</w>
my self</w>
mu ter</w>
moku roku</w>
mo tiv
lo os
ll a</w>
laun ch</w>
lar ged</w>
lad y-
ji hongi</w>
is aku</w>
inv iting</w>
imp er
ign ing</w>
ici ently</w>
ichi n</w>
hop ed</w>
hig her-
h oto</w>
gin za</w>
gat ani</w>
g oro</w>
g az
g ar</w>
fl ood
fin ding</w>
f ting</w>
f iled</w>
every where</w>
ern ed</w>
equ est
east ward</w>
dr um
dis satisfaction</w>
di et</w>
den- zukuri</w>
dem olished</w>
de x</w>
de als</w>
d ness</w>
critic ize</w>
const antly</w>
consist ently</w>
consci ousness</w>
conqu ering</w>
compil er</w>
circ u
casu alties</w>
can al</w>
business man</w>
ben evol
b les</w>
az aemon</w>
aw ake</w>
archi pelago</w>
arch er</w>
annex ation</w>
ann en</w>
anal y
an azono</w>
al ter</w>
aki- jo</w>
aj inden</w>
ai-no- J
ai-no-J oten</w>
ad equ
Yus oku</w>
Yuk itsuna</w>
Yom eigaku</w>
Yoko suka</w>
Yo hei</w>
Yasun obu</w>
Yan agawa</w>
Y ut
Wom an</w>
WAKI SAKA</w>
U rak
U mak
Tsun etane</w>
Transf erred</w>
Tran sl
Tour ism</w>
Tosho- gu</w>
Tom omitsu</w>
Toku yama</w>
Ti bet
Thre e-
Temp orary</w>
Tanab ata</w>
Tad amitsu</w>
T endo</w>
T al
Stat istics</w>
Sor aku-gun</w>
Som ei
Sho in-zukuri</w>
Shim o-
Shigen ori</w>
Sh o-
Sei yukai</w>
Se as
Sad ako</w>
SU MI
SU GA</w>
SHI ONO
Ris shi</w>
Relig ion</w>
Real m</w>
Oyam azaki-
Oper ation</w>
Ok ita</w>
Oc ean</w>
O SHI
Ne han-
N ation
Motot sugu</w>
Mitsu sada</w>
Mit sug
Mim ana</w>
Matsu shima</w>
Mar u</w>
Makim uku</w>
MI SHIMA</w>
MA RU</w>
M ade</w>
Kurama- dera</w>
Kom a</w>
Kiy osu</w>
Kazum asu</w>
Kaw ara</w>
Kas him
Kan enaga</w>
Kan be</w>
KA ME
K ou
Jun kei</w>
Jod oshu</w>
Ji anz
Ishi da</w>
Intro duc
In shi</w>
In e</w>
In ab
Im age</w>
Ik uta</w>
Ik u
Ie haru</w>
I ri
Hol id
Hig ashim
H eki</w>
H eg
Gyo ja</w>
Gun kan</w>
Gr av
Gok og
Goh anazono</w>
Gof ushimi</w>
Go suzaku</w>
Gen nai</w>
G ob
Fus o</w>
Fuku suke</w>
Fuk ai-no-Joten</w>
Fu wa</w>
Daik akuji</w>
Dai shi
Dai mon
Cop per</w>
Contro l</w>
Com muter</w>
Colon el</w>
B ushi</w>
B oku
B ek
An shi</w>
A su
9 00</w>
18 34</w>
158 9</w>
15 60</w>
z o
z aiten</w>
z a
yot ei</w>
y am</w>
world ly</w>
we aving</w>
war ning</w>
w oods</w>
vill ain</w>
utili zing</w>
uniqu ely</w>
und en</w>
un married</w>
un iversal</w>
un i-
ud aijin</w>
tre ating</w>
tent ative</w>
temp er
tai jo</w>
t ooth</w>
syn cretism</w>
surv iv
strong hold</w>
st aging</w>
sp ort</w>
south -
sor row</w>
sm oking</w>
sl ight</w>
sho zoku</w>
shin sei</w>
shin ji</w>
sequ el</w>
sel ecting</w>
s worn</w>
ro pol
res sively</w>
reflec ting</w>
refl ection</w>
re organization</w>
re j
qu een</w>
pol ity</w>
playw right</w>
perman ently</w>
per -
partic les</w>
p it</w>
over come</w>
out door</w>
ou l</w>
op pression</w>
op pressed</w>
om i
om elet</w>
ne x</w>
mod erate</w>
lit er</w>
lady- in-waiting</w>
ko sho</w>
kai shi</w>
ka ichi</w>
k ills</w>
k ai-
j okyo</w>
inst ances</w>
ind igo</w>
incor rec
im asu</w>
i- ji</w>
i roku</w>
her bs</w>
hatsu- ryoshu</w>
ha e</w>
gri p</w>
fore head</w>
food stuffs</w>
fo st
fle eing</w>
fir stly</w>
fem ales</w>
extrac ted</w>
exp end
er ations</w>
equ inox</w>
eor ological</w>
ent ity</w>
emis sions</w>
ei to</w>
ear n</w>
e- mon</w>
draf ted</w>
down town</w>
d ining</w>
counter attack</w>
convey ing</w>
consul tation</w>
const ables</w>
consec utive</w>
con sp
chem ical</w>
cent ric</w>
calend ars</w>
c ats</w>
bus h</w>
brav ery</w>
blood line</w>
bloc ked</w>
bar s</w>
b ok
b le
b arri
b ari</w>
assign ment</w>
ami- jinja</w>
ak s</w>
ai dokoro</w>
ad ama</w>
achi hiko</w>
absol utely</w>
abin i</w>
ab str
Yok ooji</w>
Yo ichi</w>
Yasu hira</w>
Y ura-
U ne
U eda</w>
Tsuk in
Tokit sugu</w>
Tibet an</w>
Tatsun o</w>
Takarag aike</w>
Tai shakuten</w>
Suk emori</w>
Stor e
Shing i</w>
Reg ister</w>
Polit ical</w>
P owers</w>
Otok oyama</w>
O to
O K</w>
Nobu ko</w>
Nin th</w>
Negor o-ji</w>
Nak atsu</w>
NISHI KAWA</w>
NAKANO IN</w>
NAGA KURA</w>
NA TSU
N atsu
N and
Mot omichi</w>
Mon uments</w>
Mom ozono</w>
Mik o
Me itoku</w>
Mar quis</w>
Man zo</w>
Man puku-ji</w>
Magistr ate</w>
MURA KAMI</w>
MA KI</w>
L .</w>
Kum ihama</w>
Ku zu
Kin kaku-ji</w>
Kei ji</w>
Kann on
Kad ono</w>
KU SHI
KI SHI</w>
Ji shu</w>
J urak
ISHI I</w>
I NO
Hir akata</w>
Hid ekatsu</w>
Hi jikata</w>
HIRA YAMA</w>
Gorei zei</w>
G ard
Fuyut sugu</w>
Fur ukawa</w>
For ces</w>
Flow ering</w>
Doc tor</w>
Dis covery</w>
Dain i</w>
Daibutsu- den</w>
D ent
Coun cilors</w>
Ch uko</w>
Calend ar</w>
B utsu</w>
B est</w>
Act ually</w>
2 2
16 36</w>
13 52</w>
120 4</w>
y l
wid ow</w>
wel fare</w>
viol ence</w>
v ows</w>
un manned</w>
um ogami</w>
u emon</w>
troub led</w>
transp orted</w>
ti ps</w>
thin ly</w>
techn ologies</w>
tar gets</w>
tai shi</w>
supervis or</w>
super markets</w>
stup a</w>
strugg led</w>
stro ke</w>
st ability</w>
sp ears</w>
sp aces</w>
simil arly</w>
sib ilities</w>
shi pped</w>
sh ow
sevent y</w>
separ ating</w>
se wing</w>
sail ors</w>
s y</w>
s aburo</w>
ropol is</w>
revol ution</w>
rev eal</w>
resol ution</w>
rep airs</w>
renew ed</w>
rec tion</w>
re es</w>
public ations</w>
propriet or</w>
produc tions</w>
pro long
priest ly</w>
preval ent</w>
p iled</w>
origin ate</w>
op ens</w>
ong i</w>
on ojo</w>
on jo</w>
olog ically</w>
ol en</w>
ok ot
o dies</w>
no ise</w>
need le</w>
mor ale</w>
mo ist
mo ats</w>
mat ic</w>
m ou
l ord
kon nyaku</w>
kok in</w>
kn ows</w>
kan motsu</w>
k ans
jing a</w>
ji- to</w>
j ap
interv ened</w>
inhab it
hi kan</w>
he itai</w>
h ashi
gun powder</w>
get ed</w>
g ei
g awara</w>
furn iture</w>
fu to</w>
far es</w>
exec u
er rors</w>
en sha</w>
en okoji</w>
emb lem</w>
el ation</w>
disgu ised</w>
dev ot
defin it
cru shing</w>
cros ses</w>
comp eting</w>
co on</w>
chi efs</w>
char t</w>
ch udo</w>
ch arms</w>
ch an</w>
bun in</w>
bu c
black -
bet su</w>
belong ings</w>
bar ric
b ands</w>
az en</w>
ay aku</w>
att ai</w>
ation -
ate way</w>
asser t</w>
arrang ements</w>
app lies</w>
answ ers</w>
aki- cho</w>
ak agami</w>
aij oten</w>
ai ms</w>
af for
ad or
accel erated</w>
a or
Z ao</w>
Yoshi d
Yag yu</w>
Whe ther</w>
V en
Ushi oni</w>
U KITA</w>
Tit le</w>
Ter minal</w>
Teng yo</w>
Teac her</w>
Takat omo</w>
Taka hiro</w>
Tai m
TAKE NOUCHI</w>
T onom
T ent
Shin- Tanabe</w>
Shigen aga</w>
Shige haru</w>
Shig etaka</w>
Shi ka</w>
Shi hon</w>
Set t
Sen to</w>
Sei k
Se igen</w>
Sane hito</w>
Sak an
Sadan aru</w>
Sadai ben</w>
SHIONO YA</w>
S otsu
P eri
Omotes enke</w>
Og ur
Og igay
OTSU KI</w>
O mon
Nob le</w>
Nari aki</w>
Nag ashige</w>
N airan</w>
Mun akata</w>
Mot ouji</w>
Mon t
Mitsu hiro</w>
Miko hidari</w>
Mik ado</w>
Masa aki</w>
Mas afusa</w>
Maizur u-
M achi</w>
L and
Kum iyama</w>
Kod en</w>
Kit ayama-
Kenky ukai</w>
Kanp yo</w>
Kai kan</w>
Kabuki- za</w>
KAN AMORI</w>
Jianz hen</w>
J owa</w>
J ak
Intern et</w>
Im ai</w>
ICHI MURA</w>
I KE</w>
Hyak um
Him e
Heian- jingu</w>
Harun aga</w>
H ind
Gyo en</w>
Gom om
Go shui</w>
Gek u</w>
GU RI</w>
G obo</w>
G ishiki</w>
G is
Fuk aijoten</w>
Fujiwar a-kyo</w>
Foun ded</w>
F ro
Dai to</w>
Dai sojo</w>
Dai sen</w>
D ak
C off
Bun ei</w>
Buk kyo</w>
B al
Ad mir
A OKI</w>
2 8th</w>
180 4</w>
119 2</w>
00 th</w>
wholes ale</w>
wak adoshiyori</w>
ver ted</w>
ut sumi</w>
up ward</w>
um nal</w>
tom b
t reason</w>
sword sman</w>
suppl ementary</w>
sum a-
sub jected</w>
stead ily</w>
stabil ize</w>
squ e
sol em
shell fish</w>
shel f</w>
sh oten</w>
san do</w>
sak ek
s oke</w>
s its</w>
ri kisha</w>
res ist</w>
requ iring</w>
refl ect</w>
rece ives</w>
re building</w>
promis ing</w>
practition er</w>
par agraph</w>
p ad
otom ono</w>
ok it
og s</w>
off spring</w>
odai bu</w>
obedi ence</w>
nor theastern</w>
nai shi</w>
n ership</w>
myo shu</w>
mov able</w>
mos qu
mar ching</w>
manag erial</w>
man gu</w>
m achi-dori</w>
let ting</w>
legisl ative</w>
lav atory</w>
l ac
kan in</w>
k oden</w>
inv ested</w>
intim ate</w>
intellect uals</w>
ing ing</w>
inf erred</w>
ind ication</w>
in deed</w>
illustr ation</w>
ik ura</w>
ic ate</w>
ib ashi</w>
hy dro
hot els</w>
hor se-
harmon y</w>
han ji</w>
h ook</w>
great- grandfather</w>
g arm
garm ents</w>
fuk usa</w>
fu el</w>
fort unate</w>
fi shes</w>
f s</w>
f righ
f ake</w>
est ly</w>
equ ality</w>
epit ap
ep er</w>
entertain ers</w>
ent ries</w>
en rolled</w>
em ura</w>
eigh teenth</w>
eb ody</w>
earth ly</w>
dri fted</w>
do ji</w>
dist illed</w>
des erted</w>
danc er</w>
d ivers
d inner</w>
d anced</w>
country side</w>
cond ol
compon ent</w>
clim b</w>
certain ly</w>
cancell ation</w>
c ow
bureaucr atic</w>
bu e</w>
bri de</w>
bre ast</w>
battal ion</w>
b odhisattva</w>
az ake</w>
ay u-
avo iding</w>
astro logy</w>
assaul t</w>
ar c
anno tation</w>
anno tated</w>
ang le</w>
an- cho</w>
an der</w>
am ae</w>
advant ages</w>
ad just</w>
ach ment</w>
ab sent</w>
ab atake</w>
Z o
Yoshi hito</w>
Yamat ohime</w>
Y ab
X i</w>
Wak as
Wak am
WA KI</w>
WA KE</w>
W ars</w>
W are
W ani</w>
Uw ajima</w>
Uch uben</w>
U -
Tsun emori</w>
Tok iko</w>
Tet sun
Ter ut
Takemik azuchi</w>
Tak achi
Tai ma</w>
T em
Struc ture</w>
So sho</w>
Shu zo</w>
Shizug atake</w>
Shing aku</w>
Shig eyori</w>
Shig et
Shi shinden</w>
Sen zai</w>
Sen bon-
Sei ho</w>
Sane hira</w>
Sakur ad
Sadat suna</w>
Sad anji</w>
Sad amune</w>
SO NO</w>
SA S
S od
S aint</w>
Ro ads</w>
Res cript</w>
R ibbon</w>
Prin cesses</w>
Pos thum
Pl aces</w>
O zu</w>
O ver</w>
O shu-
O mo
O gawa</w>
O KI
Noh gakushi</w>
No z
Nishin omiya</w>
Neg oro</w>
Nari akira</w>
Nakatsukas asho</w>
Nakat omi</w>
Nak a-
N atsu</w>
N ada</w>
Mon zaemon</w>
Min ing</w>
Mi bu-
Masat oshi</w>
Masam itsu</w>
M YO
Loc omo
Lar ge</w>
L oyal</w>
Ky oku</w>
Ku yo</w>
Ku jihongi</w>
Ko zuk
Ko etsu</w>
Kim igayo</w>
Kaz ut
Kaz uo</w>
KI SO</w>
K utsuki</w>
K uk
K ata</w>
Jun shi</w>
Jun -
Ju o</w>
J uso</w>
In flu
Im azu</w>
I de
I d
I I
Ho ly</w>
Hiro saki</w>
Higashi yama-
Hang an</w>
H ira</w>
Gy eong
Gomom ozono</w>
Go emon</w>
Gak kai</w>
F le
Emp resses</w>
E z
Daij okanpu</w>
Dai butsu</w>
Coll ections</w>
Ch u-
C ath
Box ers</w>
Ben zaiten</w>
Ak ae</w>
Ac ts</w>
8 59</w>
7 ,
6 0,000</w>
4 ,000</w>
2 3rd</w>
18 38</w>
16 61</w>
16 23</w>
117 8</w>
' et
z ong</w>
worshi pping</w>
witn essed</w>
warm ing</w>
wa yo</w>
w ab
ut ter</w>
tri ad</w>
tou ched</w>
topp ings</w>
t ub</w>
supervis e</w>
su rely</w>
stri ved</w>
st ing</w>
sp are</w>
sh u-ji</w>
sen to</w>
se d
scre en
s ot
s ory</w>
s oj
s add
rever sed</w>
repl ica</w>
reli eved</w>
re mon
rac ed</w>
pre t
pre m
post al</w>
pet als</w>
p ent</w>
p ace</w>
oz a</w>
oy a-jinja</w>
or ogi</w>
on obu</w>
oku- jinja</w>
no- kami</w>
nation ally</w>
n et</w>
n as
mush rooms</w>
mush room</w>
mur yo
mor als</w>
min t</w>
mand okoro</w>
lab eled</w>
l eng
l eness</w>
l acks</w>
ko shu</w>
k ita</w>
it suke</w>
ir able</w>
ik iri</w>
i hon
hor eng
high- speed</w>
h aka</w>
guar di
grand daughter</w>
fur u</w>
fundam ent
form ulated</w>
for ec
fire wood</w>
f ry</w>
ex changing</w>
et ically</w>
est ive</w>
en larged</w>
en counter</w>
eleg ance</w>
ei shu</w>
ei ki</w>
eg g
ef ly</w>
dis pos
direc ting</w>
des irable</w>
del ay</w>
cre w</w>
construc tions</w>
confer ment</w>
compris ing</w>
compet itions</w>
comp at
com fort</w>
color ful</w>
co al
cl eared</w>
cl ashed</w>
che ap</w>
carp enter</w>
canc eled</w>
c ure</w>
bur st</w>
bu -g
beha vi
beg ged</w>
b ol
b and
b achi</w>
awa- mura</w>
attrac ting</w>
ashi tsu</w>
arri ves</w>
arran ge</w>
ar ashi
an ch
am ata</w>
acc us
Zu i
Z oshi</w>
Z o</w>
Yura- gawa</w>
Yorit aka</w>
Yatsu shiro</w>
X i
Wil li
Ur in</w>
Un known</w>
Tsu ki
Ter umasa</w>
Ten shin</w>
Takatsuk asa</w>
Tak echi
Tai goku</w>
TAKE CHI</w>
Sur utto</w>
Sum ida</w>
Sug oroku</w>
Somei yoshino</w>
Sog i</w>
Shun i-e</w>
Shim o
Shige hide</w>
Shig etsugu</w>
Shi zuk
Self- Defense</w>
Scro ll</w>
San o</w>
San nom
Sai o</w>
Sai mei</w>
SAKA TA</w>
S ovi
S ites</w>
S aku</w>
R ish
Pro tocol</w>
Per forman
P harm
Os him
On onomiya</w>
Ogura- ike</w>
O war
O ur</w>
Nak ajima</w>
N ichin
Murasak ino</w>
Muk omachi</w>
Mor isada</w>
Mongol ia</w>
M utsu
M ing
M appo</w>
M ans
L iang</w>
Kyu jutsu</w>
Kok yo</w>
Kok ugaku</w>
Kok ubun
Koj ima</w>
Kog i</w>
Kaz oku</w>
Katsu mi</w>
Kashiw ara</w>
Kan mu-
Kan mon</w>
Kag ey
KU RI</w>
KIRI NO</w>
K uden</w>
J oj
Itsuk ushim
Ital ian</w>
Inar i-jinja</w>
I etada</w>
Hor se</w>
Hokur ik
Got en</w>
Gos ai</w>
Gor yo</w>
Gen shi</w>
Geb en</w>
G ishiw
De ath</w>
Curr ent</w>
Ch og
Br ah
B ell</w>
An at
Ak ifusa</w>
184 5</w>
184 4</w>
18 22</w>
178 8</w>
16 13</w>
159 7</w>
15 32</w>
14 28</w>
- mon</w>
zi ther</w>
z i</w>
yuk aku</w>
yu zu</w>
yo d
yi elding</w>
whi t
ver anda</w>
v ey
uten sil</w>
ud an</w>
uchi ka</w>
tut or</w>
trem end
tim ing</w>
th ood</w>
tas sel</w>
tar geted</w>
tam ago</w>
t ama</w>
syncre ti
susp ension</w>
sur ance</w>
sub- temples</w>
standardi zed</w>
st on
som ebody</w>
skill ful</w>
shug oshiki</w>
sh oden</w>
sh ocked</w>
sand w
saf ely</w>
s oshi</w>
s og
s ao</w>
s ado</w>
res ent
rec ite</w>
r ates</w>
question able</w>
qu asi-
pun ish</w>
pri de</w>
prec isely</w>
pip e</w>
pen al</w>
parli ament</w>
par adise</w>
p ou
p o-
out numbered</w>
oun ce</w>
ou tr
ou chi
otsu ji</w>
one- way</w>
on shu</w>
ob viously</w>
o- san</w>
north ern
mist akes</w>
mil d</w>
ment ed</w>
mar rying</w>
man ip
m airi</w>
lo ose</w>
lin king</w>
l ottery</w>
l ation</w>
kok udaka</w>
kai seki</w>
k odai</w>
k o-in</w>
k age</w>
jump ed</w>
jour n
job ito</w>
jish a-bugyo</w>
j iri-
j acket</w>
it ud
is hig
is aki</w>
in expensive</w>
implem enting</w>
im atsu</w>
ig an
icul ture</w>
ick er</w>
i- do</w>
hab it</w>
h ind
guil ty</w>
gu essed</w>
gl obal</w>
footh old</w>
flo ods</w>
fisher men</w>
fi ber</w>
exhib its</w>
exagg erated</w>
et sum
emb ers</w>
edi ble</w>
econom ical</w>
e- -
do z
dis appointed</w>
den ju</w>
d it
crip tions</w>
corrup tion</w>
cormor ants</w>
cont ests</w>
const ant</w>
consci ous</w>
con g
comman ding</w>
class ifications</w>
ch azuke</w>
c ry
broad ly</w>
bor ing</w>
believ ing</w>
be ad</w>
b ond</w>
b are</w>
b a-
ay onin</w>
author ization</w>
arrowhe ad</w>
ak ichi</w>
air -
ad er</w>
abund ant</w>
aband on</w>
a- shima</w>
Yoshi yuki</w>
Yak amochi</w>
Y ume</w>
Y ellow</w>
Willi am</w>
Wak ana</w>
Vis count</w>
V II</w>
UE MURA</w>
Tsun eyoshi</w>
Tr av
Tr ack</w>
To in</w>
Tada hiro</w>
TSU RU
Suke hito</w>
Stud ent</w>
Shishi gatani</w>
Shak am
Sh oka</w>
Sek ishu</w>
Sek ish
Sei su
Sar ut
Sanjon ishi</w>
Sad atsugu</w>
SHI JO</w>
SAS SA</w>
S uden</w>
S ib
S agi</w>
Ro ei</w>
Rec eived</w>
R out
Princi pal</w>
Pic tures</w>
Otokun i-gun</w>
Op ening</w>
OI KAWA</w>
O bon</w>
Nos .</w>
Nishi ki</w>
Nis hig
Nar ut
Nak amur
Nagam asu</w>
Nag ai</w>
NO KAMI</w>
NO BO</w>
Moton obu</w>
Mot ok
Michim ori</w>
Maj esty</w>
M orig
Liqu or</w>
Kus un
Kus e-gun</w>
Kom aro</w>
Kint aro</w>
Kin yo</w>
Kei sho</w>
Kara futo</w>
Kann on-ji</w>
Kan ei-ji</w>
KI BI</w>
KATSU RA
KARA SU
K uro</w>
K uri</w>
K ow
Jurak udai</w>
Jud icial</w>
Jod o-
Jo hei</w>
J un</w>
J u-kyo</w>
In pu</w>
Ik om
Ik kyu</w>
I shin
Hon mon
Hoj u-ji</w>
Heijo- kyu</w>
Hei jokyo</w>
Has e-dera</w>
Hachim an
HO SHO</w>
HI KI</w>
H achi</w>
Gokur aku</w>
G ass
G akuin</w>
Fuj ita</w>
Fu yu
Fem ale</w>
En shin</w>
Eb isu</w>
D ong
D on</w>
Cont est</w>
Ch ubu</w>
At ai</w>
Ashi o</w>
Ak imitsu</w>
A shin
A N</w>
99 5</w>
20 10</w>
18 32</w>
18 00</w>
16 69</w>
16 24</w>
16 17</w>
156 7</w>
116 7</w>
1, 500</w>
zai batsu</w>
z ones</w>
y omi</w>
y ellow
y as
w ounded</w>
volunt arily</w>
visu al</w>
ut ical</w>
ure ly</w>
up heav
un ce</w>
u ation</w>
tur ret</w>
tri ump
translat or</w>
transl ations</w>
trad em
tr um</w>
tr ends</w>
t sun
sympath y</w>
supern atural</w>
stu ff</w>
str ation</w>
sp oke</w>
sok yoku</w>
sm ith</w>
shi ta</w>
shad ow</w>
semi- express</w>
sear ching</w>
s core</w>
rob es</w>
ri v
reflec ts</w>
rec ei
re claimed</w>
re action</w>
pursu ing</w>
publish er</w>
postp oned</w>
posit ively</w>
por cel
pac ification</w>
p airs</w>
ou mi</w>
or yo</w>
or g
om iya-
ol ic</w>
ok a-
ob struc
o iw
mon josho</w>
mobil ization</w>
mob ile</w>
mis understanding</w>
min eral</w>
mer ly</w>
me shi</w>
m une</w>
m oku</w>
m ash</w>
m arri
loc ked</w>
li ber
lear nt</w>
labor ers</w>
l i</w>
ku wa</w>
kok e</w>
k uro</w>
ish ments</w>
ion als</w>
intellect ual</w>
inst ated</w>
in duc
in directly</w>
in complete</w>
id ono</w>
ic king</w>
ic it</w>
ic ated</w>
i ro
i hay
host ile</w>
holl ow</w>
handic r
han ko</w>
gard ening</w>
fr ic
fl ags</w>
f encing</w>
ext inguished</w>
est a</w>
enz y
entran ces</w>
enlighten ed</w>
enc ycl
en ever</w>
employ ment</w>
eg o</w>
e jiku</w>
dy nam
dro wned</w>
docum ented</w>
do zen</w>
do in</w>
disturb ances</w>
dist ur
discrimin ated</w>
dis sem
differenti ate</w>
decap itated</w>
dec iding</w>
dan chi</w>
dain i</w>
d ence</w>
cru shed</w>
cr ab</w>
cor p
consp ic
condem ned</w>
compet ent</w>
chest ra</w>
chair e</w>
cere br
c ent</w>
bu chi</w>
bre eding</w>
astronom ical</w>
ashi o</w>
as obi</w>
ari at</w>
arg ue</w>
anti- shogunate</w>
an sha</w>
am ity</w>
am ino</w>
am i
aku shu</w>
air a</w>
ag e
adul thood</w>
ad en</w>
ace utical</w>
access ories</w>
ac hir
ac he</w>
a oi</w>
Zen koku</w>
Yorit sugu</w>
Yorim oto</w>
Yor k</w>
Yam auchi</w>
YOSHI KAWA</w>
W ords</w>
Un do</w>
U da-
Tor i
Ter akoya</w>
Tenp yo</w>
Tenm abashi</w>
Teach ings</w>
Tatsu t
[...]
